BCC3FF08
3CFB2D88
3DB0A07D
BDAFCD42
3CD421DB
BDD511CF
BD4E5B85
3DA53B15
3DF554D0
BD506934
BDBA3290
3DDC3786
BDAE564D
3D476BB7
3D7A2B5F
BCB54074
BD8DA75C
3D4D7BAC
BD12FF46
BC428846
3E0737B9
BD01271F
BDED3759
3DA1A3E0
3CA3305C
3D16F9BF
3D8B66E5
BDB4551F
BCD8CEA9
BD330DDF
BD6BF7F6
3D9B5EC9
BE13E2F2
BD27E0F0
BDCDCFA4
BCED35BE
3E273FBD
3D8A3D34
BDAEC4C4
3B6A7CE1
BE01FD8E
3DE8C230
3D00F675
3E0BCD1D
BD8246B3
3DA99946
3D913F9F
3BECC917
3D626D8E
3B30E73E
BE3BE6BB
3E11CAD9
BD85DB38
BD4E6917
BCDDB654
BDBE87CB
3D50C636
3D861EE4
3D9C0742
BD9C2841
3DA9E097
3DCFAA0C
BD50D5D9
3C8E54D7
3C4A26AA
3D757766
BDCFDD15
BE0C6391
BD1DA295
BCEB7234
BA96CFBB
3DC5EE60
3D960A0C
3DD5310A
BDBB9E30
BC844442
BCB343D5
BDAC6377
3DA3F84D
BC9386B5
BBEAA1DF
3D23A928
3CB8C2EA
3DD7A152
BE04CF03
3E1165E7
3D06F6AA
BC19478F
BDCB601F
BD82B39F
BCC149B1
BC6AA1DF
BD80C33D
BD6291E3
3D52605D
3E259556
BE140CAD
BC4ECC77
BD7E2984
BDE9245C
BCB2BF9B
BD4562DE
BD555FEE
BDC96C82
BD8AE6B8
BCC3B7F0
BC8DFFA8
3DDEF910
BCE3968D
3D923042
BDD04812
3DB058F3
BDF92FC8
BD219A8F
3E05F7B3
3DC488C3
3CFACE48
3D87F726
3D4A1BA0
BDA7399B
BD61F52D
BAB3BCDB
BB57E32B
3D811CB7
3DF4D25C
3E2B2796
BE20A243
BDE5EF44
BE00D516
BC7B2DB3
3BE8661B
3D79DE8E
3D4DD065
BC92EF10
3CC4F2A3
3DC1D47D
BD9A6356
BCF6A055
BD678DC9
BC630CC0
BCAC2614
BDD10F14
BE470929
3C295482
BD755F40
3DA9CAE7
3D312229
BCBF74E5
BDEEE33C
3D978934
3DCD5A0C
3CCA7ADE
BDBF95F0
3B72C255
3DD8D62F
BCE8ABF1
3D0840B1
3B9009A3
3DF0D049
3C24AD29
BDE28B3D
BD3A4B30
BB1414F5
BCBC76CE
3C159BE9
BD7FC96C
3DF0701C
BC867631
3DEFC3B4
BC62FD86
BCE6B7FB
BDFE3378
BD541CA5
3CBEB3FB
BD64A42F
3DFA5366
BDB67B21
3B9225C7
BDA832B7
BE688DE5
3D726058
3D131652
3E533F04
3CC5DB77
BE4FB9C0
BE09A574
3DD2A22B
3DF513FE
3DC45D53
3D90214C
3DE9F4F6
3DCD4138
BDDEF75B
BD116015
BD267A8E
BD8C8AB5
BDB45705
BD80ABE1
BD12CF1D
BDB01757
3D3D2951
3CC9FC28
3DCF0D5C
3CBAA7C1
BD6B4952
3CBEB11B
3D522666
3D9A5FE7
BE2B4FB6
3DEB31B7
BDBAB342
3DA84BB6
BD4E1051
3D1EFAA7
BC874DC7
BD61A0C4
3D0F4DB9
3DB20D16
3D7B80BF
BD266834
BE116F07
3D6FE4AF
3D8A72E1
BB9B9F02
3B9A843B
3D650002
3D82D8F4
BC82EB82
BE34B1A8
BDD925DD
BD8E18E4
BBAA7016
BAB89304
BD4C2C26
3DFD86F5
BC8BB022
3D74753A
BD1F470D
3C233341
BE0C597A
3DBCA3FB
3D00AC7E
BD12FCFD
BDC08145
3D4E29E4
3DBF5E00
BB4C2964
BDA5692A
3E21A11D
3D6243B2
BE81CA78
BD622C78
3CE2AAF0
3DB01072
BDD5FAF1
BD79C9F3
BDE22576
3CD9AC3E
3D8CCDFC
3C94C087
3D7957CB
3DB2ADE8
BE16ADFB
3C468DB9
3D5B6721
BDD7100A
BCF032D3
BD7DD573
BC1326EF
BC99EA27
3D8BA207
BDD98CFB
BCC019E6
BE050C4C
BDF68283
BE5A0BAD
BD084DF8
BE0F780C
3D53C346
BDE6BCD3
3C73EC0B
3E381216
3E21599C
BC3832B7
3B50C52A
3E149119
BD362C85
BD103DC6
3AFCBCFF
3D124814
3D6DEBC4
3DA12210
3DB249C1
3E0B0261
BDE75FCF
BCF14527
BBE60B0C
BD33B25C
BE3A9353
BDF3BCE6
BBEE1405
3E721B5F
BD517ECB
3D13E545
BE1807A4
3DED1B4B
3DE09B0F
BD4CFF9D
3CCE96C7
3DBE7438
BE57E67C
BD86C509
3E89E1B1
BDD7B446
BDD93AF1
BD66F929
3D70D36F
BD7F5617
3CE53F4F
3E650CEB
3D335CC9
BD1E82AD
BD982DDB
BE0DC33B
BDC0A96B
3CC9CEB0
3D459078
BDF0FFE0
BDB36062
BCE23CC1
3D7AB8F4
3DCC1475
3D86A1AC
BB63BC28
BD3D28EB
BC8E7D97
BE5779ED
BB9DD020
3D97FDE6
BDDE21FF
BDDF7FB4
3D695714
3C48A33D
3D8762DE
3E3C4675
3D383BBE
3C044A92
3D9EDD1B
3E081F66
BDC86137
3E0A4F61
3D81BDF2
BD8D063A
3DB02C28
BDA941E6
BCF15D20
BE19F5B2
3A5875CD
3B5E8506
3B738FDA
3BEBE17B
3D53B762
BDC34F96
3C515D2A
BD816D1B
3DA951A7
BCF4AB18
3CE0BF48
BD7B17AE
BCF4ABB9
BD57E212
BE15DA14
BD87FC87
BE04F497
3D954D70
BCFB6ED1
BD075D24
3DA6BDF7
BDD00AB5
3E126944
BCC3B06E
BE0E5D7E
BD9439D8
BD5E8066
BCE6BA59
3D9C0FCE
3DC00DE2
BCFF09F6
BC627D8E
3D5E04F6
BC54CE99
BDA864E1
BD120401
3D34BAA5
3CC771DF
BD9E950E
3D9568BD
BDC328C0
3E0E7B79
3D0E6C67
3D150EFE
3D4D98CD
BDE9390D
BD6D61C0
3D73D532
BBA15F61
BD39F51C
BDB37EEE
3D507670
BE0C6765
BD64E6A4
3D08BF39
3DB0F76D
3D8744E8
3D0DD8DE
3BDAEDCD
3D6348C2
3D48C59F
3D3CF861
3C00C91E
3D8A0C3A
BB69BD73
3CE7063F
BD3E6D20
BDFFB6D5
BDA8704F
3D1CA4BC
3DFD4F93
BD81FBFD
3C2AF60D
3D26CA9F
3D761A16
3DD2CB1C
BD275FB8
BDD6B65D
BE1CEE7B
3DBDA941
BB0340E8
BD0B8FA8
3E0EFBC6
3DF571E1
3BB250B5
BD046405
BD14A581
BCB5BC1A
BD06A5D4
BD2BBFCF
BCDD2971
BCDFFA1B
3D7215BC
BE256A03
3D07F6CC
BC9F7E30
BDBBAE62
BCFA6FBD
BA76BC34
3B8636BB
BBB85D54
3D294523
BD87811A
3D576E08
BDB3AB09
3DE47014
3E22E0A9
BD89DF1C
3DA18606
3D80196C
3D81B1B5
BD8823EB
BD8D75E1
BDBFA5ED
3D99A2AE
BC2DBEEB
BB5E3453
3D85C62D
BDA4A46F
3D7EF3C1
3DF1175A
BDC8D461
3E347210
3E03199A
3BD94023
3D9741A0
BCBFC949
BD87C449
BDB1F58E
BCFFA3CA
3DB0B6A8
BDC625FB
3DC26B45
3E2F3E21
3D5D1AE3
3BF19254
BCE66C8B
3D89FDD1
3D30569A
3CF57B37
BD2962DD
BDD3DDAB
3CAA3E82
3E1972BD
BD173F37
BE53C81B
BD7A871D
BD20747F
3DA6EA56
3DB35C33
3D102758
3B93DDAD
3D39755F
3DA2BA37
BD18D650
BD97AEEF
3DFCC82E
BCEBC129
3D781512
BDE6543D
BDFE04ED
3D9157DC
3DE1C952
3C05529B
BD1D5109
BC824B6A
BD33954E
3C03BF52
BD699827
BD002C8E
3D7CEBB4
3D879916
BDDA316C
BCCFB5AB
BD3C8A5D
3DAB4866
BBBDF168
BD8FFADD
3DA921EA
3D23D844
BDA6808D
3E292BE7
3C2184C0
3DD7FE13
3CD39605
BD1AC8A9
BC0F465A
BDE864F5
BD5FCF91
BCCB9C7B
BCFEADBB
3DE3C58B
3D8701F3
3E30E1BC
3D9485DA
3C8E9DA8
3BBA9715
BC55C519
BDCC172D
3E1EA858
3DB56ECF
3C752A2E
BD01289F
3DC92085
3DEC16AE
BC678210
BD8DCF1A
3B7F9724
3D96BB75
BDA133F7
BB2A8148
BBE50700
BDB27518
BC2634BD
BD893F4B
BBCA849E
3C9002B7
BBCBDDA4
3CB95942
3DC05E91
BA71C3D2
3D02EB8D
3DCA90A9
3CD52826
3D9A6767
3DB2E6BC
BABFED15
3D324B5F
BDBC5BC1
3DE27539
3CD3DC66
3BA1E5AE
3CCF1D75
BD9C01A7
3D2B94E1
3D8E6B1E
BDCE0256
BC44B155
3DC563FF
3D03CC73
BDF752A0
3D440104
BD59BD66
3DCA700B
3CC3E725
BD94A18C
BD8144FE
BC90FFF2
BDFBD215
BC06D176
BB249825
3DF46807
3DC18663
3D05465E
3CDDEBB3
3DA99E0E
BC8A7B79
3DB3C201
BDAA1F7B
3E01FE30
3D217E7B
3CEB836C
BD78F05F
3D385928
3D888E60
BE184316
BE063504
BD4DE477
BD334074
BD1012E0
3DACBCAB
3BE2DE06
3CA6F517
3C811315
BC2E0145
BE8D77C0
BBF44A6A
3D8DF8AB
3D2B6267
BD90500B
BE0CBCC9
BCC08B2B
BDFF9FA8
BC16C99B
3C003F60
3DC22390
3D3214D5
BD20FA06
BD5D396C
3D568939
BD249F37
BD8C0FB0
BDCF787B
BCE1A6B4
3C93C636
3DE9C5E4
BD45AD46
3C840A26
BCF5B1C8
BCF8912C
BCE0E60F
3DBDA825
BD86EB4D
3DEC6A03
3DC3D827
3D3B876B
BDABF454
BCECADC3
BDB6B9CA
3DC7BE38
3E01E933
BCB659A9
3D66C6E9
3CD62BB1
3DDEA08A
BDB1A943
3DB7773C
3E0679F0
BD7829AD
BD562526
BD5A2164
BD619EA6
BE526EA2
3DF039A4
3E2711D6
BD328F19
BE00D0D3
BC4F2146
3CF3050B
BC918BC4
3C465A8D
BDCBBF61
3D22C326
BE6BBF7E
BE10A4C9
3D238C6A
BD4009DB
BC9721C0
BCA2E116
BAB15070
BDC79574
BD0D4CDA
3BE0D9F5
3C31A9E6
3CE7FA30
BDF51F47
BD3C946E
BC07DB36
3C68C0DF
BDAC06B4
3E0EB243
3D8B9DE9
BDE95852
BDB7408A
3DC86460
3DB22CF9
BDD151BC
3D228A3C
3D5A130C
3CD88BCD
3D073E96
BCC7E135
3E0AC34E
3C7C80DA
3C6C1100
BBD1264E
BD05BFFB
3DF45602
3C3FEDAC
BE16CC84
3BE679C7
3E205BCE
BD653F9D
BDA25368
BDA7E5A6
BDD3B107
3CF8C91F
3DA708F1
3DA80247
BDBDC9D8
BDAE1B45
3B297402
3C3E775F
3DED9EF2
BAD1008E
3D98FA51
3B46AFD2
BAEF505A
3D035024
BDA08FED
BD2FB3A7
BD930342
BCD15E92
BDC541B5
BD9132A3
BDB7DB9F
BCB2F8CB
3E14128C
3BFC544F
3DDEC354
3C1765B8
BD846FC3
3DC75417
BD4CFF32
BD9840EE
3CC37E2A
BCA883BD
BDA51040
3CA55C6B
3D0D28DD
3DAE1D7B
BC905512
BD516BA3
BE104DFB
3CB6FCB7
3D325984
3D89A9E5
BD137CBD
3DD0C57D
3D7CC706
3DF3B879
3D0A2B8D
BE06A55E
BE077044
3E980C3A
BD4F0752
3997549B
BDA7C4A3
BD8D891E
BC3C3CB2
3D4AD506
3DF60C92
BDE5A93F
3DC8CD2F
3DAC545E
3E3A7D95
3D07137D
BD2A7211
BDE01F0B
3E05B941
BDD80447
BE4EB4F7
BDA46995
3D55F3D0
3C67A8FC
BD636959
3CF3CE89
BD38DA87
3DAD4BE0
3ADDAC99
3D9BB921
3D0668E5
BE8663CF
3B75A60A
BDB9B770
BE57C380
BD54F19C
3D802E13
3E1C38A9
BE340790
BD35FF00
BC6F5461
BC9FF132
BD916AEE
3DA33555
BD8F53CE
3DB52288
3D3E7CF3
3DC27257
BD7AFCA3
BCF836DE
BDFECB6A
3D2CF305
BDDBEB07
3D59ABD3
3B8870A7
BD1CB593
BCD3122B
BDAC6314
BDC02876
3D78C467
BCAB9E69
BBFE852C
3E3948EF
3D0A1171
BD411ED4
BCB7271E
BC914384
3D30B85C
BC5DC62F
BDAE26AE
BBAF39A9
BCE5FF43
3CFD9D44
BBD02D6A
3D275D5F
BDF2CF2A
3DDAE1BA
BDE70075
3DA18F9E
BC049860
BBF2AF5F
3D6DB324
BD0BBE27
BD8C985A
BDAE3055
BCA143A2
3DBD6B3F
BD5273E9
3DF8F89F
3D566CA6
BD52469F
BDB7BC7F
BDC0465C
BD9AC551
3D8F2B82
3D5588F1
3E12F511
3D9695AF
BE1122C8
BC767C74
BC8A3CDA
3D53B1E9
BDB795BB
3D75373F
3D4902DB
3DB350B9
3D0F37C1
3A20ADB5
3DEF3745
3D1EB270
BDE52888
BD19D5EA
3DB96285
BD56FE8A
3DFD1383
3DAC1ADD
3CD52FDD
BC118AE2
BDD17849
BC49BFD2
3CF7D59F
BDA05252
3BDAFB0E
3D938AC3
BD70F731
BD8C7ACA
3D47E5CD
3D372BA8
3D29463A
BD545926
3C51695F
3B598ED2
3DAB6A7B
3CD9C5FA
3E1A86F7
3D2C7B0B
3D752A57
BE230834
BD584E00
BD266A93
BDF1155B
BDADE4AE
3D6A877B
3D334D3F
BDB97147
BCB2FFF7
BD66A03D
3D110EE1
BC9E7175
3D8D9422
BCFD370D
BDB14896
BD288A45
BDEDE87F
3B6A72A5
3D96100F
BD871FA6
BDD467FD
BD0BB817
BD25F7BC
BD59B0CB
BD9205A1
BD5D4BB6
BD9C365F
BD1B4E52
3D1B34D7
3CD16842
3A4D59BB
3D0A71D4
3DC856E4
BD8D52F4
BDAD22D3
3DD05F6C
BC3B7C58
3D5FD568
BD165AC0
3DBDD958
BD75099F
3CE9AAD9
3DBCB5C5
3C5764A1
BBA267F4
3D46744E
3CA1D95F
3D673B30
BDABBE32
3DBF8169
3DBFE00F
BE61C185
3BBF9079
3D271DD4
3DB4C775
3DF3F2C2
3DF0A7C4
3CF3BACD
3D0EA58A
BDA9D430
3D629DCF
BDA05861
BDAA36C4
3DB0BE3E
BD9DE0F7
BD8629D3
BD1DCEB0
BD5243C7
3CE100BC
3D444F8E
3D42E6F0
BD498D65
3D17A8FF
3D76242C
BD340F51
BBE49078
BD90E28B
BDC3D9C6
3D6FC278
3D8DE711
BD212F9D
BBA557D3
BE0561CF
BD3E617D
3D559390
BDCDAC26
3DA82671
3D425471
3BE92F84
3DDE9691
BC58296D
3DBFF7FC
3D455168
BBA5E369
BDD272BB
BD93FB2D
3DDF59FF
BDD37764
3C89138F
BDD1D0F7
3DA84E60
BE231A23
3D3234FC
3D21BD2C
BD4A8F3D
3DBE9B8D
BDB7083F
3BE4F3B5
3DAAA776
BDAE259E
3DCC1551
3BBABFC4
3CD2A2B5
BD6AEA5F
BDE176BB
3D6922C6
3DC291C3
BC81F6E0
BD28B080
3D88533C
3D2663F8
BD51732D
3D008A5C
BC73E637
BD8A9525
BC1A164C
BCA6B816
3D141BF1
3CAFF1E0
BD07C137
BC8277CF
BE1D13F5
3DA0FD43
BD3D7336
3DBDC49D
BB9D97EB
BD0F0DB7
3DC50737
3D20CD25
BDED0D8B
3BF40083
BE297951
3D62B638
3DB93D30
BDACDA87
BDD0F828
BA06513D
3D91264C
BE165E63
3E2E89B7
3C588ECD
BC5A4ABA
3E026515
BD27A4ED
3CBE64E0
BD241348
3D628792
BDBD191F
3D5DF7A5
BD887688
BD29F973
3D389FDF
3DB16193
3D24E9B2
3D8F03F7
3CEC16BF
BDF7E101
3C77F8C0
BB002B89
BC3CD06B
3D12307C
3DDEE158
3D189548
BDF764A1
BD9F149E
BE38F2B6
3D2ABC6F
3E37CCB5
3E03F7D7
3D0DBADC
3DCAE2FD
BDB903B1
3DFC45D2
3D56DD54
BDCBBFBF
BDCDD33B
BD92E618
3E0743D5
3AD8E991
BD225077
3D83C612
BDF6CFAD
3D4DE80D
3B551CA8
BCCFDC21
BCA80669
BD64684A
BD4696E6
3CA5815F
3D41A0A1
3E3A74CE
3D49AEA5
3E18ED2B
3D3C7AB0
BDE0DD16
3A814B19
BDB37BCF
BE196944
3E20AB10
3DFD0C69
BE19BC53
BDD32538
3A1584E2
BCBA5C12
BBDA66A9
BD53591B
3DFA68FF
BD8E4D6C
3E16B20C
3C1A65FD
BD6A07D1
3D621E93
3E13D0CF
3CC94B93
BBD369CA
3D23D18C
BE14C5CC
BC9CFA17
3CCC9707
BCF9496D
3BA00C7A
BD0A4810
BCAFB46E
BDD53095
3DC7BBCC
3B4AAB5F
3CB54E40
BE1E582F
3DB7F514
3D93771C
BD483B73
BD3EE3DE
BCD428BC
3D6C9176
BD82B8BA
3D2F235C
BE163AF6
3DE2CA83
3E32E6F3
3DBC7623
3D928561
3E5DF17C
3D9CFA7E
BD928937
3D294BC6
BE0C2902
3DAA8C3A
3D80E116
BD694FD5
3D62DD52
3DD7A822
3E49EDAC
BD80A0EF
3D9BA081
BDF009C4
BD97E546
3D88A0EF
BDDAC0E4
BE1BCC9F
3D4710E1
BB345405
BD8FEFA6
BC79EDAD
BD0311B5
3D2B6318
3CA24D72
BD6F3641
3D946541
BD930687
3B3B3D58
3C94610B
3D131BA1
3CAEFA9F
BDE59A43
3E40224C
3CA9C398
3D0C394C
BE0DAC91
3C373F27
BDECA349
3DCF8C81
BE0AF96D
BCE04B8A
BDFEF2FC
3DA7121D
3D1475D6
BCD1E66D
BDB1BA7D
3DB36D20
3E01AB42
3E2133E1
BE059CF4
BC8C237F
3CF93BB1
3D310861
BDD58231
3C75244F
BC7C6079
BE172BAF
BE156DF2
3C800376
BC1A76E4
3C2870F8
BB207581
BDD33911
BC54A39B
BCE466DD
BCD0E97D
BC87E35E
3D03D196
3E022379
3E378C3F
BE28DCC6
3D8B3DA1
3DB67008
3D6A302D
BD0D95CD
3D0850DA
BE8301F8
BDFBF214
BE610EEF
BDF784BF
3D2A0804
BDC7FAD9
3C1006FE
BC0CD754
B9985D04
3D925BB2
3DBB42DB
BE165859
3C493BBE
3C4A79AC
3E12F9F8
BD934F93
BE1FE852
BE0FB8AE
3E0C72FF
3DB77869
BCDC54D5
BE00BC17
3D52C072
BE2D4B52
3DBB1FF5
BD77179F
BD88DF35
3E178147
3E87079B
3D102265
BDF9F965
3DBA8A64
BE17816E
BE329D60
3DB4BA2C
BE07AE75
BD5B18E3
3E5B5BC2
3DA0A6DB
3E14BEAF
3DE4CE20
3E01A5F2
BC95DBDF
3D012209
BDAD4C02
3E279D06
BDF660E2
BCBD46ED
3DD68033
BE69F115
BDAAD421
3C8F3FD9
3D12DD2D
BDA0FDA4
3DCCEBA6
BB830BA3
BB876854
BC5DB410
3D92F508
3DD7B995
3DAEA8A2
BD9E30D0
BCCFFD94
3E3DADE2
3DB969A1
BD131B20
BD9835E2
BD8CA04B
3D2E0819
BD97B976
BDAB431B
3DC255FF
3D4D64EB
BD672F8F
BEA36A67
BD1C9163
3E4291FB
3E037CB7
BABD7BA1
BC3118C7
3C05FF94
3D2D3740
3DD71A40
BCF20D7E
BDD7F716
3D4DB151
BD952CCD
3DB6EAAA
BD742D36
BDB277E6
BE218718
3D8F0E63
BD5563CD
3DC0E8CB
3D971F54
BD069A18
BD1756A1
3CD70971
3CC9B896
BDD6B63C
3C80F38B
3D5D7B5E
BCA72955
3E44FF4A
BB56088B
3CEA3EFE
BD3ABC1E
BD4C2A02
BE4310CB
BE0A6F19
BD232A9D
3D8EED1F
BE051AC8
BE082A3B
BC08B2D7
3E0C915E
BD1D31A2
3D372FDA
3D4328A4
3DA636E2
BE2783D0
3D17079C
BA508B1D
3E0308CA
3D4B0CC4
BDE80500
BE59FD86
BD91311D
3DAD39F4
3DF6A2E2
BDA3D06A
BDAAA50B
3CC8BE40
BD34F883
3B1F9ABB
3DF97048
BCFCA9DF
3C4C7F14
3DC39454
3D138680
BBAFEA13
BD9A718D
BE10DD32
BD8D1988
3DF2E57C
3CCD93BC
3C1EFA61
3DD42ADE
BC1E5967
BD5B85B5
BE373667
3DBE79AA
3C63F9AF
BCAA5FC0
3DC42F19
BCD176DB
3D0E21CC
3D5F5446
3D50010A
3DD6FB7D
BC2B64DE
BE08720C
BDFADC9A
3CA104ED
BC40CCA4
BE25FED1
BB98C737
BD01881B
BD86A39F
BDB14D19
BE0559A2
3D82A5CB
3D6D7C70
BD62F075
3D4A3C44
3C3AB9B0
BDD99EE4
BBE57189
BC36B6F6
3DFA85BC
BDC2B178
3DEB2026
BD9ECC5C
BD62BB0E
BC547416
BC6F1663
3D742492
3CB2CD62
BCE3E7B1
3DB8E111
3D10EF9C
3DA7269B
BD903394
BD0824D5
3CA8BA99
3C6B200A
3CF39782
BD499367
BCECB28B
BDEB1425
3DC04B33
3E485784
3DE6CA3C
3D61B247
BC969DD7
3D8A228D
3DA9EEC7
BDD1F996
BD677B47
BD65F481
3D1BAB9A
BBD2E2D1
3D9613E2
BDC65DA5
BDDBA4F0
BB118B83
BC5A1DC3
BCDB72C2
3D11B562
BD8D5E15
BD3E3D25
BD637230
BDD4ED37
BD9317C2
3D2A9A18
3D1ADCE0
3D05DA37
3D25F977
3E04B0FE
3C1EC2AE
BD00C507
BD1F6D49
BD33279A
3E00DEC7
3C262C24
3D102B21
BD0ECFD7
BD219BB9
3B59C5DA
3C2DF10A
3E2B6909
BDA000A4
BD4D6889
BCBB66F9
BCF253F0
BD91F7DD
BD09801F
BE7FF492
BD19351D
3DAABABB
3BC982C0
BB4176AD
BC482E78
BB4D72BA
3DD2B327
3CF30AFA
BE131166
3DD9757F
3E6A53AA
BBFE350F
3CD5CF4A
BE0724F4
BDB11B92
BE335D35
BD8137D7
3D7433FA
3DB8D918
BCD1FF31
BD80D734
BDBAC8B4
BDD456EB
3D216060
BE69BDBE
BD1E31DF
BDAFE3A1
BD801AB1
BDDA78C9
3B0A61EE
BD44B170
BD261DCC
BD0DB74E
3CBDCF49
3E0331D1
BE168F59
BDC62A11
BE03FC52
BD8A7A26
BE011E46
BCCA2807
3CEC96DC
BBB946DE
3D069B17
3D2A2B62
3C821B4E
BCB7CBB9
3BFF9638
BDE5B254
BDD7B28F
BCE02E53
BD41CE94
3C855991
3BB2E459
3B250157
BDD231F1
3D2B946E
BDBDF551
BDDE01F4
BDB4E994
BD64A693
3C54940C
3C8D1511
3DB80D7F
BD01D04F
BDB6BA61
3B8B1776
3DFC4E60
3C496E94
BC881421
BB82037B
BD95946C
BCC255D6
3CE8391A
3DE9EF66
BC58F606
3C8B248C
3D39A253
BDC630AA
3D526CBC
3CBB56E9
3DBA0F99
3D3747B8
BD7D5DB7
3CE59672
BD55C6E9
3B78D310
BD471116
BCE11259
BD168367
BC3883B5
BDB5F804
BDA4955A
BDA1969D
BDF62743
3CECE8E7
BD264CF9
BD8E3AE6
3CF17767
3D8F3F3B
BD8E0A2E
BDF22217
BDC66CAE
3D65A51E
BD9F31E7
3CBB7FAE
BDA2992B
3D48BA31
BD8075BF
BD62AD8C
BC15408F
BD450B83
BDD16225
BD6DA33C
BDC62284
3DA917D5
3DA3B1A4
BE10D243
BE110132
3E0B7CAE
BC6FC9D2
3DE0C442
BC7544A6
3DC47EB4
3B08B012
BD722AA5
BDE6110C
3E331A00
BD1C7D6F
3DB47F2A
3DFE44BE
3B9FD7B7
BDE687CD
BE10E8AA
BE191107
BDCF1CCF
3D9E6EF9
3DB56081
3DAA5962
3C76615B
3DC176D6
3D57E83C
BDEF9F15
3D5DEA74
3C485D11
BD37528F
BDB96587
BDE380D8
BC4D12D8
BB5911D5
BCE9F298
BC9A4912
3CA86148
BDB01F23
BD0A5757
BCE9A53B
3D12C42B
BDFCC60C
3CBC11A9
BD64C08F
BDE1C698
3CAB5D66
BDF47CFA
BD9BD60D
BC9835BC
3D372D0B
BD5CD4D2
BD789EBA
BDC83AFD
BB8A0943
BDA520DC
3DC55FE0
3C5CED81
3DB1F35D
BDB02830
BD8AE20A
3C861E82
BDCDED35
BD5D86CC
39DBF305
3D361B88
BC080B92
3DABB3FA
3DF0FDFC
BD4F112D
BCB2BED4
3DECEDCC
3D0F3547
BD7226A6
BDA5C5FA
BDE2E5C9
3CEF2750
3DB5E94B
BD94D693
BE5A716B
BDAB3183
3D3410CE
BE659757
3C184795
BDBF7035
BC01D2B3
BDAF71D6
BD6B645D
3D93B699
3E4F8D66
BD3EB0F6
BD126A18
BD2266B2
BDAC9698
BDFA0C94
BE32B019
3D82A097
3B01BDDB
BDE83EB8
BDF65E7C
BE27C9E9
BDD45901
BC30D372
3D572ABF
BD246CD2
3E6120E4
3CED4C44
BD9DCD2B
BDB460C3
3E9752F6
3E90EA67
3E213D18
3CD9793E
3CD3D37C
3C56CFB0
BE895B48
BDDB8E37
3C0BB3DE
3DD1F752
3B7DA0D5
BDA9E947
3CCBA941
BDDC3BF2
BDCB4E37
3D352D81
BD5F3961
BDC9AC7C
BC9C7D8F
BDBE937D
BE73D43A
3DDE1797
3C358426
BDC791A7
3D7D4335
BE1741A8
BD4B607C
3C360B8A
3DCB57CC
3E055E6C
BDF5136C
BE2EE0DE
BD7C835C
BD6D5D46
BD9B5100
3E57528A
3DE6157D
BE2B399F
3D39BA16
BD2CF168
BDC1CD91
BDBF450A
3D9FE17A
3CA4EEFD
3D94B363
3E96BDDD
BDECF90E
3E03535C
3DB0D175
BCDBB64A
3D69CC0C
3CE12A3C
3D80E9A7
BE4CB368
3DCA9F69
BE0C8E61
3E5CF136
BE3EBF6E
BE1C4BA0
3BD6CAFD
3E2222A7
3D1B19A9
3D583119
BD1FA80E
BC4CE7E5
3CE3C5CD
3DB1A4CF
BC8A9306
3D2954A0
3D1DA847
3DAA16F6
BDEF5DE7
BD6BAB14
3C07F827
BD9528F6
BD0B64E0
BCA07866
BD98AA2E
BDA4DAAE
BCBCA32F
BD293F74
BD8F8DFC
3D888500
BA7F3A88
3BE128E5
BE657B92
BE60E5B2
BDD9EAFE
BDE0DD5C
3CCE7B69
BCE32457
BC5D2159
3D720A46
3D469634
BC9CB319
BD5693EB
BE41437D
BE0088FB
3AC4D405
3D9A4FCD
BD656659
BE09010D
BCE2FEB8
BDA529E9
BD77CDE5
BC4B7549
BDC862C9
3D9647F8
BD093D61
BE02868D
3D7D5220
38EA80E8
3D127855
BCE4958C
3D18A934
3DBC2521
BC93CE69
3BEC5741
BE73D5EC
3CF8B162
BD5C93BA
3DA104C0
BDC23BA8
BE304628
3B824A1D
BD3B6492
3D5293F1
3DDA50CF
BD0537B5
3D550617
BCA99641
BC1D9B5C
BCF28AF2
BDA29D3E
3E5D807A
BD53153E
BDB1686C
3E1BD596
3E2A94E4
BE53588B
BDFE786A
BD227607
3B6C4CF0
BDD12766
BE0EA2D2
BDE5D042
3E1D297F
3C1ABF1E
3DDCC921
3C47C3D9
3CBBA8E8
BC2BF338
BDD1BB83
BD9B5F35
BDAD012D
3C252ECE
BE462F91
3E6068F6
BE015342
BD0A7DFB
BD9CE78B
BDF95D9F
BCCDDA74
3D93213D
BC0928DE
3D1866A1
3D2E02D8
BE2C678C
3E0E0795
3E119C95
3D0B32F9
3CF4C33B
BCF1F8C6
BD4A6389
3CB6A6CB
3D88C4C4
3D9962F9
BDEF8395
3C861553
BDB0C54F
3D16A9BB
3D0811E2
3D84E2A2
BD941DCE
BCFB7029
3B66258E
BDA2B261
3DC10B99
3E67F50D
BB230904
BD36F73B
3E16F340
BC508513
3D538D43
BD3CA763
3DBA29D4
BE39507F
BE035C0A
3DBBE8E3
BE2202BA
BB2D47A1
BE1658C5
BE1428C0
BE3B1F04
3CAB64D3
BCD12120
BD3804FF
BD65F4EF
3CDF3814
3D0DBD3D
3D55D811
BCA2BA6F
3D517451
BDC6D225
BDADEF89
BCF000A4
3D8FCD4A
BD36D0E5
BBD976A9
3D6C39C2
BE0FBD60
BDBE9289
BDB2C8D1
BC5A4D1E
BE05BDFF
BD21C6C4
BDC3E052
BD3C6ACD
3DBA0F70
3DFCA6E5
3D2D7544
BCCA5244
3DC05AD7
3D1B1AD1
BC84B71A
BDE75E42
BD367364
3DB84743
BDCAB253
3C6884C4
BDEDD764
3C2ACC06
3D0D5F64
3D2AE4CE
BC642579
3BCC331F
BD3179D8
3DE1D377
3E132A2D
3D828045
3DE4CE57
3D86540E
BD884ECD
3DEF0736
BC82E42B
BD74DE79
3DD5AED7
3C91B321
BCAFC4EA
3D64A417
BDF59EF7
3D8E06C0
3E0315BC
BDB636A0
BD304187
3DB2663D
3D993FE1
3C4D9082
3B47BA94
3D79DB5B
BB8575E1
3D54E377
3D877132
BDA7C843
3C1D63A9
3D41D400
BD8341B9
BC9559EF
3D86B4D8
3D6DBB7A
3C7710AE
3D17F39A
BDC27E75
3D002026
BD96A8F9
3DBE93C4
BDA16A8E
3CD1B8F0
3DBEE514
3D3A66F4
BD40B93E
3B8F531A
BDD27B03
BD31C4BC
3D9AEFD7
3D8D57E6
3D74880D
3DD6FCB1
BD0DC240
3ADEC116
3D00C8D0
3DD52714
BCA79F46
BD98A1AB
BDBA7890
BD35B963
BDD7CF80
BE23974A
3D12A6D6
BDE06FCE
BD114C30
BD526FCF
3AE8A61C
3D97ADA2
3DAD3158
BD722122
BDDE3A59
3D66C0A1
3CF5446B
3CEE2608
BDD347B7
BDB5920E
3DCB5D49
3C8992A1
BE064485
BD602BA2
3DD28BB3
3D837AD7
BD90DE0B
3D8F2274
3E0AF893
3DC43B5F
BDA4243E
BDC4B69D
BC9243CA
BE025A28
BD29E8E2
3D200E38
BE6B85A7
BC65DA45
3DCDDF88
BD96C379
BD549E80
3C1786F0
BD911644
BBA6A5DC
BD2A9151
3DB3EAFF
3D7BF38C
3C7E72ED
BD03AE7E
BD9A98B7
3CC0494C
BD7E5090
BC94B60A
BCDAF001
BD399728
BE34A6E9
3CDBDC5A
3DB2C1E1
3D8A59CB
3C6883ED
BC90781D
BCE47C91
3E3106E5
BD958C09
BD4F10DF
BDEEE693
BE07BF5F
BDA2B203
3E32E70C
3E229615
3D0558E0
BD8AAF4B
BDF3EDF0
BDAFC884
BDFC55EB
3DA0DA40
3D98B664
3BDCC1B7
3E61A58B
BD681799
BB3DBDE6
3D0EF8AC
BDE338B9
BBD3DA88
3CBD6840
3C1206BE
3E0E60B1
BCC6C3A9
3E0B10C9
3DF464A2
BE35ADA0
BE1B9A84
3C77DED4
BD372975
BE2F206F
3CADEC0C
BE08226D
3DAEF302
3D7D47F5
BDFF5B54
3D3C6B23
BE17A164
3E104F13
3E0FF1D7
3DFBA11B
BDB54E92
BDA775D7
BDD324F9
3E34D72B
3DDC16B2
3B404906
BC4143E2
BD4589E5
3D83FF59
BDF23612
BD80ACF1
3DB56092
BBAEEB25
3D177FEF
3D1FD878
3D80C619
BCA53229
BE0147DE
BDA9DBA8
BD16CB94
BC61B862
3E286FD1
BDAA97FD
BD3B98FB
3DB466BD
BD5A4612
BC4B817E
BC91C799
BDA26630
3D3A06E7
BC7B354B
BD081812
BD1F280C
3C1B68D2
3D8AF306
3E19DA98
BE17184F
3C49C12A
3D80EE45
3D538C41
BDC83C32
BDE1D38F
BD2B2B98
3D26C201
BE987AA7
3D85CCBE
3DDCD8E1
3D4F4342
3D8A14BB
3DE08BAE
3E40E34D
3D6642BD
BE475F6F
3B664295
3C405570
3E19F123
3D98E1F9
3D86E7A3
BCB115DD
3D8654CB
3D404A8E
BCDDB949
3DC3CA76
BC53A7BD
3DAF2A0F
3D018DDC
BD83EDA6
BD91A025
BDC90DCC
BC34E301
BDFCB28D
3D6D637E
3C8D5D56
BD397DA5
BDD66CE1
BDD64B88
BDC1F8A5
BD939F46
3D4B08CD
3DE9E90C
BBC9F9B4
BD0E92E0
3DB048DE
BC6164D5
BDDDD455
BDDA454D
3D997BA4
3E23AF1C
3D6CC307
BCD2EE14
3DF1BC49
3D8746D2
3CBF537D
3D013DC8
BE116817
BA8E08ED
BD9330CA
BC355D90
3DD79213
3C50F7B5
BD9A3EA8
3C99A456
3CA8BD94
3D667319
3CEA9C30
BC94E1A9
3CD18625
BD9B6655
3D132081
BB854564
3E167700
BCF4D8EB
3DEB55A1
3E2912EE
BCC512A4
3CDD17BE
3D52EDCB
3BFD599D
BD6D5325
3C5D794D
BD98B93F
BD3CB02F
3D1C3A99
3D627EB3
BDB67EE6
BCC40BF3
3D361E82
3D84F734
3CD54780
3DB126CB
3D8593C0
3E11959A
BE0D7A47
B99EC528
BDCBDEE2
BDD5F67E
BCD717EA
BE036CF2
BD5E610C
3D38E4E9
BCB37477
BD57DE30
3CFFCCEF
3D20AA52
3DFC2519
BDAA9DC0
BB79C858
BD0AC0F9
3DF9DA68
3B8B807C
BDC47291
BD58331D
BD3E8D34
BCCCC774
3D662035
BD232493
BC596D39
BDC7604F
3D827F48
BBBCC269
BD572962
BD6DAC23
3D1FD3DB
3E10494B
BBF5F5BB
BDFEC3D4
3DB38C1B
BCF88882
BDE4051F
3C02387F
3DD10E83
3D55EF20
3DC1C277
3DFF7B1F
BCDE2FF1
3D99BB57
BD82CF50
3DBB640F
BD928891
3C604981
3DE5F302
BD9ABD63
3D72919D
BD8078E9
3E12E2AA
3DB3518E
3E02F5C9
3D9FB8A8
3DA6B160
3D7FB11E
BE292307
BCBFED6B
BA13C092
3DFC255E
3D9431BD
3C8042FC
BC04C186
3D8AF636
3D07AB1D
BE07CD26
BDFCBFD6
BDD5F166
BCB57D5B
BD6F0998
3D8DC47D
BDDBD895
3D3885F3
3D34FA6B
3D8A67D0
BE192AC1
3D54A216
BC7417EA
3D2E80C2
BDA3FF3B
BDAFA97F
BD529D13
BD589700
BD9A6BCF
BC7FB349
BE01BC24
BD7C9BBA
3C9D3F00
3D913316
BC0C4177
3DDE0A0B
3DAACD62
BDCE9935
BDAE5BAA
BD86B4E3
BDE86442
3D352879
BC264B23
3D87AB05
BDBB9507
BD8B0F1E
B9A4AF21
BD6B0D09
BD847D20
3D7BF8DA
BE106A48
3E3226DB
3E0029AC
3BF0E820
BD1A9052
3DEBFC83
BDFC6296
3B19BEAD
3D945194
BDF6DC3F
3DABC764
3DEBF681
BD8585FC
BCEE25B3
BC999E82
BE0223D7
3D16AA56
BC10FAC4
3C5A3FDD
BDEEDA2A
BB03789B
BD9F43C9
BD1F048D
BCA75330
3C549E3D
BD9B6E9A
3C8A7514
3D2C3177
BD625AAB
BD92EAA9
3CCD778D
3DBCC516
BCCA1034
3D900FFA
BD54F85D
3B02A389
BD7D7AAA
3BDAE00B
BAFAF14D
BCA5DE66
BBDD0B33
3DA0D315
BDDADA47
3CC738EA
BD17AC97
3DC680EF
BDDC4773
BCB10DD4
BD9BD733
3E13F968
3DF1211A
3C237CE8
3D7A0E44
BC6558AA
3D9F6CC8
BD88E617
BE126457
3D3C42B7
BDAE983E
3D4AC0A9
3DCED6D7
3BB829D3
3DCC00FC
3D7F0E66
3D45DBB7
BD81E9A3
BD956C09
BE05F82D
BD5C1857
BBC46DC3
3DD53391
BCA6AA19
3D80989D
3D86FE22
3CA7EE97
3CEFA6EC
3DEE623F
3E13DDC3
3DAF55E5
3D4E2674
3CB2FE55
3D3F425D
3DD27574
BE2A8427
3D90838F
3E287AD3
3C7399D6
BDF932F0
BE3C5E60
BDD68276
BC67A35D
BDF4633D
3D36DA57
BDCED1B5
3CAE525E
BD961F4C
BD66861F
3DDDA6B4
3C3415E7
BC91935B
3DB2B111
BE17A2E3
BD936AFC
BB839C01
3DD86BE1
3C9D738E
3DF793A1
BCEE1531
BC97DF7A
3C728457
3DE10517
BDB483C2
BD9B819D
BD629E38
BD50AEEA
BE04F152
3B89F9FF
BE1464AA
BD96A1E7
3D59677A
3DBFD34A
3E22322F
BD37FFAB
BDB51A9D
3DB6BE22
BB91143A
3D5DA9AF
3DB339C4
BE012C0B
BC4C0405
3D8CD132
BDA97345
BDE6DB7C
BB9F658B
BD139127
BDC78AFB
BBBE29C7
3D736783
BE1D0605
BE01286A
BDEE59E0
3D633623
3C6C8C50
3D992EDA
BDA4AE5D
BD73DFD1
3DF557BC
BD83090B
BD39217F
3C8470D8
BC91BBCA
3D8C28C0
BDC6EB19
3D9081AF
3AD12A80
BE2DEDA7
BC1A110E
3E30F9C0
BD65A605
BBB2FE5A
3DC3CB45
BD8A7096
BD0EDB42
BD10A806
3DF8846B
3D9D4E05
BC6B0E2B
3DA6C35F
BDE09EC6
3D98EE7C
3C86AA99
3E188393
BDB8E28D
BD75C41A
BCB62ABA
BD9A34CA
BDBA827E
BD352CB5
BD32B935
3D869545
3E02EAF3
BC538DBC
BDDA90B6
3D0E7FBD
3D58ABFE
3DFD8634
3D810BE0
3DBFB1D3
BD91C718
3DA4DCE1
BDC217AE
BE4B5AD5
BD114ABB
BD863644
BD8964F9
BD48615E
BD3549DC
3D65E301
3D63EDF9
BDBA8009
BB40C8DD
BD803F67
3DCA01DB
BDB84423
3DC9CA96
3D8FB7D8
3D698AFC
BB45F395
BE40B2CA
BD2332C0
BD579007
BE3A5CA1
BCDF4C76
3E238359
3C311190
BE11B778
BD61C760
3E0145DC
BC23B45A
3D903E56
BE04DC74
BD8EA144
BD9E87C5
3D08A8FE
BDB4BAEC
BD310714
3D90FFDA
BE1E4480
BBFA2083
3CC1FF94
BE1458FC
BDC9D94A
BD9426AE
BCC45BD5
3DAE8BB3
BD85C257
BDB08AD6
BC6DD053
BE466C65
3D954196
3C147DC6
3CCE2588
3D755877
BC8BC18A
3C2B68EF
3CCBEA19
BDE100F7
BDE9A539
3DFBAFDD
BDF62C6A
BD9ECCF3
BCE7CD44
3D43ABE1
3D945470
BAAA6C7B
3D87EA8E
BE11D694
3D2D2354
BDD6D7DB
BC7EEFAA
3D18BFE2
BCA54087
BDD433BB
3CBC9C58
3D023FF9
BBC16E34
3D9FB559
3CA74C1A
3D1CB4B4
BE027ADA
3D2463F3
3C512B61
3DA77971
3C498A42
3C9E3CAC
3D2A81AC
3DE90CDC
3E050F9B
BD639E12
3DC8991C
3DBF48D3
3D18141E
BDB21A63
3E011ABA
3D401742
BE8DA3A0
BD93D100
3D18B985
BDE4A25B
3D815638
BCC5E2B3
BC6D16A4
3D7C0021
BCB8C5F5
BCD00DBA
BCBE0BDA
3CCDD6C3
BCC658E5
BC679240
BD5341BC
BD3E53B3
3E047E6B
BCC34BDF
3E2632C0
BD45D514
3DB4CCC5
BDAFC358
BD83937F
BD783CE5
BCA31D9C
3D9BEA0C
BBECF6CE
3D09D792
3CC5E7B6
3DCC61AD
3DA09D8C
BD07A0A6
BC404413
BC88E7FB
BDDD8D2D
3DF94570
3E0028C3
BE20D3F9
BE2FAE5D
BD5A9B82
3D7558AD
BCCD9712
3DA48AC4
BDE1C7A1
3C458A03
BE2F1923
394F0A95
3D672142
BD20AE91
3E0293D3
BE1C33B9
3D012AF6
BACEA037
BDA134E1
BC8CD581
3C9C9994
BD2323C9
BCE72D56
BE09A889
BD585274
BCE6ABA6
3DFC73E7
3D9EC9F0
BC8CD48A
3D919443
3D36030F
BCEB099E
BE09549D
3D1095F2
BE2EFE8D
BCB6B665
3DAA15C0
BE3494AC
BBFA6A14
3DA8CA18
3DF1C10D
3D5AE920
BDA63A5C
3D860856
3E4B2AD2
BD89452E
BD16834A
BE52F93F
BD997026
3DC09611
3CD66293
BDA0A180
3CF783B0
3E1A9689
3E440689
BE6A2268
BE079B32
3D402849
BDFA7383
3D05C5B5
BDAF3F81
BDAD7329
BD007972
BC9C527C
BC9C8E71
BD979B64
3DABE84A
3D4ED15C
3DA57B72
BDC39156
3DC91B66
BD0DB8AD
BCD54FA3
BC2000F2
BCAF7040
BD74E1A4
3D9ED920
3DDAE1BA
BD4651BC
BD0F1D3C
BD6270B3
3DA92BB6
BD89530D
BC91ED4D
3DF517F8
BD38EA7A
3B4060AE
3DEF8A7F
3D975F5C
3D03E687
BDA1BAEE
3D4253CD
3D61A7F3
BD937B8D
BC90CE39
BDB0F585
BCD1AE03
BD3A9C20
3CEBF0CA
3D5D4822
3D774E18
BDF50968
3DC20F10
3D075653
3C4F9EEF
BD9EB859
3CCE8E2D
BDAC9E27
BDCB569A
BD56574D
BCF10A7F
3D43C979
3D8443A1
3DB402B3
3D3BEAB2
3E06D542
BDC05282
BAD0373A
3D07DB6E
BD1DBA96
3C09DA54
BBAA3CBF
3CDE563C
BD87E785
3CEB8E54
3D457E82
BE016FFA
3BF10F77
BD6EA5C5
BD3D5317
BCABFED1
3D549612
BDBAA93A
BCF759B3
BCEF469A
3D2E5C9F
3DE8A5E1
3D91D53C
BD9911AC
3C14C99B
3DD22B82
3D228FF0
BC6A0679
3D3C58C4
BD8807C6
BDF4C941
3D48C7A7
3D674D44
3D283CC5
3DA9FD03
3D8620AD
3DB578C0
BC745C53
3D5280FF
3D27C033
BDA48548
3CE3A1BB
BE1811A0
3DC618BF
3DD4145F
3C942A59
BD968A9E
BBB4E73D
BDEC3D9B
BD70D776
BE076DF9
3D4538FF
3D0A9A93
BCDD5622
BCB5472F
3DCB8B92
BCE38B75
3CA2709E
3D23F10E
BAA093DF
BD8A4D26
3D929E0D
3D40A9E7
BD2DEEA6
BC88DDAF
BD4B21CA
BCB2503F
3E007B22
3DA2A080
BDA69CF6
BCF11DBA
BCB007DB
BD4499F3
BDA23C7C
3DEB4A66
BDC77E75
BD0326D1
3CA16E3A
3DBF2CB4
BDA83A81
3D0EB34C
3D4AD97D
3D40F035
BE257AF2
3E09171F
BD82DBEB
BDD7EF05
3C15FD98
3D801BA0
BDE4F402
BD5C3716
BD94423B
BD11F337
BDD38D00
BC173F62
BC8BDAA4
3D414341
3D143F80
3CD4CA07
3D947714
3D933CA8
3D1E1115
BCD8EFE1
3B43B928
BCF77DEB
BCC01FF6
BCB454EC
3D174F27
BD89728D
BDABBED0
BBEC599A
BD6AA230
BE099542
3D89311C
BD604E9A
3E18A3CB
BDFFC27A
3D7D2629
BCFB8425
3D61C743
3D766760
BB7C9EA2
3D2B38F9
BD932495
BD869D53
3D53FC26
3D4D1B26
BC457824
3DD2501C
BDC0CDDD
3DB1BD7E
BD27EDA0
3D89B42E
3DD329E8
BCE70583
BC2BA49F
BD666705
3D7A43B6
BDD77861
BDCC2D6C
BCD41D23
BD5BEEC9
3DC1F74A
BD8FF899
BB616409
BDE381C6
3D958449
BD57FF02
BD5E1887
3C9BB283
3D00C78E
BD5D4916
BD48E544
BDC2A4C7
3D4986CF
3D3671A4
BD70DC9F
BD5B569E
3DB013A5
3D062BA1
BD3330D2
BDB5BB15
BCF85D9F
3D153ECE
3D97BBEA
3E01791C
3E13051F
3D62627E
3DBEED01
3DCB904F
BCF46420
BBE529D0
BDE06707
3E142455
3DDA9F50
BC5EB334
3E171BB9
BD9142E7
BD342335
3E014F55
3C4BA860
3D4B5370
3CFC65ED
BDBADCC0
BDA96999
3D8F6CF0
3D8B5968
BD9B840E
BCC49D1E
3D6C4822
3D3E80CC
3DB57180
3D920939
3B3C0453
BD9DD18D
3D2EB1C2
BDC6E094
3D11D791
3D2B3C36
BCFE49FD
3D28BD30
BD409B46
BCE0C191
3C58C9B0
3D8F5F48
BD6362B3
BD5B4F6C
3DA9BF34
3D9EADAB
3D8D3020
3DC50B39
BDBEDD07
BD3418DF
BD58E0DF
3C81118D
3DE40632
3CAE39E5
3E0736E1
3D8BC2D0
3E004ACA
BDB74DF1
BD32C7E1
3D5D5754
BE26B0E6
3DEF2AEE
BC6FE494
3E6D9331
3E4D4AE3
BD8D2142
BDB0F17F
BDDD1A8F
3D683A16
3C983EA6
3B86B63D
3BEA9575
3E6E2490
BD3B0186
BE08E382
BE024CF3
3D686966
3DDC2F7B
3E6C4BD8
BD73BB0B
3DAAED14
BDC52D9D
BDA075A4
BDE43831
3D3252A8
BC2056CD
3BA1A455
3CD0DA4E
3D704A63
3D1FD20A
3D9247EE
3DA5FB7E
BE359AA4
BD87686C
3D6C10BD
BDEF62E6
BE92B001
3CED5D40
BD72C37C
BE44FD72
3E47D6F8
BE21A3D7
BE022354
BE279F19
3E9E0F5F
3E01A72E
3E534E8B
BC4A0999
399B35D1
BE21BA6A
BD978DC1
3B50E50A
BE66A6E5
3D509D2E
3E0799A3
BDCCF4A3
3DAC973A
BE826F83
3C714DEB
3DAB45E4
BDE9FC8E
3CE05276
BE64DA22
BCD8B375
3E57F0FE
3E5CA6FA
3DC92B50
BBC9B1BA
BCF40F81
BDC621E1
3E3BF2F0
3E16304B
3DA159F1
BDD30EEA
3D863A8F
BD6C8B54
3DA4A00C
BD889F06
3DB4823C
3D2D8829
BD6D024F
3C2E074F
BDC57198
BC84E227
BD64ACC3
BD6FDF7F
3DA6CAB5
BD5861AB
BDB21BD7
3DA8D52D
BDFAD93F
BD62896D
BDBB28B6
BE638242
3B6A08F3
BBC24041
3CEFFC62
BDC092C6
BE727A48
BCB67496
BD721010
BE08A506
3DCD5DEE
BE2172A4
BD366136
3E530328
3D51BAB0
BE4EA287
BDBA3F30
3E3B9C2F
3DC2095F
BEAB6449
BCE5E6FF
3CD5B747
3D196CF6
BD852FE7
BDB75879
BCCA8E44
BB9D6393
3CC71BAE
3D9F6078
3DA2A553
3D900C06
3D708447
3C2A2AB6
3DFDC50C
3D943202
BD73DA2D
BD78BDB4
BCA5B54C
3D4B8AC3
BC10E93C
3D6C8608
BDF5C9F9
BDA8F298
3C3DD030
BE8D33E6
3B69492F
3D49D48D
BE1A2798
BD9E1749
3DB35617
3DC7266D
BDB62935
3DB2C927
3D19C35B
3DF30881
3DA27BBC
3CBA8F68
BA9CEE0D
BD709CE9
3C0B17CC
3DC0A57A
BDAE3423
3E38F501
BD682B42
3CB7DF2F
3B820970
3D43C67C
BD144C50
BE3E48FE
3DF36366
BD0FA354
BE404EFB
3E2BB701
BCD4CD87
3DB8EB81
BBA4F6DA
BE13A723
3CE0C4B1
BDDCB2E1
BE50ABFB
BDF83DA3
3E17DC63
BD54FA46
BDBEC66B
BDBCE1B1
BE04081A
3D0DFE7E
3C6E54D2
3DBF76BB
BE46AEC0
3E143137
BE3B5E34
3D0EFD41
BCC666DD
3E317B80
BDC32F76
BD242C75
BDED89D2
BC3F48EB
3D4E7206
BD7AFDE5
BD29A19F
3E74344B
BD9FF06F
3DB0E1E8
BD882DDD
3D759A41
BD505F8F
BDA5B106
BD47ECDC
3DA0A742
BE3AE84C
3E05D1BF
3C89A4BF
3C822D0C
BD6F5EF8
BE04FBD9
3DFED310
BCDFFE02
3CFFBFCE
BD87F8FB
BD7E6E0F
BCFD97C6
BD97AEFB
3CEADDA4
BD426FB9
BCF12A14
3C8450B7
3D80FFCD
3DB5DC86
BDD36230
BBB2A498
BC01504D
BE1066F5
BD10996B
BD3A1C39
BD37DE79
3D4E8673
3D1A5AED
3E391940
BE2DE569
3E539A11
BD0E9160
BDAB33CE
3E09608E
3C50DDDE
3E249CA8
BC4093B9
3DB0ACD0
BE02B475
3DEAA5A7
BA2AC612
BDC31A0A
BD2EE2EA
3CA57590
BD599E7F
3D728CB0
3BD3B3DC
BD1BF455
3D07946C
BDC2BA3F
BD517B9E
3D8BF7F8
BD852C89
BC749117
BE08FD3F
BE0B6250
3D79AE2F
3D1BBE0F
BD72943A
3D9D9B6F
BD81F4F1
BE831C54
3D4C6508
3E05D612
3D98043F
3C919AAD
BD8C97D3
BDCA4C7B
3E750E2D
BCEC2FBF
BC9126B4
3CC86A0C
3DB8A042
3D510E3B
BD905262
BD910213
3D15EE8C
BE15B0E1
BC83D83C
BE7EADCE
3D18B09B
3D9C20E5
3C9AB2A9
3DE4F34B
3E12292E
3E17719F
BDCEFE94
BDDB04E9
3C8CE80B
BD4ABF69
3D816703
BE39F658
BC05CB46
3C88BBFC
3D0DBF69
BD2BCCC8
BC3F5184
3DB124AB
3E5605F4
3BF7C88E
3E41D6C0
3E178222
BD4253B2
BE437788
3DCD2EDC
BD6E0CE1
3C4E3BA2
3E45D144
BB0516D6
BD9FE33B
3AB30E60
BDC16735
3E289B28
BE179AE5
BD981224
3D08E049
BC667A48
BDE5CFFA
BD1321BB
BC81292B
3E8648E2
3CF900E8
3DADE836
BCCA50FC
3DA259C0
BD674574
3D36B78A
BDA620EC
BC8A0B72
3E2EF039
3D312B84
3D569B85
BDFF5208
3DC61BB3
3E331CB6
BBF9279F
BD185A47
3DC17C44
BD279BDB
BD281832
3D255179
3D32A6D9
BD67FCEF
3B9297C8
3947DE7B
BD80C0C7
BD97C717
3DA76D3C
BCF45334
BC404413
3B9CC8A3
BD3059CD
3CF7E10D
BCBB0C76
BAC92CAF
BE230A76
BD8A153B
BDB39463
BCCCC372
3DE70A3D
3DEF1F97
3E4189C4
3E0251E3
BD06B442
3D35C455
BD380C53
3DA47EE9
3D291D9E
3D50AECF
3E2A2129
3D859CAD
3DAB4340
3DB5DC19
BD885F51
BD272820
3E076EFF
BD809D84
3E020FD8
BD0D9B7C
BD27FD98
B945B2D2
3D88260C
BE09EF43
3DEBF656
BBAAEBD1
3D63F4BC
BC8AAFD2
BD845E81
BCDD9094
BD1C881E
BE1EB282
3DF8A7D0
BD7D0F1F
3D06B993
BDD0EB0A
3E038217
BDD9B874
3D917200
3D880C06
BD3CED4E
BDBA3395
BD4C83BF
3C892878
3DED75D9
BD039AC7
BC00E690
BE99365A
BC9F76C3
3BFD31DA
3BEDF9EE
3CF0873C
BD0540B4
BD22167B
3E2DCBD4
BD4842B2
BD0E4505
BDEE77C2
BD88AA0B
3A318CD5
BD8367A2
3E2A64EC
3DA85B4B
3D7ACC17
3E8451EE
BE0D3817
BD5DDE37
BC2C0D0F
3D4C571C
BD011023
BCBB4B80
BD95E924
BD803AC4
BD34676B
3DEFA144
3D435C59
BD6FB5C8
BD0A96DD
BCF6D067
3D7C8326
3DA98E69
BE386D38
BE46F472
3D1EF289
BDF29ABF
BDBF07B8
3DFCCC43
3E14727D
3C1EBE47
3B9B4B0A
3C5B2270
BE197945
BDD777CA
3DA7378A
3D8DCE7E
BDC021A2
BD8F0A31
3DA830E6
3CFADFDB
BC45442D
3D72C35F
3DA3D2AF
3DBA9545
3DE8DC54
3D311DBA
3DDD2117
3DAD1FBF
3D139F5A
3CA8E26D
BD150B2F
BDD13872
3C1A4281
3D0C73EC
BC4D3F4E
3D95BEC8
3DC81CEB
3CB2662F
BC733E30
3D7A5C5F
BE1F992C
3D58CEE9
BDDB8A64
3D0A0110
3D80A63C
BD0EE218
BC899794
3CC32D82
BD3426C9
BD3DB7A6
BD252AAA
3D872E6A
BE19F080
3D8199AE
BCA179B2
3D429A09
3CDF7D13
BE0ECA26
3E234CF5
3D3CBF31
3DA1121A
BC5D81D1
3CD80FF2
BE1DF3E4
BD06FE16
BC59E2F5
3C9D59F3
3BB4C519
BDA3C6BB
BE214993
3DC32FF4
BE280FBD
BD956CB0
BCE96DE8
3B96EBBF
3C97CA77
3C007957
BD7E27E9
3DB3909B
BBAB3DDC
3E3D51DC
BD8F9262
BC41CAB0
BC65EC23
3D45CCFE
BDBAD888
BD94451F
3E101F41
BE85B661
3D76CCBB
BC35ACE0
BD0F2158
BD7EEB50
3D0FE38B
3D81B632
BB83B079
3C5A5F5D
3DA3052C
BDF90EE6
BDF25EDA
3E64AD11
BCBB0128
3C228A59
3DB4B54D
3D0DE2EA
3D4BA8C3
BD9B77A7
3D9B3997
3ACF1857
3E1CBF29
BD8600BE
3DA887F5
3DD2C441
BDAB956C
3DB177B8
BBB46420
BDDB8B30
BDFE5FC5
3DC03E87
3C98D94B
BDDFAF54
BC96C4E8
BD042615
3D7A807C
3E03CE67
BDEB4AFF
BBCF8173
BDE6097A
3D86A7DA
BC5BEF34
BDB593EE
3E37D207
BCC0F2B9
BD99A699
3E1AD901
3D145A45
3C87932C
3BEFEA5E
3DA071A1
3BE40726
BE2E5B6F
3C36E0C8
BCF74E00
BDCEE50D
3CCF26BF
BD9A8F30
3E867D9E
3B782515
BE548C13
3BA9596B
3C0A37F2
BDD73681
BDACB4E0
BDE14844
3D863C20
3E652B6E
BBEA5990
BD4EC04F
3DBA3F1D
BCBA9451
3D5AD28C
3D079A7E
BD54FA4B
3DAD292E
3DD87A40
3D4F8894
3D837F3B
3BD2FF41
3D97C822
3D3C6A21
3C72BDF8
3D81C58A
3D1FEF84
3C8F868B
3E0BAD95
3E3B9235
BAC398F1
3E86AB15
3DD23A41
3CAB28FE
BA1C4A4E
BB8D3B11
BDDD3EE3
3D37D9C4
3DA0A5DC
3D8AB88E
3E9AA51D
BCDED167
3D6E4DD9
BDCBFC92
BDCDFFAA
BD885BF4
BE078524
BD9667B5
BD4FD119
BC827F21
3E1127FD
BAFE70DF
BE09348C
3D586445
3E60B336
BCCDF698
BE633C48
3DBD099A
3D4C255A
BD57F400
BE8059F7
3DA87012
BE2696BA
BD2BD386
3D8E1BEA
BE60F5A3
BE2D4D72
3DA155EB
BCD1C712
B9B48B38
BDD250AE
BD8402E3
BCC2D324
BCE03930
3DF128B6
3DE4A182
3E302856
3DB24C07
3B05162A
3E0C2DF8
3D9A658A
BDD9262A
BE4CE631
3DF37323
BBBE7B50
BD5218E2
BE939958
3BB08833
3DA5C607
3E3B2EDA
3D0F5937
3D845EDF
BCA7378D
3C107B8E
3D9E6E32
BDC9D22A
BD98F89E
BC522FB8
3D8F7C2A
38804865
BE992B4A
BDACBAC2
BD970EE1
BD144493
BD7A5AEA
BDCF3CEF
3DA041E2
3CA55B44
3DC86FFC
BC861D30
BDEF21E8
3D8DA698
3D258C54
BD2FF452
BD66C8E5
BD8FA7D5
BD2E452D
BB503232
3D047CDD
3DC54F4E
BE1890B3
BD732081
BC3D9E7C
3C885D0C
3E413AF7
BCCDDEC6
BDEC0C00
3DCAB1A7
BD9B9B91
3BD27D7B
BDD761F9
3E0A2D51
BDE8527B
3DBC3531
3D3E6335
BE061BA8
BC995FE3
3DF24984
BE18E63C
3DBBCBB7
3C80F345
3D7D82ED
3D43CADB
BCFB1E39
BBE3FA10
BCA573D3
BE0E2FEE
BDAEE00D
BE2A615D
BE0F6211
BDEBF9D4
BE07C270
BE6F5ECD
BE0161A9
BDDBBB93
BBBAF864
3D53134B
BE62D90E
3D8469A0
3DBD068E
3CE06C47
3CB2D09D
BDCF96E1
3DE3A22E
3DE599A5
3E37B005
3E1406DC
3D1A767E
BDD7753D
3C8CB134
BDC3C2D4
BCE8817E
BD392FBA
BD84D73D
BD1DD682
3D83134C
3C9C5C07
3D5B7E30
BE28E4DA
3D3331A1
BD0DA011
BDB55D77
BDBB0C60
BC0154F4
BE284A94
BE1F2F3F
3E6872BC
BE2FB2B1
BE1547B1
3D20A6F2
3CECE6F4
3C9FFB78
BD19A04D
3E786A0C
3D899993
3E1E04E2
BD891AC0
BDB1973A
BDA51D05
BD509E9E
BE76054C
BD82D8A5
3D41220C
3D8711EE
3DE5B91E
BD502EDF
3D94F32A
3E3B11F1
BDF8B119
BDE0721E
BDF21430
3CEB4107
3D923818
3D2F3532
BD6E98E8
3D8A03AD
3CAEAE89
3E43C4E1
3E05AF96
3C5C873F
BBD7E788
3D363C5A
3C864F14
3DBB3D5E
3E1F63A9
BD928916
BC5703FE
BDCB1F4F
BD6B8C50
BDD06C41
3E25D8E8
3AA89865
BDB8794D
3CDF98A2
3D870524
3E0C2F86
3DDA0897
BBF0FABF
3DD8E505
3DFCA838
BC9FF858
3C936FEF
BDB58A79
BCFB380A
3CFE5B8B
3DB5863E
BD0776AF
BDAED819
3D382078
BCD9CDF2
3D4782AB
3D73C12D
BD154E69
3DDB9556
3D7A45A1
BB94CD2C
3D83497D
BD03946F
BD7F65FA
BD197ED7
BD5587F2
3D11C87D
3C53F779
BD3A3C6F
3C77E036
BD869162
3CD40383
BD87802F
3DCE4EF3
3B26FFDF
3DDE4181
BD878EB2
3D60DCF7
BDE153DB
BE096894
3D7ADE38
BDD15185
BCF14238
3D2E72AC
BD29B32D
BCB2EA38
3C80B928
BB135CBF
BC83CE3B
BDFFAA70
3D4563BA
BD498DEE
3C47E069
B8ACF91D
BDBF7ADA
BDD77C3C
BC013387
3DBB6839
3D125713
3DF33AA2
3D3C290B
3DAC8EB5
3D6BA2FE
3DFDC8F8
3C682B2D
3D88EAC8
3D22D387
3D25BF7D
BD4E529C
BD7504DF
BCCDE97D
3DB5DAF9
3D1A20DE
BC2FC449
3DCC76C1
BD00661C
3DB2CFC7
BD3A5BE7
BD7BB055
3BA219F1
BD8BC8CC
3A38EDF3
3BD75669
BD8117D9
3D4761C6
3DE0D7E4
3D97CF28
3DDA4DCE
3D2CF0F7
BC4C2486
BDB51CE7
BAB876D4
3D87F005
BD994475
3D9EC54A
3D069B80
BC692299
BC03B3F4
BDCC56FF
BD681D78
38FDC6C0
BCB43CE3
BDA46F92
BD95D3F3
BDF9E518
BD3C7FA5
BC628B1A
3E0497D5
3D0F7543
3CFA6A64
3E0A8CC4
3D070354
BBF17E88
BD2AEA11
3DC59A4E
BA398649
3D681C84
BD8F781F
BDAC881D
BE314B84
3CB96D04
BDCAE51F
3CC8BD4E
3E889111
3DE4EF38
3CCA7346
3D2A66DC
3D251E07
3D6D63B1
BD9110BD
3DB07747
3D98D53E
BDAA23EC
BDAE9A37
3CAC876D
3C2DC230
BC1D52F7
BCC191C6
BD7D7A57
3DC52C92
BCA754E3
3DF608DB
BD34B180
BD708B46
3CEA0659
BDF72CF0
3CF7C9D6
BBB69FBA
BDF704D8
BC8BF049
3DA57505
3BD648CC
3D9DB574
3D4643DF
BD05EBE0
BB97DF45
3B653C2F
BE0202D5
3CE78C97
3BCDC6C8
3E0D8AC3
BD7EF1B0
BDB13F18
BD57F212
3E32BF86
3DD9980C
BC80FF59
BDBD0A30
3D143559
BDA8CFB0
BDBE6BDD
3D928784
3DECC84F
BBFFB933
3A1B5D69
BDAB9188
BA9932C1
BD4AC3C9
BDC55F29
3DF265B2
BE08A526
BE4633B9
BB4D2BC2
3BDFF93A
BC9B6CA8
3D926117
3D405469
BE9A21CA
3D441431
BE29C156
BE2DD331
BDC4FC2E
BE16E59A
BDE7B2E9
3DA2EE8B
3D31D319
3CDF580A
BE804F44
3CD12353
3DF03719
3E1336E2
BD4583DB
3E165CBC
BD12F64F
3C8908B8
BD628BAB
BDAD87A7
BE69D45F
3DA3E85E
BDBB2A1B
BD81BC06
3DF781FE
BD59CFA7
3DC23A7A
3E07D965
3E0D9499
BDAD4C3A
3D79904F
3D233ACB
BDB89392
BBAA2AA1
3C7A01B9
BDB00073
3D18C937
BBB36CA9
BC3F4672
BDE9A0AE
3C703592
BD84C81C
BDD7EA47
BC85D07F
BE2D8BCD
BD95497C
3DC3F6AA
BCF5FAC4
BBC0DFDA
3D2A5CCB
BC4078AC
BDC0FD5B
BD474EE1
BD4D5C4F
BBA5E42B
BCB8FC76
3D3A66B6
3E0034E1
BE22A1D8
BDFB3A05
BD81691D
BCB2A158
BDBBD626
BDB41442
3BCC2507
3DEC5817
BDABFFE7
BDB6DEE0
BD13F677
3D5E3F71
3D7524BD
BD95E2A8
BDB08E90
3E0D9B6D
3DEC7035
3DD91330
BC01B5ED
3D8964F7
BD4FBB77
3D9B80FD
3D063010
3D1D1E06
3B906B1D
3DDD6EA0
3E19B942
3B97A25E
BE125A93
3CE3FE2C
BD9A8C5C
BE020217
BE2ED664
BD966A0D
BD6F1E5B
3D70B0F2
BC837CC7
3CB41516
3D60FB2D
3B9970AA
3C262213
3D85E528
3DA84F65
3DF9CCAA
3D7F9993
3D9B64BD
BD66B5A9
3D921F91
3B72B9C6
3D47DA3C
BCAB43FC
3DF34FBD
3C865D4C
BD26FE9A
BE068604
3CAF1292
3DBCE4FE
BA1954A5
3D5EC487
3D803C5A
3DC7C628
BE3AFBAD
BBC8C7B0
3D9D4620
BDB4EFB8
3C9C4D33
3C93E10E
3D6353E2
3D12CDF6
BDE86F83
3DA1B68E
3DBD91D2
3D829E08
3D6825E9
3D4F4AF1
3DCE2EFD
BD19628A
3CAAB59B
3D73C2EB
BD78A5A9
BC055367
BE026D88
3C837DD4
BD8F9095
3E2245D8
3C2C4482
B7DBC812
3E5F4BC2
BD3C603B
BDA8DA9E
BDCA5236
3A7E423B
BDB61630
3D5FAF05
BE0CD565
BD297897
BDCA6746
3D27169D
3D367B01
3D2055F6
3E156A7A
BC8E0D5F
BD3AB250
3D987B4B
3DEEF2BC
3D9FFAF3
BDA031C9
BDD3191A
BCA92E7D
BD8FE513
BCDD6DCF
3DA306A5
BC8354BE
BDC2161D
3DBB47D3
BE197721
3E292F0A
3D7E7B48
BC72FB4A
3E04392F
3D0603E6
3D00D38D
BDEC2BA6
3DBBF36B
BD852390
BD2C824F
3CF66CF9
3E21046A
BD376918
BDB4680E
BDB586CF
BD67C107
BA8A133F
3D219455
BD574162
BD2156B5
3E2F82A9
BD9AE3A2
BDCFD411
3D6D2659
BE0730EB
3D71F1A5
BDD94EEC
BD8DF305
3C8A4D6C
3D5D2547
BDE5EC18
3C5163E0
BD537835
3E084393
3E372F36
3D57CFF3
3C0B1CEA
BDCE4C13
3CFC32F7
BDA98737
3D96FAFC
3D93FC56
3DACCDC0
BD67208E
BDD1B476
BD814CD3
3DAE7F13
BDFE1286
3D778F5E
BE0A01C2
BD58ECBE
3C2A9CD7
3D577BF0
BAFC3774
3CE0262B
BC4FDF71
BC20A63E
3D97FEBB
3D237C87
BDBFA080
3DC74CFE
3DEC397B
3C478DFE
BD15B5EF
3CF7C4F8
BD9B0466
BE141996
3D89CA67
BDB09F65
3D8F07EF
3D2C5DCC
3DD99DF6
3CBBAD30
3D8DAD69
3D7AFFCE
BDA4C7E7
3E01D65F
BD9EB9C8
3D6161C2
BD47AD96
3DCBE672
3CAFB4F9
BD060C59
3E138994
BD864408
3DB161A5
BD06492A
3DD5CBBF
BB961E0F
3D86A9B9
3D851934
BCAE4771
3D1A552E
3DC9384F
BD983157
BD8A6E8E
BDE14CF0
BD9A9B25
3DC4EE21
BD3983C5
3D377669
3D98B0AA
BE10C4A7
3D57A28C
3D6A9B62
BCF2DBC0
3DBAB244
BDCFAB2D
BCC10A3C
3D1375E6
BD93A329
3CDAFE18
3D464BFD
BD94B047
3DAE60EA
BD6E2324
BD05E715
3D4445DD
BDC2096A
3D74847C
3D64FA15
BC9F9603
3E2A5E4A
BE065238
BD813DEE
BD87F546
3CCF4583
BC657590
BD48AA08
3D9FC115
3C942383
BD3757EB
3CF88DD1
3CFEC0E6
BDF226E0
BE741ACE
3C4CF262
BD0CD390
BD1AC7E5
3D433E36
3D0C12CE
3DE940C4
3DB7947F
BC15E423
BD09F3BC
BD983FDE
BD5D351F
3AF0D799
3B3BAB3C
3D764B20
BDDB2691
3DD47B99
BD28A370
BDB5A309
3C5A7B81
3E4C9B51
3DA00DE5
3D66C5FD
BE08DC7F
3D53C770
3E0C6B87
BDCB6C31
BD38B41F
BDB5340E
3DF04136
BD8B613C
3D977E53
BD34B6A6
BDB11E93
BDA68EC9
BDAFD598
3DC92FC0
BC621660
3CB127BB
3C8543C1
3D2549C1
BE03CF58
3E12CA51
3D9C38C4
BE087DCD
BDE6E722
3C33831A
BCECF531
BDDF19E2
BE1FA1AE
BD635242
BE00542B
BDA9A544
BD846C8E
BD15211A
3C975252
BD60BE0E
3CD5D34C
3DD35AFD
BE21F6D1
3DA43451
BE4B6628
BC0A8285
3D3EF46F
3C4D41FD
3D7DE655
3E0F9D82
BB4D29BF
3D76108E
BE4B25FE
BD52FE47
3DA847A4
BDF740AF
3D83C3CE
3CDBD92F
3D0588A6
BDDA7506
3DF59374
3DF61B73
3D9AC817
BC13C173
BDC032AD
BDDEC4F5
BD157024
BDD786A5
BE315C75
3CBECAC6
BE41DA22
3CB642BD
BD877805
BC1AA03F
BE091699
BD0E3888
BDD3BD66
3C78BB07
BD215723
3D88412B
3CD718DB
BD5F8CB3
BDE5BD4E
3D08F313
3DA49A91
BD8664AD
BD69085A
3CFBCC8A
3DDEA933
3B9CCD56
3D0B8405
3C80F9C0
3D4313F7
BCE4D120
3D8E2B04
BA203FA6
BC9A6C27
3DC9385C
3E21837F
3D5D6754
3D8C667C
3B62C430
BC8BB81F
BDBCEF75
BDCF7EB5
BDFE0AB4
BD8B624D
BDE09662
BDE4FCAB
BDC38C7C
3DEE7D91
BD296C93
BD4E465F
BC49DD79
BD94A9C0
BD8EF9A9
3DE66025
3E14EF6F
BA74F5E1
3D30BE29
3D952FF0
3DF2C005
3DAB6B48
BBCF90E2
3D234105
3DA19AB7
3D810D41
3DA40120
BDFC0E55
BCAB7EA9
BD507C9D
3DD56B40
3C7A1FA1
3D6AF2A5
3D5C865B
BE0E211B
BC791ADE
BE281E28
BDE2C42F
3DAAB591
BD2C268A
3D152338
BE0F898D
3D604F08
BD974D9C
3DE6E6A7
BCA19581
BE031F49
BE110D5D
3D88A4AC
3DA7350B
BD867D2A
3C1DF509
BD94CF1D
BD44447E
BD04D5F0
3C9C4FF2
3D310333
BE1D192C
3D2F4F6E
BCA23D21
BCDCE14D
BE1869AB
BDD11647
BDBD8AA6
BDE828B6
BD29A17C
3DD9D08C
3E02A61A
3D0E5B6D
BDD5B6E2
3D7EA46E
3D6F9381
BD98AFFC
3E017C28
BD02F1CA
3D9B6715
BD889221
3D744DE5
BD67173B
BD9A9D4C
3E311852
BD03D760
3D818FD9
BD12FF97
3CDE1F7B
3D078DD6
BD149231
BDBD5948
BD8F0142
BDB66084
3BA1CC18
BDE3CEB7
3C23E583
BD6F09B6
BD86B0D9
BE0360B3
3D8C2399
3D6BC144
BD8E179B
3C35C991
BDBBDF35
3C6460A8
BCB9CB8E
3DA195CB
3DB2F6F7
3D9A428F
BDDE7E60
BDDBBAED
BD1B445F
3CD6E3F2
BD69A235
BE6D875F
BD101521
3D06D4F1
3C8612EF
3E1ABFD6
3D888E2D
BB143E10
3E1CD935
BE123B09
3D75B72C
3CAA188D
3D38625D
3D8F9AC3
3DB2B5B4
BD15984B
3E09D096
BDB5A400
BC4A9BF0
3CEEEB65
BDEBAA6E
BE1309F3
3CA600EB
BCC8CEBB
BD9156DE
BC8CE409
3D0ED8F4
BC174A8A
BDB89DB7
3D97351C
BDB97123
BCCBAFD7
BDF6E98E
BBDDD878
3DDE64B1
BD8D2624
3D06688A
3B825D7D
BD0FBEF8
BD03DD8D
BE29CD3F
BD9B8542
3C29041B
3BB4526D
BD735D35
BDC86244
3DD97344
BE600B79
3CA04072
3C8AD1B5
3CC02C30
BD9D7EFB
BC47279C
3CA9CDEF
BBBC8908
3DCE6212
BDA447E9
BC869F26
3D2078D7
3E175F9B
3E0C2B71
3C473411
BC56C986
BD65FAAB
BC5964D6
BD660EE0
3D96FA60
3AC9859B
BD3A9491
3D8D3DAE
3DD02919
3BB214D0
BD9F66F6
BE0F128D
3C89A296
3C56BE3D
3E304C15
3DC64E21
BDCE615A
3DB52030
3D771C92
BE32E2E6
BD913EE5
3DB07285
3CC9DB7B
3E4A1E06
3CC96081
BD6B03CD
3D21574B
3DC85220
BDA7A88C
BDE5D028
3D486AC5
BD8B701D
BDEB3893
BD07A40C
BB907F3F
3DA73C44
3D309C45
BD878942
3CC319A0
BD4715C4
3DB0A248
3DB40F70
BD8239E7
3C1B9A5B
3E0A8500
3D816D27
BC6AA8EB
3D2E4E3F
BBC25626
3DCB7090
3CCC8BFA
3E29261A
BDBA655F
BE54C01D
BCF63C7D
3E0A6961
BDEC9C81
3DB5A316
BCFEF0D7
3E0E2B35
BB88FDAB
3A826B55
BD6D5D10
3C8AEB36
3E0CE776
3D4C258B
BC76654D
3DD757A4
BD8EC3A2
3C90618D
BD391334
BDCFA67D
3DC6C470
3E0048FA
3CA581F0
3D954F6A
BC92A8DA
BD045FA9
3DAA87BD
BDAF2985
3C7AB451
BD49F4B6
BDF23D65
BD3CC6D3
3DCA78D8
3BEFE642
BD1D35E6
BD931F85
3DA90FF1
3D4E8C07
3DE74B6B
BD64C204
3D8A10C7
3DAB82A1
3CA66C0B
BC093BD3
BD0C8468
3D6278AE
3DD8E00A
3D91547C
3D6D769E
BB17FA07
3D91A2D4
3CDFDBA3
BDA7FB55
BDA6550A
3DB35145
3DB20A6F
BD7A53F9
BD2418B6
BCD51D28
399C1347
3DD771E6
3C00BEAC
BD53C1A3
BDB3C64F
BD8F1025
BD433851
3B74A559
3D062368
3CEA80FD
3BB1C2C6
3D265EAF
3CB5B73C
BDED1113
BC8A769C
BDDCD066
BD92BEC9
3E1C20BF
3CF65E16
3D42B23F
BDD0EEBD
BE12B933
3A77F84A
3D07094F
3DA3F283
3DC5459A
3DABB8B0
3DB271BC
BDB2EB6F
BDE4D369
BD659B4A
BCF01800
BC5BB984
BD763323
3D0F4590
BDA4E6AA
3E0B0DB2
3C922831
3CFA680B
BD1AB6E0
BDD89ED8
3CCBDFBD
BDC8E2CB
BD5DC161
BD143772
3B0595D7
3D342312
3D96C4C6
3D6C7874
3B8DF3B4
BB54D7DE
3DA5CB4A
3DA6B3F8
3D365A5D
BDDBBD0C
BDB40552
3DCB0845
BDD021DA
BD1A3AE4
BBCFB017
3D4615EC
BE1223BD
BB8A7087
3DD15853
BD8EE79B
3C83C0A4
BC6A570C
BDC265CB
3D2439B3
3D84D614
3CBF2B1E
3DAFB1BC
3BC4DE2B
3D044EDF
3C298824
BD8BD3B9
BD7B9A98
BDB5A31C
BD9F5E63
BD96A092
3D51673E
BDE77D0A
BD4C005C
BD890A0A
BD344001
3DC71991
3DB86B39
BB6DDE14
3D3ECE7F
BDD625F8
BC930BC1
BD6CE82B
BD930BC1
3D26D6CF
BE038E11
3C957B0C
BD20796A
BD0CA16C
BC82D0C5
3DCD87C6
3DC0F1EB
BD8140CA
BDCA67CC
BD2C747A
3D88AA5E
3E40BFC1
BD994B4B
BD6D7257
3D2FA23A
3CA8E252
3B56471F
3D36ADA9
BD66ADBC
3C0A15A3
BE3C667F
BD81CE6C
3DA81D64
BD6EDFEF
BD6CF792
BD882630
BA40800D
BCF89AE7
3C3FBA6B
BC1E13A7
BDC5CF64
BD8A6E75
3D9134DD
3CDA1DBE
BDD82EA3
3DBA3402
3D8E627E
BBCC52D4
BCD23A3A
3DD972BD
BE12A621
3DF22951
BD3CC6FB
3D1D8993
3D87B4C2
3B736E4C
BDCC6DB8
BE2F3307
BD60797A
3D88E727
3E27A65E
3D22C265
3B24B023
3D5EA0FD
BD3044B1
BD952DDD
BD7E38AD
BD5B6F90
BD9EE82B
3DBB1B89
3DDB70CA
3D1AF3D7
BCF2C0D8
3C77609F
3DD38177
BDE730B9
BD963C41
BD6ACE0A
BC7AA1FD
BC1DB78B
3DDD37C8
BE323F1B
BD9BC0F2
3CAF2A14
BCDFD304
BC23713F
3CDC3A9E
BDF98F11
BD96FD89
3DAFA5A2
3D299D48
3C64B8F2
3CA2C5A2
3DA5BAA2
BE091A9D
BD5DFAD2
3DDBF17E
BE3F9407
3E7A38CD
BDAA52C3
BC36968A
3BFCF8FA
3D41F9C0
3DDDB5BA
3D07249A
BC141E70
3DB418A0
BCA58FED
3DBF49A8
BDEC590E
3D38BA8F
3E28D985
3C621CCB
3DD16242
3E4F2DE9
3E929BB0
BCE1ECF5
3E67F55C
BE3F2929
3D9A6608
3E97DC7E
3D4CCB93
BDA69178
BCF6BA77
BD737F7F
BDBD6DE5
BE0770BF
3D1C6396
BDDAFD44
3B69BFA2
3DD41928
BD793BFC
3DA53DD5
BD8BBA86
BD8C2605
BE31725B
BDA8D9A7
BE738E7C
BC60E2E4
3DDC9B11
BE30941E
BDBB1EE8
3E36ECB1
3E74B4EB
BD974001
BD30BA22
3E135578
3E2456D3
3D86BFBA
3EA7C42B
3E18BB66
3E1209DF
BE48C40C
BE0658F0
3E1430E4
3E0EE579
BE8A3024
BCD6CF7A
BD3D6EC6
3E3BC85E
BE42DC6D
3AED2BBD
3E21BE55
3E9C36E3
3D820E75
BE9333F2
BDF1F492
3D785EF1
BE4D8AEB
BCF0890A
3E5520EF
BE46900B
BDD61191
3C98645B
3AC08211
BD93526C
BC913501
3E15BE30
BD8D2937
BCD8DC95
BE7B2214
BE43D5A8
BC852015
BE377A9F
3CC5FF99
3CD48F34
BD8D29D4
BD1FD634
3E45A3D5
3C1C7BAC
3D94E579
3EBC7072
3C5B8AEB
BDEFBF10
BD5B4878
BD9DD8BA
3D071A91
3DC31877
BDC48AA0
BDCA5702
3DCEC3FB
3E833BFF
3C78281A
3D9EB95E
3B6AD348
BE84109F
3DEEC1FC
3DE0FAAC
BBB6CFA0
3DE40350
BC239200
BD65CE3E
BE1E4091
3CFBC843
3D5E22D8
BDC41EE3
BD59E8CF
3E8A289F
3C79ADE1
BE0C3607
BE1DE776
3D538281
BDEE9DC8
BDC235C4
BE46E27D
BDA76A45
BCF786BF
BDAFDDD1
3E569503
3C481F54
3CB2DAC3
BD4523C1
BDBEB6B9
3DB9BF69
3CB05157
3BD7A909
BDAB810D
BD10E87B
BCEEDD43
BE137BB8
3E3B5E12
3D842048
3D129B25
BD5601FA
BDBBB8F6
3DB4F6F3
BC7016C9
BB36AED3
BD823B30
3DFA311A
BD0F97BB
BE036A9D
BE1C7160
3D987150
BD22511B
BC3FFA97
BE1D927D
BD6881AF
3DB4945B
3D63B44D
BE5B8A66
3D3B9240
3DC0050D
BD4728A3
BE3E681E
BDBCCD87
BD10F01D
3E0B80FA
3D73AAD0
3DD843AE
BE443A44
BD8B9AAC
BDDE2DEC
BBA4CDC0
BC0BD744
3D98924D
3D3C4307
3D55517E
BD82B39F
BDA05F31
BDD3EB3F
3D76243F
3DAC372B
3E02117E
BD505113
BDF06609
BE2B3ED8
3D8307DB
3D93D8CB
3DBA266A
BD8F0A5E
BD47D704
3CF83A13
BC869413
BDA5448D
BDBC4252
3AEAB393
BCB3BC0F
3DB21C28
3D120830
3DF0C29E
3DE28792
3C5A8B5C
3E5CD530
BDD1D194
3D930EF7
BDD20770
BCFF92AD
3D150CAF
BC1AEC8B
3E2DA6FA
3E19E302
BDDFB8F1
3C01FF5F
3E44DB3E
BD59C289
3BD851FC
BDB07402
BD337D35
BD9BD2ED
3C916E88
BD59E6D7
3E21A05B
3D9B1D9B
BD35FFAE
BD1AFB3E
3E17FE8A
BD907D45
BCD62C7D
3D2F8033
BC34D351
3D193523
BE5BC39D
BDA38142
3DF97EA1
3DB5190F
BD4DE9F6
BD2597F8
3CFABB27
BDE61EAF
BE00FBC5
BD1EDF39
3D1E8A77
3CD386BB
3DA0BE2D
BB977796
BD9E9EDE
BCB95EBC
BD1BA616
BBC386FE
BDC901C8
BD334A95
3BCB51CD
3D9F9514
3D55BAF5
3DEBAF1A
3DB3D6C0
3DA0AFF3
BD9433AF
3DA944A4
3B57C071
BDAD7905
BE0C9A55
3D9CE8A6
BD19D93A
BDADCCAE
BD16E049
BD210414
BBE6C978
BE1F4602
3D529E63
BDE6AB8A
BD3EE114
3CB793E6
BE09B15F
BD4E90D7
3A8D4A56
3DF7EBC5
BDC1ED30
BC8C2D60
3D549922
3D6E10A4
BA931C7D
3DE24B08
BD3BD195
3ABE3834
BD4F9E13
BE186EAF
BD21A396
BC469EE0
3DD561C5
BCD2B407
BCB92A63
3E74FCA1
3B3FFA01
3DCFE418
BCB3864A
BDF91FC0
3D92F3EC
BD181AE7
3DE98BC8
BD80A797
3D96EF22
3DA0EF6C
3D345FB1
3E1C387B
3D817FC9
BDE60F5D
3D413679
3DB39903
BC58A9F0
3D57871B
BB4DEE8B
3E310D43
BDC69855
BD139B20
BC14C758
3D0B9034
3E336D53
BA95995A
3DE33423
BDAF60C7
3DB1B0E8
BD46E7A6
BD6F1C0D
BDCF9ECF
BD98A504
3C001F55
BD669F59
3D9989E4
3E237F9F
BC4A3808
3D351907
BDC7AFCE
BD9DACA2
BD1F5654
3D96B70C
3D25148F
BDFDFCE8
BD606954
3CB8C4DD
3DD64A42
BDA42E5E
BCD8931F
3C9E4D5E
BD1DC5E4
BD0570A8
BD697A7A
3DCE9421
3D9C52F5
BD6A9EC5
3D28C066
3D326703
BDED9F28
3E0B9715
3CF809B7
3CD74D39
3B9B3896
BE229597
3C8FDA7E
3D063348
BDE040A6
BDAF1B1B
BCDAEC70
3D9384E0
BC9C38DB
3CEE0A8F
BCFDE79D
BC322932
3E1BE54F
3DFEF29F
3D17B35B
3BFD3159
3D5FE566
3D14A521
BDE9A8A6
3D601023
BD89AF62
3D7CF8DA
3DCE9482
3CF36344
3D48DBD4
3DBFC14C
3D80900E
3D0B3D4E
BD8613B8
3A11BD2C
3D33D9CC
3D06D402
3D99CAF4
BCD91372
BE281398
3D68DEEF
BDAD358F
BDA912AB
BD0110E7
3D1DEECE
BCFAA624
3D746B6D
3C203A88
3DA4EDB0
3CAB3802
BDA96B47
BD9A0146
3D1F0287
3D0E1B0B
3DAA247C
3C8F1613
3ACE08E2
3DEE21E7
BDAF4045
3DCEEDFC
BD3AC6F3
BE4A7428
BA666F60
BD8DF2B7
BC355476
3DE0E8D7
3DBE89C2
3D162985
BE0C9C93
3E4F4614
3E4F6E1E
BC934A5A
BD9FA9C8
BDFE1EC3
BDA28F58
3D76D37E
BD8CC45B
BE17EC4E
3D21A772
3DD596BD
BCE68E4A
3D874807
3C536416
BC9C8C68
BCAEA331
BE4EA7ED
3D85271A
3E03F273
BD09F1AB
BD28784C
BD5465BE
3E3789CB
BE22C7F3
3D85919B
BBF56507
3D2B1763
3E007EF8
3D4B0735
3CDE7618
3D8DBBDC
BDC4EA20
3DC97D1F
3CA5EEBD
BDFE29A1
BDB61CCA
BDAF2E27
3C827F81
BCAEBC51
BD90AB93
BE1804FB
BC8365E1
BD1D170D
3B7175A4
BD8D3519
BD1F4A7E
3CA2243D
3D909247
BAB338FD
BD70A958
BD784C0F
3D26E52F
3D625316
BD46EF96
BCF0CD07
BCD63EB6
BDEBA9A7
BCA47225
BD6A05FE
3D4AC51B
BD26A36B
3E391A68
3DE1731B
3D16596B
3D19064C
3BE2D309
BDD0C75B
3C82B501
BD11B636
BD9AF374
3D8D8169
3DD82B1E
3D9F3194
3B7DEBFF
BD5C4543
BDD121DE
BD837EA2
BD2FA5A5
3D597913
3D03F283
BDAFD70B
3CB8351B
3D0A96A4
3D1DBF51
BC9A763E
BD51C428
BCF1C738
3B09A42E
3E181653
3CC826C5
3D7ECBC8
3CE235A5
3D8120D1
3D7BF592
3D7248A5
3C7ADECE
BC898AB9
BCE2DD90
3D308668
BDDC8A1A
BE193B1A
BD0153E3
3D992B58
BA76B57E
3B9DAD7A
BD29A5FF
3D5457D3
BD4A2DA1
BDC28412
BDDA2F87
BDB1EF25
3C955BBD
3AEACC67
BD4AD287
3C3239B9
BD880535
3E024DC4
3CF2CD78
BDCA1771
BDFCE9D2
3DBEECE7
3DAB94FD
B90BB657
BC9E342E
3D1AEC78
BE763FCF
3D9A8DCE
3E0C26C4
BCA7B51B
BDD7A2BD
3D444A8D
3CCB3C0E
3CE5042C
BE0EFE55
BDD5E94F
BDC351E6
BC3BFCC6
3E3EE34E
3D240EE3
3E46A7FA
3D0CBD4B
3D3D2349
3E46C4D9
BE0B3778
BCF0DD18
BD2E1AF6
3C7EAFF4
BCC739F1
BD2D2BBA
BD6875FE
BDCA30F6
3DD3D2BA
3C170413
3D5649F6
BDE9629C
3D4A19ED
BD8275DA
BD8DD7B4
BD7E0417
3E024E52
3D562E58
BDA47F56
3C651A6C
3C839998
BD49D55C
BB85B45F
BD6C6241
BDB0C741
BBD0280C
BB8583E3
3D49365A
3C452010
BDA33F9C
3DF3A619
BBBADA71
BCF49D30
BE02D48B
3B836BDB
3C699BE5
3D36C75D
3BB5BA37
BC51FA89
3CB134AB
3E6C2DE3
3DA56E7A
3B2D119C
3CE441E9
3D95B704
BE15664A
3DA9929C
3CBF2DD8
3D64E4A1
3E1789A1
3DB9C687
BD20A894
BD311C68
BD8E157A
BB2CEC07
3D5AE859
BCA70278
3CB2B361
3E22B119
BDC8EDA5
BD62A10D
BBEF1247
3D9D80C0
BDAD458C
BCCF3C0D
3D56EE8C
3C67F918
3E2B2A1C
3E0CAE67
3DF2E32E
3CA93792
3D0C84A6
3D461E6A
BDC0C37C
3D19E11A
3C579F59
BDF54FD4
BE74F473
3D5E0681
3C85C557
3E9D8DBB
BD9C865F
BD75F84D
BDFB26E2
BD8EB851
3DC35B7A
BE0C6937
BB9AFC5B
3CD8850C
BE83D5A9
3E3CDC11
BD8301B2
BE498ABA
3D18592A
3DD36030
BE47DE9F
BE4A8539
3E354029
3DE5DC16
BDB9274E
BE07FD79
3D3D9140
BE9A79DA
3BAA80F3
BD82B128
BED2477A
3DFEB4FC
BD8A0E55
BD2AB365
3DBA6B6E
BE94787A
BD6F5652
3CB07C54
3E0E4B55
BC206D53
3E8B804B
3C2F9AD8
3E40CF69
3C9D44AA
BDAB45A9
3DDDD79E
BD452BE7
BE2DFBFA
3E3EE29D
3DADEB91
BD04DF0A
3D492C0E
3D1103B6
BD1122D8
3D006ADA
3D180BDB
3CEC67CD
3DAAE9E9
3D5BB4CC
BDCA3E10
3D61618F
3CEC75BA
3DD10AF8
3D6C402D
BDAA565D
BDC5667B
BE23C81B
3DDA4CD8
BD070418
BD07177E
BDF9C834
3DA1C949
3D88B56D
3D81A048
3D5E7622
BD4F7EC1
3D945660
3DBDDFA8
3E3391C5
3D75EB5C
BDE2CAF7
BE182D73
3D9B11C1
BDEB447A
BDCB50D1
BE577616
BDAFA87C
BD19E18E
3C32DD0D
3DD2DFF9
3D0A4D9C
BDAE7549
3DA64091
BD2FD312
BDFD1829
3D7E7231
3DAE7E0E
3CF93571
BD48F3BA
BDC41949
BE10349E
BD86DCED
3CFCBABC
BDEAFB11
BCEFBAA8
BD30BCB1
BDAC1980
BD1D3A7E
BB949437
BE13117F
BBC81AE1
3DB844F0
BDA83A11
BD821ABE
3DCBAF0D
3CFEC1BC
BD9FEE46
BD961291
BDE10692
BD5ED60F
BBB81459
3DBFFF30
BD3FC212
3E208059
BE7B38A9
BC1331E1
BCB41134
BDDA13E7
BD374DBF
3CFE9CAE
3D9DCC2C
3D8511E3
BE4C2369
3D4A4F6A
BDF46473
BDAC88F8
BA623391
BD788550
BD170FC7
3DBA0DEC
3DD15612
3D90D819
3CA6DB81
3D8BFBD2
3D22A023
3E1A33A1
3D45EF02
3D8F624D
BDA7AB40
3E1E187C
3DA8468A
3D49C091
BE2A6EF0
3E4BD0A6
3D476CE1
3D8046E4
3D1B0AC3
BD874F46
3DC9C5D6
3E126BD9
3D1ADC70
BD0F6EEE
BDAF71F7
3CA47372
BC33DB19
BE2C41A8
BDBBB717
3E13D1C8
BDD71672
3E084E3C
3E46627D
3DECEE21
3E1834C9
BDEC5F51
BE0B6E65
3AA3B8D7
BD92C9AB
3D370A2B
BDB7441E
BDB44DAA
BDA6C5BB
3E1995CB
BCBE2483
3D508340
3D8D185A
3E498392
3D5FFFE8
BCF8CD7C
3DC11109
3E03FFC3
3E5DFE6A
3E2F7F0E
3CFA9ED8
BD11A6CF
BCD23FC3
3D78D4AD
3DB26C44
3D065B7F
BD74D923
BD89A578
3E035BB0
BD65ABAB
3DA8735B
BD20AC68
3D6727AA
3C95FED0
BDD3872C
3DF21728
BDB70964
BC276ABE
3CB9A1C7
BCDB5DD4
BD988B46
BDA4A636
BC58A1B7
3D0D118E
BE05B3FC
BD844EF5
3C297829
3D63F89B
3E179F9F
BC8E0E36
BD512485
3CCF0A8A
3D29E5C7
BD2C2372
3BE6DA6A
BD9DFB87
BD641482
BDABD397
3C1C6E35
3C3DC218
BC64BB20
BD408417
BD8B5E03
BD7CF6A1
BDA97999
BB1BB451
3DD1F3FE
BC9444FC
3DADA917
BCB9FA7D
BD631EB6
BCE594CA
3DE9D3A4
BD461C1C
BBFFD791
3DBE6B08
3B2ACA99
BD6B9865
BD290D52
BD2A887F
BCCE89D6
3E027CED
BD33DE74
3D18C5AF
3D30936B
BB36406E
3DD30DA7
3DB3C58A
BAB2537A
3AF0B2B0
BDA2FCA2
3C2BDC32
3C2EDF5C
3DAA54B1
3D4D8E8E
BD3197A5
3AB9E0E2
3D9A9096
3D146A53
BDADB399
3DE45B9B
3D92B677
BD88EFA6
BD8A4299
BDAD9774
BDA4FF41
BE184A7E
3E0146D1
3D365742
3D07E3D2
3D16D809
3D35BEA9
BDDB498A
3C8C562A
3D8CA6C5
3DB1FE78
3E1E5059
BD7D44BA
BDB621DD
BCDBA248
3D84C95E
BCCEC174
BD63BC80
BDA75AF2
3D2A2EC5
BD2B127D
BC544FCE
3C9D46ED
BDE4BB45
3CB3076F
BCA5BB71
BDB54615
3CCEF3EE
3D98EE1E
BD138CF5
3D1AB992
3D2E2A78
3DF07115
3DBFB064
BD3F0028
3D66B482
BD3BE0C1
BDAD3CCF
3DDF68DC
BC021A16
3D610236
3D136CDF
BD915FFC
3B6E92F0
3D6EF44C
BD684C37
3CB1A1A9
3B22BAAB
3DE57676
3D19EE00
BD70D1F2
3D81DB9A
BDC2C8B0
BD10870E
3DAAC104
3CE20995
BCF717D4
BDA491E1
3E0156F8
BDC30015
BDC3FCB2
BD3D55C4
BAD40652
3DFDE60D
BDAFDDFF
3D7C1D6D
BDFC0DBC
BCD3F01D
3DB4E3F5
BD91C163
3D7944BA
BD25F804
BE006159
3D9301AC
3E2F03BE
3D4B4757
BC158BA3
BE504CD3
BE77C377
BDBB49C8
BC0E3191
BD752670
3C57C2F5
3E088925
3D34F0A5
BE650672
3C031AD2
3DEE3F17
3DAAE7F2
3CA2D6C5
3E0D4784
BD6A2ACC
BD5D65E2
3D7B1DDE
BBCCCF26
3D40AACB
BDA2C5B8
BE03B4BB
BC50F794
3E0D71D7
BE509774
BC6BF054
BCD9969A
BBB277E2
BDFD17A8
3E083EF7
3DBD1CB0
3D8A4893
3D433496
BCB41942
BEB005CE
BDA50A32
BE237471
BE8ABAE6
3E2CB01F
BDC6C020
BD272AFA
3D433FBE
BD98E704
3BD27FBF
BB801B43
3CF8D2CA
BD9A14DE
3D9F5277
BDBA37A8
BDD9DA22
3D84E3A7
BD285D4C
BD8C116D
BD2D65EA
BCB81D83
3E1FEEAA
3E049FEC
BD844861
3CBB4F57
3DD62743
BD5DEFB8
3B0EBE74
BC58E351
3D1CCBC8
3DB6C9A4
BCB1BB9A
3DC9A14F
BD0E2D37
BE25E7A8
3C5326EF
3DA525B5
3CE3A608
BCF033E0
BE465410
3CFD0112
BDA2E1CD
BDA765CB
3DA729A9
3D319125
BCB2905B
3D44244F
BDC75ECD
3DE58A83
3E131101
3C78A6BB
BC72C260
3E348025
3C4C4A06
BE2964C9
BD877BD5
3DBF928F
3D95CD1A
BDA41056
BD884511
3DC42DC1
BD4A4A81
3C4E8E0D
BC866798
BE2B9CFF
3E24CBFE
BD36B132
3D7020B5
3DE07770
3B104939
3D9C5AC7
3E25CF9E
BDAA42EA
3D06226C
BA347BC8
BDB14FE7
BD96AFF1
BD7DDC74
3C701303
3DAF7580
3CBE8CE3
BDBBA5EE
BDBADE32
BDF9BE10
3E05E550
BDE80478
3D16BE70
39FE73E4
BE150837
BD541DD2
BD46B2BF
3C6C6787
BCBD7EDC
3D522F0A
BC901CB3
BDA44685
BC9D69C3
3CF1D235
BD8BE0C8
3D97AEF6
3D552C75
3D378C08
3E10938D
3DB3A0DE
3E1B1772
BC964F37
BD83D25A
BB85F5F9
3D826A68
3D0345E0
3CA3B5B7
3CCDFCBE
BD0F4A1D
3E04B9A4
BCD1C26A
BC817484
BD96DD5C
3E1681A1
3CDE4240
BCF7B41C
3C445DA8
BBDD1849
3CC05F9C
3AAF84BD
3E91ACC7
BE172B46
3D681771
BD341B80
3DD2DA78
BD9386F7
BD83A2EC
3E800B0D
3D459302
3D8ED358
BBF257F7
3D998079
3DCCB753
BE1935C4
3D8DA0D4
BD74EE01
3DD0A8F4
BCFB7618
39A1DE62
3E13DFCD
BD6B322D
3E38D016
BD91DED4
BE6A5C4C
BDBC9BE5
BDA4F7DD
BDB8C019
3DCFD4FF
BD96A181
BD903E1B
3C5D40CE
3E46352F
3DEDF8A4
BC17B6CB
3D9392C6
BD642A94
BD07E41A
3DBB956A
3D5F953F
3E05D7EA
3D45DADE
BCA504E2
3C42847F
BD97A9BD
3DA87C75
BE234E00
3C3C5A39
3E45AD37
BD542C1A
3D879FBE
3D44C130
3CCFD20A
BD9ECDA6
BE1F8D0E
3DE3D846
3D2A101C
3D124349
BDCD779A
3D81DE70
3D5FDDC6
BC900AAF
3E08C5C2
3DDDDA89
3D3004D3
BDD417AE
BE026E7B
3D239C1F
BDC8C95C
3CFDDB6D
BD82F6E5
3DAAA513
3CF233F5
3D8019E6
3D393BDE
BDCF7DF5
BDABB217
BDEEC2E8
BDAD32A1
BE488D2C
3D735BE8
3D54A871
BD13FB2A
BBA35B7A
3DDD803D
3E40D890
3E142DED
3D934E11
BD9F6B26
BDD2AED9
3D79D988
3E243C16
3D792276
3D16C7A0
BE194896
3DA87489
3D83585A
3C695168
BD052B05
3C7F845A
BDEDD965
BE07202F
BDCAC6D4
3E00FA3B
BD1CC952
3CD785AE
BD77E5FB
3D7D9DF0
3E2756A0
BDB04CCA
BDCD233D
3BEDEF87
3D930084
3E17F78F
BE172E5D
BE066158
BC33DC9C
BD6C8ED2
BD4802C9
3DB25E0A
3D427A79
BDB521E6
BCB2FD1D
3DD75F85
3D0BA0F6
BD9823B0
BD5ED0E1
BC21B298
BE24DC5A
BD34B6B1
3CDD308D
BC3D1D6D
3D293F2C
BE00377E
3D32540D
BDEF1E6A
3D894E5C
3E2C9D49
3DE12279
3D937DC9
3D621264
3BF94566
3B8CD1A0
BCAE97BE
3CD62B96
3CA87143
BD154A37
BDE5338D
BD4CFB53
BD01FFF0
BCAA0AE6
BDB4C59A
BE1718B9
3CC6B5BC
B9EEF5C2
BE2FC711
3E0B7B3B
3E09A4E1
BD3AF5D5
3DAEA42F
BE10D4D8
3E27DBA1
3D3F31E4
3D8A95F3
BDEF90EA
BB605BA0
3D102450
3D3F80D7
BDC7FA67
3CE9211C
3CF2786D
BD50BAC8
BBD9F8C5
3E0AF199
BB24609D
3E28E9CE
3C740083
BD94DF16
3D158BBB
3C234F05
BD60BC71
BD394BB6
3DBAAB5F
3DAC341E
BB58C904
3D1C2139
BE7B442F
3DA2DE86
BE0B28C7
BD94DA29
3D0F867B
BD280397
3DA239F9
3E140EDC
3CEBBA99
3D58D412
3DC55C4A
BDB4B7AD
BDCDF4D4
BD9F3262
3E2844AF
BC823FA0
BD4CB70B
3C3C82B2
BD8FE412
BE158979
BC0944E3
BCE6563B
BD5229C9
3CF0DDC9
BC3A3525
3D3186D6
BDA44F9A
3D04950B
BCE4B846
3DB283A2
BDDE713B
3D9FA57A
3D71EE19
3D72EB42
BBBF60D3
BE3E769B
BC9152EE
BD39AEE0
BBDE5B95
BCDB2A08
3E078BF4
BD699981
3DE39BAB
3D9A89DA
BCA00F44
BDF314DC
3D62DA15
3D2D4279
3BFABF79
BDBEA0AB
BDABA5DD
BD783F47
3D3893C8
BDC3BEB5
BDCD0AE6
3D283DA7
BDAD85B2
BC9821D5
3E349985
BE1FAACA
BC95875B
BDFC09FF
BE17A087
BDAD51BD
BD5B1D42
BD069ABC
3D9DCFD3
3DECF422
BD528A0E
BDF46694
BDAE715C
BBF0B926
3C42F33A
BD9B9F8A
3E0EDC6C
BD6C6673
BDDF9050
BD0CC893
BD7FD7BF
3D87675D
BC8560DD
BDF6BB31
BE1C74DF
BD617AE4
3C11C443
BE10FE8E
BE3029DE
BDD3C8DE
3D33619C
BCF6A431
BD186587
BE194B02
3D3A4DF2
BDD25436
BC063A77
3DA04158
3D8C7E75
BD5CF983
BDA40494
3D8E1CB1
BD6E6002
3D88702F
BC7F828C
BDA53ED5
3D610F7A
3C48055D
BDDC0F9B
3D7D9618
3D7D9402
3E01997F
3C98FB0E
BDAA8922
BD8EE811
BE29A3E3
BD957FDC
BC1D3EAA
3CE6EC68
3BB5BFAA
3DBA7E55
BDADC922
BD67B03D
BD4A5C14
3D6972B8
BD10003B
BD4FF10C
BD7250B0
3DC5D31D
3D65BADA
BDEB6387
BD611813
3CBC22BB
BDE86261
BDB7EBDB
BBB50835
3E22B2E9
3D9A1280
3DDE827B
BD918ADA
3CDA5CEE
BD8C781F
3E1332E5
BC4E49A5
3DF2FB5D
3BD9C65A
BD01EF74
BD051C74
3D09EB9C
BC2933D6
3D3F50C6
BDA32640
BD380E0C
BD1998BD
BD8B6EFB
BE1C655F
BDB15451
3D00D3B8
3D99A0F3
3C381398
3D58FE54
BE0140FA
BDB38E80
3D2C0135
3CD91C21
3D80EB3B
3C76986D
BDB235B9
3DC54FEB
BBEE6914
3D88662C
3D4F946B
BC4C0FAE
3CFB99D4
3BBCB035
BD94DAEA
3D38862C
BD3D9D7D
BC5823B8
BC6A9B34
BCF5E26A
BD8430DE
3C15B86E
BD6DC6C2
BDBE466F
3CA1C0AA
BD669EB3
3DDB5776
3CD06CB5
3DA0B647
3E163158
BE5E6211
3DA70A23
3DA3A257
BC80F868
BC4F4766
BD465C9E
BC86AED1
BDDAD3DE
3DA1B5B5
3DBAA604
3D9C2A2E
BDF0531B
3DC06A2C
BDC30B24
BDAF812B
BCE0A221
BD8BC131
BD9DF8D4
BE3B01E0
BB5A168C
3D2FFC2C
3D9EB2F8
3DD24F6E
3DAB07FD
BD85913D
3DB559A8
BD26622D
3D99FBC9
BCB1B4B9
BD164EA6
3DFCF761
BD302F75
3DE8F73E
3CC9F53C
BCC1EE72
BDA2F4D5
BD4C102C
3D880823
3CE01D2C
3D632CC6
BB71C580
BC85F05F
BDB1E2FF
BD5805F1
BE369205
3D9980D8
BDFC43DE
BDD98675
3C54DCD1
BE0432BB
3DB64ADB
BD7C3260
3B8433EC
BC464742
BDF0C058
3D1F3D83
3ACE0633
3CDDC32F
BD00C2FE
BCD59223
BD4F0320
3D803BC3
3D01323D
BDDA3DE5
BD9FB099
BDA58AB5
3D2B7D92
3DD6C0C3
3C4A18D3
BCA8F9AF
3C22716F
3D76260F
3DD20FE8
BBA8B830
BD9EBD25
3DB07A25
3DB3FC2D
3DECD84E
3D1D8F2A
BDD95831
BDD6FD68
BD46B0E4
BD3B4BCE
3D0B923D
BD32C491
3D9F34C1
BD21162B
BDA547BC
3B389FEF
3E3240D7
BD627B2A
3DA05A75
BC7DE162
BA2300F6
BD9A84AF
3DB7AF4F
3C07A24B
BE109FAA
BC448779
3B8FAE33
BC7847A5
BD2EF1C5
3D2CD589
BDD6EF53
3CA040C8
3DDE52AE
BD10448E
3D93DFFD
3D90E14F
3DA4B2C0
BD2C5A1B
3D242FD0
BE3F3B29
3D2F1AEE
3E07890E
BD4DE4E3
3DA790CE
BD9A7886
3DF1E173
3BDE4B90
3D05E171
3D8A4C4C
3DB5069C
3D166AE1
BDB6C586
3C060B27
3E104308
3C8AF26D
BDD77CD5
BDD46E66
BD85FBBE
3C9A2779
BD1FE3F9
BD025A86
BD5415E4
3B1E2092
3DA3A2A9
BCF08508
BDB99045
BDAFF517
3D934EC4
3DE93A3D
3C81BBBD
BD9AE5F4
3DD248E1
3D651FC2
BC8D5751
BDB15B82
BCF8EC60
3C9D870F
3BAF639B
3E077FE0
3DB92B10
BE05FE03
BDC5B269
3D0563B2
3D73B1DE
BDB4399A
3E0771E9
3D16A8C4
3D0D7C5A
BC43BB20
BD664F52
3DA862D5
BE0DB36E
3DC29DD5
3D9F2682
3D477021
3C03AEB6
3DCA0A78
BDA4786A
BD918E8E
3D3C3479
BDC6D94F
BD443D77
BD0B57FD
3D48CAEA
3DA41D52
BD7B05B2
3D251901
BD81B4F8
3DBA955A
BC75073E
BDC332AE
BE056E6E
3E2CFD4E
3D2C5142
3CD6C660
BD9068CB
BD6542B5
3DABD1E2
3E1BDDA3
3DCED23C
3CB6085A
BD24FF51
BCD93820
3DA7D60D
BD00A35C
3D344051
BD383FFB
3DBC0E08
3D56965F
BD5227D8
3DB97698
BDDE6D68
3D9EEF98
BDF09B7C
3DA08F3B
3CD7CFAA
BD0F9A24
BD80ADB8
3DD78BDF
BDE0B169
3E1C1D7A
3BB202C7
BD280174
BE005942
BC4C2EF8
BC19C58E
BCD76D0F
BDB52030
3D10E60C
BDE64728
BCE7DC3D
BD737741
BE25ABAB
3D46AA64
BDAF008C
BDFAC881
BD94F7FB
BD813ABF
3DC7A1B2
BD74C5C2
3CAD93DD
BD358355
3C9D86DF
BD32DDD6
3DC6CD4B
3E03A1D9
39D2AF65
BDF41C4E
BC108843
BD63CDD0
3DC3497F
3DE58683
3E07DD57
3DF230F5
BD247E29
3BE11C7B
3DD2F25C
3DD48A4D
BDC4AA7B
3D8E1FE3
3CB58543
BCDEC898
BDD57399
BE0F39A6
3CDBFBEA
BDD3527B
BC8E2588
3B23B92D
BDEC81BC
3BBE7E55
BAD9569E
3CF03FF4
BD807468
BDE6EBE1
3DA1CF7E
3D872ABB
3D5B193B
3D20219B
3E05622F
3BA83076
BD5849D6
BDA9556F
BC38CA41
3A18BC4F
BD9085D6
BAEBB444
BDA96C24
3D7D8DB5
3D32800D
BD629201
BD33D7C1
BE71A42C
BD8CB065
BD2151FD
3E034584
3BC629F0
3D1D426E
3D8D3C32
BDA338B6
BD87E079
3CE5E2B3
BD95222D
3D9C6B6B
3DA2D6AB
3D83D01D
BCB91B5A
3D0AEE4E
3DC78439
3D7A66E4
3D3D3921
3CEBD028
BD868296
3C8BF19B
BD284E20
BD8AD88C
3CD9071D
3CB258EE
BE0C36D4
3CA43219
3C30D91C
3DFA4318
3D16CC48
BD60AC93
3DF6C1A3
3C7FDF33
3DA76488
3BB0DC81
BC13FE3A
BDE0CCA8
3E061A81
3DB3EA43
BDF6342A
BD7E2AAE
BD345661
BD8BA72E
3DC93BC7
BC35ED0C
BD9DE153
BC03791C
3D11EB32
3DC53A23
3E1DD8C7
BD788169
3CD1C077
BCBD69F3
3DA4158E
BC8470FE
3D85D85D
3D364C8D
3CE2FB0C
37F22DDA
3DF7493C
3D26C503
3DB0B68C
BD9F7F89
3CEFF439
3E0222C5
BDAE9369
3DB2B015
3DAE3764
BDAC0141
BB2E2CFA
3DF9882F
BB21F055
3DA5C107
3DE8E57C
3DDF8AB3
BE2B1E98
3D0C6FA2
BE05C2B9
3E0614C7
3D628CFB
3D90B97C
3DD2E39C
3D199E6A
BD845051
3B610945
3E151BC6
3D7ED0E9
BC4A80D8
BD491B1C
BC08E679
3D0C785C
3D31E852
BD5641F1
BD924774
3CE8F8D2
3C579AE7
BD07FDB0
BDC54033
BDB9096A
BCD816F3
3DDBD7D9
3DB81A24
BD86094D
BD281B0A
BCADA718
BDB98226
BB4A0298
3D31A5ED
BDBC4A9F
3E8AFA8E
BE2A6845
BE18B920
BCFF572E
BE805406
3DB7765A
BE9E4D8A
3D7EC34A
3D220569
BD35ABC1
BD5F98A2
BE0580E7
3CCEBE29
3E4D52F1
3DF1C4E0
3D2C04C9
3E1175F7
3E6D6ECC
3B844B69
3E8C04D5
BE126B5B
3E3174D5
3DDBC810
BDEB96D5
BE945AF2
3BD75BDC
3C812874
BD22A5FD
3CEF9D37
BDE25213
BDB5D53F
BE521EA3
BD176E8C
BD7B9357
BE79767B
BE2C1131
BD716225
BE8D395C
BC921FB2
BDB54D52
BCB8078E
3E5DB16C
BC5F703D
BDFC1091
BC43C92E
BE09260B
BD0FC479
3D37FC5E
BDB80DA8
BDCEEA0A
3EB556A3
3E71EABE
3DB34C4B
BB98DB84
3DB1479D
BD1F9B5E
3CBA80C5
3B04FC7F
BE4A2AB1
BE579E1E
3DFFF07C
3D661CEA
3DCC93CD
BDE14BF7
BD8F51B5
3E395C02
3E9CB806
3DDFD1C5
BD89D60A
3B8133C7
BD372E45
BD8F5A86
3E974E03
BE1F9677
3E626D8F
BD6CA3AA
BCE47601
3D861B2A
BCE5F26D
3D94FF28
3D129917
BD57D05E
3DEAEE5E
BE0CB07C
BE06F741
BE7B3A42
3E15F5F8
BD8B05E0
3D86132D
3D9E8912
BE816DFA
3DFE837B
BDBA38B1
3DCF128F
3AF52281
BE00FE58
BD8CEE09
3C3137F1
3DB6858E
BCFF92D8
BDB47E50
BD1212ED
3E3B382F
3E73B621
3E79151E
BD8404E0
3DDEA932
3C9D251A
3D3A87AE
3D8B1D0D
3C655D7D
3E2E2D96
3E9FA276
3DAFD90C
3C5363AA
3D2CC119
3C2533C1
BE8EB67B
3E27D494
3E6560CA
3E0965D6
3D2CCFC7
BD37EADE
3D9DBB4F
BDD4F79E
BD881E65
3D22F68A
BD6354A1
3DE1D364
BDC8D119
BE38767C
BCE30F64
BE16D08D
3DB8AB2F
3DC8C3C4
BCE6DEBC
BCF77DE6
3D766A8D
3D149DBF
3D7D56A0
BD711625
BD1CA400
BDE448E9
3DC2A68E
BCF88A4B
BDAE44CB
3CE8D82B
3D344699
BDC7ADE8
3CFF9FF3
BE0219A6
BCDB41EB
BCF073A0
BDFCBF2A
3D755EC4
BDC68D48
3B45EA85
BCC38977
3DE18A05
BDFD6CC7
BDBA65FD
3D41D730
3D24430B
3AB1E210
3D16720A
BDA4AF13
3C9BDAA7
3DBDF3DF
BC1780B0
3C9DE589
3DCC5F33
3DBCDD72
3D03D4B9
BE0B16D8
BD536E57
3DE0E5B2
3C952658
3DFC63F5
3DF667A3
3C2CFB76
BDA46A87
3DA3FBA9
3D83C402
BDA61E25
3E1A98D9
BCAA492F
3C7234A6
BD4A29DA
3D69DF1F
3D1CAE9F
3DBA5D83
3D81409B
3C6D36C5
3DAABBB0
3E472D56
3D88920C
BCCD0480
3DC83FE4
3D31E47F
3E10C3D6
BDD4B918
BDA051E5
3CAB59F1
BDBB3F21
BD2CF0B7
3DA1CB55
BD98F9A2
BD07D91D
3C253630
BDB4D33C
BC214A73
3CA0FCE0
BDB71C7A
3E08847A
BD87C719
BC915151
3D46ABEE
BD5DA7D9
BD8AAA9F
BE0AFA34
3D8634A9
3BBA0B14
BC473BD4
BD625CC1
3C146DE1
BDA15ECD
BD8193F5
3DAB297D
3C012A2C
BDDEAC40
BC6604F7
BC972A9F
3E12775A
3D9A9EFB
3D0CE678
3D3F88DA
3D786CD9
BC1ADE93
3D76E60B
BD369CDD
3DF84198
3E15BDFB
3E05FEC9
3CEEDF46
3E15520B
BD8660AF
3D5DE803
3D6A8BB5
BC347D55
BDB19436
3D9A45A2
3E10F35D
3D0CB18F
BDFB6E3B
BCFE47BF
BD45175C
BC202E7E
BC9E952C
BD97B90C
3D2D6F9A
3E0C1A50
BE02F6B0
3D89B1E7
BA56A0B6
3DB69F73
BD2D2288
BCDB11B9
BD572CF3
BD458409
3DA38E97
BD46A101
3DD0678B
BC423D52
3D745CC4
3D6C6086
3C1A5063
BD874752
3CF2EFCC
3DBF83DC
3D122EB6
3DB0C444
BD873B3D
BBC90DD0
3DAFD95D
BC9337E0
3D16B6AB
BCF08874
BBBE3EAA
3C124ADB
BC2FE698
BE14DBD0
3E0A7A3B
3D7FBFC1
3E0AAE5A
BD93B565
3E67CBF0
BCF32F17
3C88CD19
3DA72FCB
BD44178F
3DCF3BB4
BDD4127B
3DCEE63D
3C1A76EF
BE1EC691
3DAB253C
3DADE57C
3D189ED3
3D8A8C7D
3DAD06BF
BD895EC0
BDA2D322
BDF7BC4C
BCB74E20
BCEDF404
BD72A0FD
BD08E615
BC10684D
3D2AB63C
BE006531
BCD62256
3CE844AD
BC9EF99B
3DDCDC75
3DDF4569
BC233F95
3D014E19
3DA41FCC
BE0F5013
3C464FDB
3CE14E9A
BDB34CA2
3E324BE2
3D781B1A
3D6F6D03
3DAB6B05
3E44D050
BDD49889
3D6298C4
BE1680BE
3D3832A9
BDBCF899
BDD20893
BDD05FA8
3D86A2E8
BBEACBE6
BD01F5C4
BD762E63
3DFF2ACE
BDDAEA24
BD81F639
3E02D08C
BD372FF0
3CE9BCDD
3D7A1088
BC93CA82
BD807F45
3D8B69DF
3D45CA09
BDD1FB09
BC040DF7
3DE4EFC1
BD6A1C89
3D638642
BD01E9E2
BDE86FEF
3D674292
BD953D03
BDA490EE
3DB5BAE6
BDBBCBED
BDC1DC4F
BD93FD1E
3D79A621
BE390077
BC5A2565
BDD71BE2
3D24B074
3BD80007
BD3E7D3E
BC6D82E5
3D85F038
3DCD50F4
BCCC3BDE
3D47AD61
3BF8662E
BD020980
3D57E32E
BDF35124
BD895CCE
BDFD763F
BB8C7010
3DE2B22C
BE3D3877
3CFE4A89
BDDED3CE
BD64EB6C
3D2FEDAE
BD2F5781
BD60DE62
BCB0BFA6
3E43475D
3D9FC6A1
3E026AA9
BC81941F
3DB83A8B
3C197857
BD840B5C
3E06D24E
3E014319
BCEFFA29
3C1D7FC3
3CF1C097
3D7B8D80
BDC5469A
BDAA4648
3CFC3E7A
3C33B788
BE1E4F47
3E0CA6A0
3DD46168
BCD8EC65
BDBD96F8
3DA4C31C
3DAAC28F
3DDC21AC
BD8C8E61
3CF237BB
3D8CD06A
BDA58032
BD667024
BD90AB2F
BC1AE4FE
3DF01175
BD29A52A
3D89F62B
BD117848
BCE79D4E
BD91A4D1
3D8FAFB9
3CA777B9
BC8646F7
BDC95162
3D74DF1A
3DBAF5D8
BE0806E7
BE3A9546
BE02DC15
3DA99C27
3DC0AC39
3DEA32C9
BC64FBD8
3DB21AA6
3CAEE19A
BDB2E2F5
BC3CB075
3C17806F
BE00C456
BD8E2ED9
3D6DD078
BBB9317A
3D04BAF5
BDE587D4
3DA1447A
3D22B402
3D9EEBF6
3D9B30ED
BD499743
3CCF5665
BD09FD65
3B6A42D4
3C88B002
3DD9E559
BD09C297
BCD7E73D
BB30F27C
BD7DCBF1
BD922245
3D8C39F0
BDE605CA
3D80171F
BE026920
3DE2EC48
BD97FD7D
3DCE7EE0
3D5487DA
3D80C4E4
3D5922F4
BE0C9944
BDE221B5
BE1423B9
3C67A810
BDAF2B31
3CFD5845
3D84EA3E
3DBB5712
3B416A18
BDE3CE4B
3C83AE56
3B805AD9
3DB11C77
BDAE2CEC
3D274C0A
BDE0638F
3E30592A
BD2F0C45
BD611A95
BDE9E8AF
BC239089
BD53D6CF
BE066E04
BD1AD88E
3E0D7681
BC6B556E
3E2F8C4A
3C01718F
BCDAB345
3E62DFEB
BC46A12F
BD66E128
BD2ECF69
BD35BCB5
BE0173C5
BD84A47B
3C36844B
3D9C7F12
3E1C0624
3D0F921F
BD9BA478
3BA41D16
3CD7BB58
3E04FA06
BE502C24
BC73B458
3D1E8831
BD8254B3
BD7B904F
3CF9C37B
BCAA9184
3E46C664
3DC732DD
BD9381BE
BC1B54A5
BDC27CD0
3D0B2240
BD84AA25
BE1B3264
3D358548
BE9E1D8C
3AB1A24F
BD876DD1
BE507B07
3C10B8B5
BDEC1361
BE0D2C2C
3D07BEA3
BD63AD34
BDE7FC71
3C0863F2
3DEE1723
3D6A788F
3B46F7A1
BC88A02D
3D688133
3CA226E7
3DE5EBC4
BDE33690
BD19063C
3C8299EE
3D63AF4F
BDBAB2A8
BDF38F2D
3E245192
BE127118
3C8994AF
3DC700A9
3B82DC69
BD6D9AE3
BD70CB7A
BCCC54C8
BB56A08B
3D2E6556
BD694AF5
3DB31015
BDE29FE4
BDE84F1B
BDC029A4
BD01E677
3D819EE7
BD3631E3
BCD34669
3CC4F9A4
3CD16233
BDA126A0
3DE15CDB
BDDAE68D
3E05E2EE
3CEF6B7D
3D965A88
BE4B069B
3E726498
BC318CA0
BD543A2C
BC129B02
BD258A53
3DB306C6
BDE30157
BD868A06
3DB1600D
BD149C3F
BDAC0EE6
BC0D9AE8
3D8D2FED
3D8BE4F3
3D2F8FA8
3D95C631
3E07E05F
BD81B0DD
BD589090
3DB6DEF6
BE322A04
3DBDC3B9
BE1A44DC
BE18CC8C
3CE2F6C0
BD8CA7E5
3D779253
BCE44011
BDAA752C
BD4F00C4
3D777FAC
BD8C885B
3CF56E26
3E36592B
BE098136
BE0201EA
BE5A908A
BE48ABFF
BD99FEE6
3D6C1953
BD7898E3
3E3E23CA
BE24178B
BE512FD2
3DD41B20
3DCCD544
3E6FFC53
BE23E1D5
3CD7188B
3D9C44F1
3E86F51E
3DE56772
BCD44389
BDC20336
3CB3AAC2
BE381DB6
3C693E52
BD9D2907
BE6F207C
BE6FAD7F
3CB98AB0
BE1CB634
BE24839E
3D92FABB
3D5D2AEE
3C18B6BB
3DC2B3A0
3DD96E2A
BE7A2520
B96CDA33
BDC3309F
BEC2CB53
3DA19016
BE016070
BD9BF5AD
3D26744E
BDA5D8FF
3D3A54EB
BE3AF793
3E2D760F
BDC0C461
3E5B687B
BE324E3B
3DE8B901
3BA73B2D
BDEA899E
3DA88459
BDD7F8A4
3CE2C309
3E19DA8E
3DFB28EE
BB81F4A2
BCE34047
3DE1E63C
BDD01C38
BD12771E
BCF6F20A
BDBD55C1
BD17D74A
BE0A011E
3D89E6A1
3D429D4C
BCB07879
3DE3CB0F
3D7CEF01
3DC1493F
3C2F6451
BE27CCBB
BCFC5B8B
B900EED3
BD4142F3
BD008099
3D4D2997
3D9824A4
BC7DA984
BDC163AF
3D204FDF
3D907B8B
3D84AE2C
3E94D4AD
3D2F601A
3E308318
BB8B392F
BDE04116
3D067FCF
BD22C643
BE22C92E
BDCB22D8
3DD618A9
BBB1B011
BE4FA31A
3D33B1EE
BDB77623
3DB01367
3C5B9161
BD01B9E4
3D0C8918
3D800C64
BDE84043
BE0600C2
BC9D9BDD
3D8BE91E
3DC75821
3D278DA0
BE25FC28
BC4CB977
3E2AAD65
3D0E290B
BD798C4E
BD83260A
3C732FC3
3D906EFD
BE043E9C
BC434087
3D90FA4C
BD6CB4A7
BDAF9208
BCFD0E63
3DA29BE5
3D4F9E91
3BB5149F
3D75CC35
3E4ADE15
BD3BC37B
BE0D1982
BD22A744
3D752AF2
3DA68693
BD612A75
BCE700BB
BCB9EDAD
3C3503B8
3DB0AF54
BC18127B
3C9B5FCD
3B00E314
BD792C2E
3D5DFA41
BBA96427
BE2A41D0
BCCBA179
BC45D440
3E5F2ACA
3D567275
3C17935A
3D816828
3E359BB3
3E77055C
3E650A9E
3DB0293F
3DAE1663
3DDCF620
BD05EC59
BD9765A5
BDB42FB1
3DAC4001
3BB61F0B
BAB4710B
BDBD3534
3D0D5124
BDFD3B15
3D918F70
3CD9E90A
3DA165F6
3DE0FC27
BC2285FC
BE2B0CEF
3D22B958
BE29C43F
BD2A43A3
BE23A8D4
3CC380E9
BDAC4601
3DCFDBD6
BE05F8E2
3D1C155A
BDBC213F
BDBF4F6B
BD72CD98
BD8AAAE3
3DC0D18F
BDAD1887
3E4E8E30
3D24DD95
3E41E1D4
3D00CC71
3D02A25C
3B8F3B06
3BB3BE1E
BC251111
3CB1A21F
BB715F28
3C42235B
BC321D09
3D1B8D95
3DC52294
BDAB08F7
3D07FE9C
3DA8D32A
BE392380
3DBF8B18
BB8D72C5
3D579850
3D739308
3DB555ED
3D916900
3DF1C8A5
BC075D01
BD3826F3
BD821C74
BD2289D8
3DAD3372
3D86BAC5
BD0D8B4B
BD429A8A
3C8FD682
3D0A4107
BBA41B3D
BD8725C5
BD92FA8D
BD420569
BCEDBBFB
3BE66B84
3D298DC8
BD79C437
BDAC134C
3BA4EBB2
BD09D4F8
BC1571D7
3D044193
BD789C64
3D5098EA
BA817BC1
3D83643F
BD1F6637
3C7F1C40
3D899382
3DE36464
BD85F85A
3DBEEFEA
BDFC9002
3DB42C93
3DA98900
3DBF9A75
BDB3C9ED
3CA60791
BD6A63B1
BD90C64A
3E026398
BC5129F4
BCE1E518
BE00A1BE
BD2B3A08
3D837316
3C9E0B79
BD11C9DF
BD94AC7D
3D170E54
3DA3471D
3CE21061
3DD16103
3DA56E7A
BDF4021A
3D0A27E7
BD9FD4DA
3D03F88B
BD89E6F8
3C6DA78E
3CD65D29
3D5AFF27
3DBADA1C
BC2B0202
3DC39464
3DE3D161
BD92061D
BDE60ACB
3E1112A3
BD18A774
3CA8BBE6
3DBA9927
BD4C5F1C
3D1630EF
BD25D699
BDDA92C5
BD18F1E4
BDEA3D83
BD913AC8
BA94E4D4
3D002811
BC3BE37B
BDBF89DD
BDA8B2F7
BCE40599
BDBC5691
3DB462E8
BD56AA89
3D2505F1
BC267C4B
BCE725A4
BD3FFF19
BDB66980
BD9F599E
BDB50CD3
BE057C36
BE0C57D9
BDF24549
3D414B64
3E1D429B
BDCA5888
3DA19BA2
3D2A7CAE
3E118D54
BB0907A6
3DC356BF
BD241B43
BAECB8FB
3D596381
BDF2A6CC
3DEAFE01
3D556438
3CABE6B3
3E6AC6D9
3CBF4159
3CCEC763
3E0E1973
3D3BEC3A
BE13DEC3
3DABB132
3E41BF41
BC687331
BE00C3F3
BBC934BD
3D7B53B1
3B9E5FA7
BDCDAD50
BE0CDF58
3D5087E8
BBD96F1D
3D65B71F
3DED1FBF
BDB5D4DE
3D4A5AC7
3CAAFE6C
3BB73B00
BE2A6A3E
BD09919F
3E58E469
3C90E8E6
BDC2250B
BC67AE0F
3BDB4D03
BE065243
3DEED842
3AC79FBC
BD905BD6
BE61A058
BE56C7EC
BEA5C232
BE4BF7C1
BE55771E
BDE6EB7E
3E81E449
3BA76AD3
BEA5EB53
3DDBDE3A
3DD19354
3DFACD6A
BA3C3377
3E69CF3C
BDE5EEE1
3E5C48C7
3DD56F18
3DAA653C
BD821E9D
3D812B48
BE65F762
BD1A8F2D
BE2D2099
BE30B2FF
BD9C093B
3E2FF9C3
BD6BA8A0
BE0CD5DF
BB7BF4AE
3DF252CD
3E525785
3E0DE06E
3D8DB177
BE19B3FE
BCA443F7
BE3D7F91
BE135E93
3E38E5C7
BDA0186D
BD7A6704
3984CC02
3E010A22
BD83B795
3CAD0425
3E30A347
BE121051
3E05F235
BE866775
BE6EA4C9
BE3F41CA
BDCA6FEB
BE327283
BB41B110
BC2EE7BF
3E6F7504
3D7082E5
BDC192CA
3E6AC8DA
3E46B7A9
BE42CA5A
BE394D59
BBE8BA29
3D3023A7
BCE51396
BE2B5EE8
BD7AE287
3D7325AF
BCE8BFD8
3DF0E48E
3E36140F
BCCE9C96
3DE73174
BE643050
3D284F92
BDBBAB2C
3E48A9E2
3D144A82
3E3DED11
3C6B4EA3
BE36E8C0
BDDC72FD
3D00ED4E
3CE31E43
BDFA4CC5
3E1AE065
3E4D72D8
3D2CCBC6
BE839D9E
3D964C4A
BE05D873
3D41FCF5
BE759A75
BD148FBA
3D5A00BD
BCB14603
BD343B33
3CF19482
BD99BC51
BDA8EA51
BDB080A8
BE8FE528
3D02E1CF
3E899EE1
BB9921E5
3ECF9583
3D946F1C
3D8E6FF7
BD0547D0
3C6B876D
BE8F9496
BD5B1128
3DFFA3C4
3C77AD00
3CCCEF77
BCD480DB
BC0BE8A1
BEA65A04
BDFE4410
BD8C3B02
BE22ED7C
BE42FB30
3C9030D5
BDF793E8
BE075B6F
BCFF67FA
BC5455B8
3D0FB8B5
3E010DCB
3DA3AE72
BE0F26D0
3BF1B0B2
BCF1CC20
3D32E6C2
3DA69077
3D3EE2A9
BD3DF67E
3E71F79F
3E59984F
BD91CE82
BE251A59
3D21C3AF
3BECE6B3
BD984E63
3D548CAA
BE6527BB
BE09D3ED
3E3958B9
3E07FCD5
BE823EB5
BDC9270C
3C68DB36
3E8AF50B
BD13E2E9
3E531E86
BDA89831
3E71375A
3E20C17B
3E92E2E2
BE1F98CF
3E0E2A62
BCEEA8DA
3E570B7D
BD9183ED
3D8BA205
3E474A93
3CA4A24C
3DC644FB
BE326400
BE5EABEC
BE105C6E
BE58ED7B
3CEC0C0D
BBED8798
3E1F0B8B
BD993B79
BD2A4E7B
BD7E7C7D
BE02F65B
3E73D706
BC83C948
BED99878
3D95D32E
BD076598
BD7FD2B9
BCDF4A9E
3D8893B9
BD934F8C
3E200B34
3DF54568
BD392FDD
BD3A5D5E
3E8B1C09
3D9E6EF9
BDA770C5
3D3A9461
3D25CEFF
3E29D9D1
3E29B3B4
BDBA5C9C
3C42CC8E
3CC1F74C
BD47AF77
BEA922CB
3E1F75A4
3E3CB1D5
3E4C8F37
3E3F70E8
BD8D7FF7
3B1185FA
3DA9B4B7
3DE72AE9
3DE09308
3D39F768
BD834BA6
3D61F055
BD473023
BDBC0C5B
BDDDB5BC
BE4F8E91
3D5AFC2D
3DAA4E3C
3E0476A6
3BF907BE
3B427EC0
3B4DE378
BDDBB8E3
3DDD66B4
3DABF970
BDAD69AF
BE2EF6A6
3D6A5F5D
3DD1F876
BCCB4462
3C41D8FE
3DD5EEA6
BD3E8C35
BE99A68E
BE559EE5
3DA894AC
3DF81351
BDFD7219
BCCCE87B
BE2F770C
3D9F6A14
3D4AF950
BD92D9D6
BDA08800
3DCA3655
BEA4E1CE
BD8FF699
3C565DB0
3D2E613F
BDEB89E5
3D0AE42D
BE30E5D6
3D827E07
3DEE275D
3C9DB4E2
BDACE126
3E3B4207
BDDA7946
3D25B6FF
BE3799A6
3DB254F6
BC0942DF
BD279CAC
3D90E665
3D8D141A
BE616436
3D7A129B
3D4F2816
3E893877
3E17D428
3DD8DB0B
3DA6E802
3DFD7744
BD8C7A17
BA6ABD4E
BD4406B0
3D26FA83
BDE156D6
3E55BAC8
3D3AF54F
3DF85D16
BD4BB88B
BC487A58
3DBA6B45
3D78B360
BBD9C42C
BE0128CF
BDE28006
BE4F797D
3DA7B0DA
3E12E5AD
3DD5CB99
BD9076E5
BE53FDA4
BB0B4ACC
BDBE4935
BDC25EE5
BE5E8A67
BD487FC6
3D2B3992
3CE6BC9D
BC142D74
BC035331
BD8827D9
3E0B42F3
3D219881
BD8F10D3
3C082EA3
3DB9CB08
3C6F39CA
BD5A62CD
3BC30711
BCE992BB
3D9A53F3
3E24B0D7
3DA1AC7D
3D2FDE4A
3DAAFE49
3D48AFAC
BE538555
3E083FB5
3E7F4B65
3DE38E8F
BCFE8338
BDB9D269
BD382DD7
BD1ABDB4
3E384A76
3DC38A84
3D1DC7A1
3DF086ED
3DBCDD12
BDA68734
3DB39114
BD2F67FA
3C5A401D
3CE0D0D6
3CA5D68E
3DAFFC37
BC8B4D66
3C6E8A0C
BCFB2F8C
BDB5AD51
BCD304CA
3C6FB03C
3E02B434
BC845986
BDE52D45
3DA7DC51
3D86E05C
BCA170F4
BD6448D5
3D12202B
3C821488
3DDE931A
3CFC38E6
BBA7D9CE
BE18EC64
3BEC784E
BD6995D1
3CFD70D4
BD8378BC
3CE1A75A
3C1AEBFF
BD14D410
3D0C79B1
BDF2001B
3D8D3B13
3C8FE820
3D4587FA
3D698473
BB6D0176
3DE3E1E3
BD9CF82F
BD04CF42
BC6D2E36
BD47A510
3C121826
BB5384CD
3DE542A8
BD15912F
3D4F468D
3C78F45E
3D1A9649
BCFEDAF2
3DAA243A
3D36CE13
3D4A31E8
3E085160
3DAAECC7
BC8FD413
BCD54333
BDB3DE9C
BDECBD55
3CABA8B0
3D588D07
BD27447D
3DC1B592
3DA505ED
BD970C9D
3D6E5ADC
BD86DC12
BDACDA8B
3D13DCEC
BE40BC74
3D773655
3DFFC3CE
BD1911AA
BDB78329
BD716FCA
BD4FC6CA
3E20E538
3DCC31EC
3D3BA0BD
3D925746
3E295331
BDBF2236
BE074F6F
3D9BC6FB
3D3BFCE6
BC431DAC
BDF8BBFD
BD8E4F2D
BCAE5A56
BD466C10
BC9D61A0
BD7E1B8C
BBD79F79
BD8F5A19
BDB6B6C1
BC9D5668
3CCE250C
3D9A6421
3DAAD7D9
3DCB5DA1
BD684E88
BE05C533
BC280354
3CCD2C5E
3C0B4DE7
3D826FCF
BD4D3934
3AE7B88B
3D33357C
3CA1E862
BD041427
3DCFEE8B
BCFF00C1
3DE624D0
BD31ABA1
3D9492FD
BD8FAA31
BDCE6177
3DA523C3
BB8B44C2
BD8B2E99
BCB2A656
3D3A664B
3D2D4406
BD314C28
3D45BB5B
3D0B55AC
3DC37831
3DB8B676
3C71525D
3E0B948A
3DD59F41
BB811EB9
BD9A671F
BD71B925
BE0D1A6B
BDF73D60
BC8603E6
BB92B900
3DC4CEC7
3D072177
BD6EDB78
BDEF2B6D
BE1E09DA
3DA8B07B
BD017DB9
3CCFE93C
BD0890F0
3DC4344E
3D82E763
BCD7D55F
3DB73D7C
3DA02E3E
3D3CA8B8
BD7D63C3
3E03C402
3D738E15
BE029F55
3D63B9E4
BDB44149
3DB41DF9
3D342680
3D330CC2
3D119BEC
3DA3EF55
BDD17593
3E037210
BD6A2EF0
3E0671E8
BE089DF1
3C7F75AC
BDCCBED5
3D9CA29A
BD2E9CC6
BD382EC3
BD97D0E6
3CD4633F
3C37692E
BDEE5446
BD08E7F3
3C7D8B5C
3D72E154
BD7DA76B
3C5F1E74
3D07CCC8
3DB9381A
BDA23D6D
3DC65E14
BDA61DAD
BE12ABCC
BD9A3383
BDA1E8AA
BD7EFAE8
BE956912
BD9C0AE0
3D1DC0B3
BCA4B92D
3D95EEF0
BB99AF3E
BC155B87
3D72A081
3D3C5B63
BDAF5958
3E1B81FB
BDEC4445
BC98B9FB
BC7B717B
BE106E87
3D56E331
BE484D23
BC87BDB4
BDEB3CB9
3A859EBB
3DFC6D77
3D8660E6
BDC97459
BCB7EA2D
BD6A2CB2
3E0F5254
BDE8FF48
BDE09520
BD3D3AB9
3D23D5BB
BD606015
3C228D74
BD1C0E61
3D7B715D
BE15A872
BD5D09F9
BDF82A1C
BD46F04A
BDC9F543
3C2D5AD7
3D3AC49A
BDEFB37C
BDCD437D
3D854CA4
BDBAB7EE
BCBFEC8A
BDA95B7E
3D7EB159
3D8D53CD
3D0383DB
BCFAF36C
3D6E328E
3C6FF59C
BD05F6ED
3D26032C
BC8B9E3E
BD7571C4
3BA14B6A
BDB64CA6
3D219732
BBE1E5E4
BD78F84F
3D7FE355
BDAE679F
BD28AEEE
3B41D06F
3DEA2E4F
BCD6BE53
3DABC9B0
3D225387
3D828744
3E43334D
3DC58D02
3E30FBF3
BDAC9A9D
BE3C0703
3DC30061
3D2398F4
3D318F06
3D64197D
3D62E14C
BD479D02
BCCE2588
3D7BE8B4
BC262274
3E539BAA
3DD3922B
BCB64B36
BCBE10FD
3D2912B6
3D97F62F
3E1685BB
3E0866DA
3C418FF8
BCF2174A
3DD4A9FA
3DE308F0
BC2718E9
BCB33E61
3DDF7C04
BDD8CD3A
BD2C26B7
3E0FCE99
3D62655D
3E1413F0
3DD10A94
BDA3EBFC
BDBE2D06
BD7DEDE2
3CCAF48B
BD4514B5
3DB016E3
BC5637A5
BD8098A7
3D5C2AC9
BDA438A8
3D8A8F06
3D13A5BC
3CF2EDD4
BBADA6AC
BC343262
3DB2FBB4
BE177D0E
BE243A04
BD417A21
3DC9E1B9
3DC71DAE
BC7AAB37
BD5066B8
3D40875A
3E361854
BDC78666
BD9933F6
BD47825B
3D2E9204
3CBB73C9
3E04088F
BD917039
3D8AFD27
BD5BEF62
3D835185
3D7829A8
3DF4B45D
BD87FB87
3D40D40E
3DA3B660
BDAF66B3
3DCA6D8C
3DCF41B4
3BE88CC7
BD222C78
3C3E2FC6
BD016BDE
BD5A9E09
3D5B465D
BE1CC8FA
BC76ADD2
BDAA5099
BC8C8A4D
3DCE2505
3E385C7E
3CC83A9C
BD833EEA
3DAE30EB
3D8727ED
BC515C89
BC727157
BDDCBCEF
3DB2A081
3D556179
3CDFED20
3BA4E4A6
3C56B690
3DC9F81E
BCD07980
3D5B5B4B
388794B4
3DC63A58
3C9A7715
3C4F4FFF
3D8BA3AD
3DC5F085
BD30352A
BDABCBCD
BE154AC8
BB5C7891
BD18BDFA
BDD2D840
BD1704C7
BD350974
3D3E82DA
BDAAC936
3E33506D
BD561830
BC0C34E2
BD11B2BD
BDAB7FF9
3DA7BB1A
3DA6BE6B
3DAEDFB8
3B64A302
BD04D28D
3DDCBC61
3D40F3FC
BDE20E71
3C0F1714
3D467621
3D49BF64
BD91485B
BD1D4619
3D0C2822
3E1A491A
BDECBF07
BCF47F43
BD8502CB
3DED98F2
BD8DF6DC
3CEB20BB
3B74679B
3D4E8BA9
3E065ADB
BE03FF93
3C994058
3D1034E4
BD053140
BE007527
3DF236F3
BDC4D033
BD117AB4
3D47B180
3DBA2C1B
3DB872CF
3E105E91
BD519485
3D42322C
BC9968C2
BDFE1C5C
BD097626
3DDC487F
3D4AF1F4
3D083A97
BC13C44D
BE107FB8
BD683A94
3BB18A92
3CB4ADD7
3D8A0E46
3DD03052
BDE125D0
3CB80AD9
3DA555B2
3DA8D24B
3CB48BC3
BE0E992C
BD72D1CC
BD93B004
3C3BB30A
3DBC4FCD
BD6EE7C7
BDAB1A9C
3DC10DBA
BE002EA5
3D9AF789
BD34BF17
3D311EAC
3C011C75
BD9A150D
3B76E2F6
3CDF735D
BD7C206A
BDD75E94
3BE2C1D7
3DCEACC0
BD431955
BCF38787
3E0B86D9
BC841E3D
3D9043FD
3CD7F38C
BCE51B88
3D720208
BDA229A5
BD97A944
3D16AC4A
3CBAAD60
BD2E1699
BE0B0586
BD12FE12
BD0D4F51
BD2CB59E
3D92C897
BCA7A7BF
3D62C397
3E1DC61A
3BD066B5
3AE79A03
3D6544BE
BC8F6624
3D214258
BD5F4CD4
3DAFBB02
BDE96FBE
BD36A4B2
BBA515FA
BE2B3F8C
BE09A51B
3DC8F79A
3D8506FE
3DE3C64E
BE0C8B96
BD460835
BD8C5153
3CBB16E7
3D5C89F7
3C0605FE
BD18DB63
3D759307
BC137D60
BDE9404A
3AC3F1DD
3E0064B9
BD4C55CC
3DDC251D
3DEFBCA8
3D8FDD80
3D0A8CD9
BD3B9CE1
BDF71A51
3D6673A2
BD98F635
BDFA0803
BDC19C29
BD8ABFE3
BD9BD3E8
3D694782
3CFD8F37
BD6AFE18
BD06D2E5
3A82BC32
BCE5CAA0
3DCA063A
3E0DB6FE
3D920714
BCA8C70E
3D047045
BD804871
BD072C29
3ACB47E7
3CFEC4E7
3BFF4FC1
3C52CF45
3D8F1779
3E0E1970
3DFD4A56
BCD04766
BD8FC36F
BE155940
3D47CD11
3D079B98
BC28A0A8
BD8F931A
3DBBD942
BDC031D5
BDF4EFF3
3CC221D3
BDFEFFD3
BDA84311
BCAD79F6
3D0F072C
BE07A216
3D61CADB
BD93541C
BD528C04
3DA94EA4
BDFC6DBE
BC709884
BC64584F
BCC739BB
BDC90B7D
BC3FC919
3DE1BEB4
BC7FE238
3D47B393
3D87104A
3E0A804F
3DFDDC78
3DC6B728
BC2FEF46
BD254CDB
3DC2AAF3
BCDCDD30
3C9956B9
3DCBFDAF
3CA090FA
3DC39C33
BAA8B596
3D94BBEA
BC4B6107
BD2F6393
BE33F32B
BD2571A7
3DE23251
3E642AA9
BC979C0E
BE62983E
BE02E7EB
BD94E12E
3DA026B9
3E3C8A27
3AD8ECEC
BCC4CB0B
3D95529F
BD9968B3
3D6C8455
BE16E494
3E0819B4
3D6524D0
3D865EB1
BDC919F6
3D71BD6A
3D971C2E
BD9707BB
3E00E00C
BE0273FD
3D6BA33C
BD708A39
BD8035E6
3CBE170D
3D6FD9F0
BD059D10
BD4AAC81
BDA835C1
BC24BBF7
BE188AB2
BD412102
3DD6B33C
3CF2152B
3D76C292
3E017D82
BD2AE284
3D200455
3CCAB39D
BD5D7DFD
3B9D0B54
3E185D34
3E095E99
3DA474F6
BE08BC76
3D595D74
3D471A6B
BE0ECB16
BDEC237A
3D46E8E0
BE720AB5
3D7BC8C6
3E531723
3D81B843
3D3F0D64
BDDD0706
BBF8D2FB
3CEACFCD
3DE4D344
3D54C4E6
BDD75F21
3E5E2D93
3E031AFD
3D68CD59
BDA6B358
3DBAF3F9
3D938851
3D51301C
3CABC69D
BDB45A33
BC4FCCC7
BD7FB76E
3DA1F4F0
3DC4C030
BD4D2265
BD31E64F
BDB5FE6A
BD7CD70B
BCB19C85
BB5CEBD4
BDFFEFA0
BD226B2C
3DB68FD6
BE68B9D0
3D96E88A
BD5FD380
BD16AD06
BE0B47F8
BBC7A241
3D476191
BD31A5B2
3D0FB044
3D90A38D
3DFCF497
3D1CC690
3E86CD61
3C958FB4
3E0249D8
3E52F639
3D2138E2
3D24A59C
3D570FD2
BE265F23
3E79A574
3DC38C3D
3D75C445
3D1298B4
BCCFCD78
3C6385D7
3E089B78
3D37222E
3D03D35F
3D827915
3DBC8DF8
3D634E87
3C60ED6B
BB8B8B4E
BBF00CC3
BDEE447F
3CCD8539
BDAD6832
BE690B7B
BBB81484
BE205A48
3DB27304
3DF96D7E
BDB00491
3C4A8245
3D127672
3C0120E7
3C98F3A2
3D5257EF
3DB160ED
BDD36F55
BE0373DA
BD39524F
BDEDFB52
3E36C2B7
BD2BCB1A
3C7CB98F
3DA15214
BDBAFCF6
BE15C080
3D866A13
BDE845E7
3DDDEA07
BDD47131
3D02AD29
3D60BD6D
3DF5FF65
BD7E7B53
BD010747
3D90AFEF
3E0E24FB
BC3998F3
3B251C85
BD3FC1DF
3DB8DD7F
BC6D4141
3D373571
3CAC0CE4
3E189C79
3C81110D
3E05560A
BDF1BF0A
BCA4DD8A
BCC8008A
3D53499E
BDD83A07
3E1F6A37
BDCF31B9
3D7C96E2
3DDBC44F
3D807F14
BDC56355
3E092808
3B1AAABC
BDE13DBC
BD1BD198
3DB4452C
BDA1D5A8
3CEAC922
3DD3081C
39BE7D54
BD333F3D
BDF5CC97
3D81E8A2
3DB0A1C8
BD982E49
BD5B8176
3DF53E27
BDB38DF0
BD18454C
3D02A9E6
BD6EB19C
BDBA0F3D
BDDC1289
BD967673
3C42C19C
BD84911C
BC32A483
3C86234B
BC936B8D
BE014BF5
3D9267CC
3DD4B468
3D197DA8
BBCD59E5
BD9C81B7
BC5553A4
BD97653F
BD5211B6
BDF66941
3DB1EB91
3D1EE658
3BE98885
BD4CE47D
BD4422DA
3E31EC1A
BCA41B93
BDBD2E6C
3E072461
BD002EE7
3E56905F
3C55E44E
3DD65219
BC11140F
BD08D889
BD6678E8
3DACFB8C
BE00BFB2
3E1748A6
3DB720B9
BDA33505
3D138040
3D119E48
3DEF5562
3CD7D6CC
3DB76622
BDAD0AC0
BD1CC79C
BDA71FAB
3DA267EC
3D8B84F6
BDC27831
BC683E63
BD007B0D
BBC98DA8
BE0284EE
BD284863
3BCA9377
3D72AF52
3CE78357
3E33CDB6
3E19FD3C
BDA8E71B
BD82D35A
BD2B7D4F
3D6E939C
3CBC8735
BD885B5B
3D5F5863
BDD5242A
BD13C7B0
BBD04AC6
3CBFF49D
BE1446C0
BDF4F0DC
BD1C16B4
BD3B6AB5
BC692411
3D997923
3C0BF480
BD1A128B
BE0663E7
3AA6C6FF
3DF7B388
3D3B289B
BCDFA73A
3DA766A0
BD45C432
3D8FDBDC
BDA7CAAB
BC056708
BCE11A3C
3DE0C296
BC974907
BE0174FA
3D3E0422
BDCB35D4
3DACB68A
BBE654B3
BD2FB799
BD137662
3D3972D0
BD110147
3D680F28
3E054A7A
BD22096D
3CDB82E8
3D3A9951
BCF86FB8
BB94B026
BD36F56A
3C69ED7A
BDBC51DD
3D863473
3D575806
BD8EE8CA
3DC5F994
3DA3391F
3CE4E3AF
BCBE3E49
BC1BEAA2
3D3925B6
3DFB212F
3B892D3B
BC638678
BB9EABBD
3C03F3E0
BD800B1C
3D6A46C6
3DCC46B7
3E315C2A
BD9F8B53
3DE62E23
BDC40E78
BD629310
BD0D1E74
3D6416F6
BD9C98AC
BD4C19E7
3D9C92DB
3D23D2FB
BE2AA995
3D3B48D4
3AE0A242
3D6A9C99
BDAEE636
BDCBFFE6
BD2F49AF
BDE848A8
3D932346
BC8445CA
BDBD8CA8
BD2D2FAC
BCFF37B3
BDC942D5
BDA25FA1
3D8068BB
3E1246E1
BCE5C871
3E5C2216
BC26FF08
BDCC0ACF
BD407243
BC858D38
BE2C9EF5
3C9F0071
3CF87979
BB942C72
3C69F78B
BD44E9BF
BD8F9739
BDCC7B17
BDFD4CF8
BE99C9AA
3C63728B
3E329D82
BD1CD68B
3C4A354E
3DDBEEDA
3E4838F0
BC98C472
3D3BB885
3BCF3196
BC8A0567
3D8E2939
3C8A18D8
3D6EB52F
BDB3F2D6
BD673FC2
BE9A430F
3DAF3FF9
BD96EED3
3D9AAAE9
BE33D88E
BE09E0A2
BDB3DB30
BDF018C0
BE0ACA65
BDE2FBA4
3E0F7B41
3D4A3350
3D02D997
3E17C328
3D1E2DEE
BC9D4733
3C5999A4
3E26FD1A
3DD1EA90
3DD3AE3C
BD9F1FB6
3DDE9ADA
BD9EA1E9
3E055612
3E2824DA
3D14AA6F
BDB07930
3DE388B2
BD421767
BC267FA6
BD24410D
3E2004AB
BE5E4124
3D374251
3C0FD87B
3DD9628D
BCE4B866
3E0750C0
3C2C2929
3D233C5D
BD557B88
3E0C1814
3DEF40D4
BDD3B435
3BBD73A9
3E8FFA53
3D8E9B3C
BD5A8108
3D3308E4
BDBCD702
3AD22F8D
BE52B7D4
BE54535A
BE0948FA
BE45896B
BE8704C3
BCD233BF
3DA456E9
BD6E7010
BD8FCF8E
BDE5AA57
3C9A9619
3DD74A64
BD84EC41
BDD9FCA2
3CF1BE69
BB8ECB75
BDAE6DCE
3D861750
BCBAD660
BDCDEAB0
BBA75D92
BADBEAA2
3DEB8D40
BD963E2F
3DFD2766
B9DA686C
BD522C75
3DC7F4E4
3E844B9B
3D5CAFEF
3E5C0788
3C3368E3
BE2575C1
BD859F1E
3D942700
BDF07AC4
BD9D3049
3D04D9FA
3CDAD970
BD88BE83
3D1D54A7
BDA770C8
3D982EB5
BDF122A0
3E106F28
3DC35D71
BD4E6794
BC626692
3D2E39A2
3D895F07
3C04476D
BDFC80AE
3E066895
3E4CBDE9
BD4791F5
3D0131A6
BDF35D83
3D57E47E
3D849712
BD6C7D0E
3DCA5B87
BD3C6063
BDB01D41
BD5D1908
BDA62E05
BD8EB8A5
BDCADE60
BA6DF6BE
BE1E6300
3C94C640
3CF1DD83
BDFFE824
3DA20D37
3E0ADDE4
3E046181
3C9C55CC
BD514245
3D8DCAAA
3D5E3B1F
BC9DD157
BE0D6A11
BDAE3E25
3E211144
BD6757E6
BDC23943
BD9BDD1E
BD8F33B6
3DECA469
3D530BDE
BD74C394
BC3ADD97
BD556212
BDBD1934
BE1B9E6A
BC8612C9
BC97487C
BE0AD853
BD6AA7A9
BD440FC7
3DA9666E
BD5989A1
3DAEF034
BDD8807D
BB9F99A3
3CE6344D
BDF330C0
BCB21E00
3D4E9376
BD756306
BD905C9E
3D69064C
3CF88BDD
BCF03A7B
BE59926B
3D4ECD96
BD59202A
3E4AC38C
BC4C721F
3C5E12B0
3CAF3258
BDED38EE
3DBF0CCC
BD242A37
3E0D2256
BCF0E8E1
BD16B526
3DD177B4
BD93F24F
3DCC8D5F
BDEFB388
3DC19137
3D650C34
3CDCEFE5
BD00B702
3E5D5795
3D1CEE63
BDD45E52
BDD227EC
3D3352D6
BD981895
BD8078D7
BD92485C
3D7DAC26
BD302D3C
3E18029C
BD8EF472
3DFB0E1A
BD5F2A0A
BC8514A2
BA40EB6D
BD87DDAE
3DA5559C
3D79DBA4
BD2FDC4E
3D802B4C
3DCCDC4B
BE077355
3CF53F72
3E129D02
3DD9B89B
BD661457
BD805782
3D9CFE9B
3E222895
BEA60C70
3D28C147
3E7E91FE
3DA490B2
BD8EFEC7
BD2149E2
3D87CB09
3D8162DD
BD086851
BBF30154
3E1E7AB7
3D3579F2
3DADF17F
3D3739B3
BE35494B
3DFBD7D4
BD7589F3
BD3BA024
BE04A147
3D6CD62D
3E1A76AB
BDACAB86
3D1EC8C8
BDE39989
3E062677
BE20EE8B
BD3ECA86
3E34ED9E
BCBF5215
BE3AB186
BE07C343
BE788734
BE5EC28F
BDFC7AA5
BD5248CD
3E760F1E
BD8C584A
BE8D1E79
3D985138
3D819AE0
3E0D2D1E
BDFCA308
3DD9B62C
3E1F6D60
3E39FC14
3C8F222C
3E45B9D8
3C978095
BD1F128F
BE2BD763
3BF36B5D
3C1939A2
BE481163
BE378683
3D146E11
BCC23DF3
3D460A5B
3DCA4365
3C8DA844
3E5CCE15
3E852D60
BE4F8672
BE2BAA51
3CDFF508
BE93658B
BEA02784
3DAA99B6
BE5627A9
BDA71155
BD4C22A6
BD062754
BB9B5D69
BDF1A6FF
3E7DB134
BE4C7BB3
3E07E6FE
BE92CC80
BD6D2E41
BDAB1366
BDEB191D
3D62BCBE
BCFCC101
3E1CE4D4
BD0BF099
3E0DF531
3DE5796F
BD730B50
3E79A9FC
3DA74AFF
BB39BC24
BD0361F7
BD7062F4
BD9B64A7
BD836104
BD2DA4C4
3D22B5F0
3D988B07
3DD2E994
3E63A71E
3D4494C2
3DC9EBB1
BE613E5E
BE2FDF8B
3D4AC4E2
3CB754E6
3BDFE75C
3DE8B3E5
3C903527
BD8D8E73
BDF6779B
3CED4090
3CDAE7F8
BD02DCA7
3EDCF6B2
BE2EBDCC
3D890706
BE31F779
3D685E03
BD22EE67
BC74926E
BDD9398D
BDD10A49
BDA909D2
BCA1B0B5
BDD0088A
BDFDAD7C
BD4E4A38
BD9905A8
3DACFE4E
BE0217B6
BCD592D4
3E05D62F
3C40D781
3D95F273
3DB953ED
BB917FDA
3DBBBC55
3D366827
BCCA4E28
BD494FC8
3D9C42A0
3A9C7BF7
3D6FE0E4
BD876B41
BDC00265
BE456BA1
3E54435E
BB12A386
BD4B89BC
3B5CD0D1
3D784ED4
3D1DDC77
BDAB90F9
3CA18F8D
BDF133A2
BDFEA7F4
BD8C87ED
3D7760A2
BC8E60F1
BD826832
3DA028F9
BE03634E
BE0DA0BE
3DA5DB56
3E2AE6BC
BD31707B
3DA5B164
BDBFC57F
3DA24B3C
BDC70287
BC5EBE47
BDED08B0
BCC31452
BC2A9EDA
3D785D2F
3E05AE95
BD049251
BD23013F
3DE03AAF
3D31C45E
3D057123
3D465775
3DECB7A6
3DBE0EF3
BCE4319E
BDB989EB
BD503438
BDB224BA
BD51F71E
BD819902
3DA3A7B6
3CABDFD8
3D8DCAFA
3E765AEB
3D7B4EAE
BC31B732
BD8F07B7
3A976DC5
3D022F9D
BD9C030C
BE30D5CF
BD31D31F
3CBDDF3E
BC9CCF19
BD4147B9
BDE6E004
BCB85597
3DE29E90
BDB1B8BD
BCAE6F39
3DB2055B
BDBE2C8D
3C5501F0
BD64BB41
BCC54CB1
BD8FD597
3E1C28DD
3D84AB3B
3DB51D45
BDDFAAE4
3D85C3B7
BC336177
3E25F1B9
BDC44D3B
3E34B818
3E279090
BCEDE180
3D2FB1E4
BD273A01
BD4CF30B
3E32A533
3E2170AD
BD9F4A37
BE04F03E
3D940FC5
3D60F51B
BE0E07F5
3D99EABE
BD384BA9
3D2972E8
BCB9A685
3D02D1F2
BD02490E
3D105C0E
3D804760
BE1B727A
BC591BA5
BB8D4375
BC578A56
3C71174F
3D50EC1C
3E4E3D71
3C3037F6
BC509D7C
BD95D4BB
BC56C447
BD34D1C4
BE250D21
BD0B6CE6
3D9F37C4
3E03DA66
3D7A38D1
BDA76E7F
BDA22647
3D933ADC
BE1FDF80
3B9B5383
3C8F60CB
BC9C527C
3D4FE6DB
3D17EFCB
BD65D6DA
BDA7A373
BDBC2AE0
BDB9EE46
BB6758EA
BD177120
3D19F623
3E0D1D2F
BD5EF4DB
3DA9D3EB
3D86279C
3DCD3CD8
BD3949DE
3C05DDBB
3DA6D83D
3CE77621
3A173917
3DBD2328
BB9BEB99
BD687D5D
BC2836D6
3E137B14
3D6F3956
BDF6B486
BD2DBBDD
3D598588
3D5F1B1B
BD139D03
BDCFA697
3E04034C
3DD7BFDA
3E1CB75F
BD849008
BD8E3A22
3DC353AD
3DA4A120
3D39B515
3D8C3C64
BE276299
3DB25843
BDBF343B
BCA7FF1D
3BF3416B
3D8ADECD
3DDCBE82
BDC9D2A2
BC5C72E8
BD90719A
BE2E980C
3CAF4512
3CEC89F1
BDAC6DD5
3C55FDAE
3A0DAF00
BD243EFF
3BEA159D
BDCB3B3B
3D706B83
BD412FDB
BBBCF513
BD62689B
BD6FE078
BDC911E3
3D850F89
3CBB0F6B
3CCEB671
3DDEB9D0
BD66A5B7
BDF77DAD
3C8A87DE
3DCD00DD
3BE8AE2A
BDDD1E17
3D916DC8
BDF6A792
3E162ACA
BC033D82
BC8CEB05
BB44A663
3E4B06C4
3AD882E3
3CBF4E6A
BB2B331F
BD670106
3D815A06
BB8E0450
BDC0D29B
3CFB0B3E
3DA3C575
3D29EF5D
3DA25257
BD7D70DC
BD16ED0F
3C82F5BE
3DF1D865
3CE3420A
BE0CF87F
3DB1AF35
3DA9AE81
BDBAE272
3CFA3E1F
BDFAF515
3CE340A7
BD8A0BE5
3D9DF3A3
BDB702F5
3DACB60A
BD73CC58
BC01D0FB
3E123291
BD94034A
3D4CEEAE
BBA7FB9D
BD6FC909
BC6E82F5
BCA19734
BCD0A5D5
BE038260
BE0C0F8F
BDCE6C05
3E1E7D0B
BD02F23B
3C6C6CC5
3D17D7BD
3DF5A69A
3D052927
BCD646F4
BDBD13BF
BD6697D4
3D95DAA7
BD4BC784
BC0FA458
BE26DF35
BE636CA7
BDADA4E4
3D66B9E1
3DFC28B1
BC89E79B
3D202CE9
3D19D990
BDA21E67
BDE4715F
BD4E9265
3D938B50
3BE91151
3E18BC4B
BD2BBEAD
BDB8DE95
3DC52B86
3D8E6D0E
3DA443DC
3C0AE704
BDAA0023
BD83D709
3DB895B6
3D2AA3BB
BB0D3EED
3DA89BC5
3D423D8D
3D9FD8EB
3DC2655C
BE1EEF0E
BD324E2E
3CA983B7
3C8EAE5E
BE24A20B
BD975597
BD4DBEBA
BCFCE5D4
3D2DEDFA
BD0E5F49
BDD4364F
BE1110BD
3D54E420
BC9F91DC
BE136228
3D929948
BE028AFC
3DEC9A59
BD1F731D
BDACBEBD
3DAED5C0
BD8165D4
BC682DF1
3CA3356F
3A597B87
BDB9770D
3DC77BEF
3D892132
3D9761CA
BD83CA8C
BB992759
3CAA3CB5
3D64EB31
BBDDA664
BDD63A93
BDD37910
3E251980
BDD1AFED
BDBC96F3
3D358AB4
3D609257
BDE8231D
BDB78B22
BBFCC690
BD136743
BC82F4E7
3E24B92A
3C9009F9
BE0DC679
BD4FED53
3CE8456E
BDD499CB
BE0C1EB3
BDAD55C8
BB0BB8DB
3DCF67B8
3D9A49E0
3D9ED66E
BE150454
B98C6224
BC93A26F
3E1FB895
3D488C36
BDB9C295
BD237F7C
3E025BD9
BD6A3A53
BDC3BBDA
BC0A7006
3DBA8EA7
BCB23A7A
BD91A4B8
3D9AFFC7
3CAFC6E2
BDABEC9D
BDF5E54F
BBF08C70
3A3A86A4
3D88DC37
BE02DD0D
3AF10AF0
3D08E95B
3D1BF44D
BD6CE5C2
BD9BB9A9
BD0DB83A
3D2A8D5D
3DF6BD4A
3D99ABE2
3BF465D8
3DED9911
3D454EEF
3DB96EB5
BD63F860
3DE746FB
BB26B15A
BC4726D0
3D262E38
BE0BF41A
3D6FDBBB
BD83AABA
BDA1FD92
3D1E35E1
3D6D9B0E
BE40E587
3E1F80F9
BE0760BC
3DD62D7A
3CC6EFB9
B96C844D
3D071F51
3D243B06
BE1D8916
BC76AC0F
3E3943A6
BE37A22F
BD100BFA
BDAA69FE
3D738C72
3D1EF622
3D6896E5
3E156D6F
3BBF8E0A
BD773FF5
3B4FD718
3D68B992
3D1321D3
BD100BAC
BE17EC58
3CA51604
3D47D300
3CC942CA
3DBF5B6D
BC65998D
3DC49247
3DC3811B
BD2C1A02
BDDCACB9
BDAD77D9
3D03F9AF
BD5EACEC
BD9E10F4
3BEEECC8
BD06E63B
BDCA9CAF
BDE6D8FD
BCA793D3
BB97F43D
3D78AE55
BB049276
3DECC772
BD9EC777
3C374CC8
BB4579F2
BDA78A7C
3D99981B
BD1CCDA9
B83DD58E
3CC2ED70
BCAEEBE1
3DE4CC26
3E20BC0B
3DAFC71F
3D54012C
BE21F717
BC945470
BD8AED26
3B997862
3ABC0123
BDF2EFDA
3C8409EB
3D72E111
3E114B2F
BD08DC12
BD5BACDC
BDD6B8FC
3D0A7795
BC7DD0FC
3C83D0CA
3DBDF852
3C75AB73
BE2E8ED4
3D86BDC6
39E31F1F
BDF390EF
BE38D277
BDFE9F84
3D4AD2E2
3D767568
BDCB31CA
BD2BDCEB
3D83EC1C
3E10A695
BC63105B
BDB82EDB
3D876D72
BC48E06F
3DAC8ACB
3E0BF097
3C262AF7
3B8117D8
3BCAA580
BDBCC812
BCBD253A
BE0CA3A2
BDD2AA39
BD253795
3BDB5236
BDC787FA
BD554FD3
BE0A5153
BD19BF31
3CB948B1
BE093DE4
3D8A0F7F
BD86641D
3D10B3E5
3DE9CDFA
3BD51D13
3D3CBC44
3DB4800B
BC6B1E1C
BCF4A833
BD436D3A
3D382DFC
BDB5ADDF
BE560C0C
3D7F72A4
BD23B081
3DE33213
3E00865A
BDDECE5C
3CB2D2E6
3D45D98E
3D24F01F
3CDE56B8
3D4E4487
BE08DC51
3CA0B97E
BD0F6F67
BE02E6CC
BDA764CD
3E222166
3BFF0670
3D260D38
3DAA320F
BD80FB24
3DC40FAB
BDA99E83
BDA88E8B
BD512DD2
3D9C1499
BE0307B9
3D220CFB
3C0DA0B2
BD212369
BE002E82
BDBB576E
3CF1CF15
3CE0263B
BD9DE3E4
BB32CF76
BDD8E7C6
3BDCE2C5
3D7F2A85
3DB1DEAA
BC404B6A
BCB49B9E
BD5AADE6
BDF15B67
BDACF945
BD10F75C
3C2CF353
BD86BD74
BCF98CFA
BDAC20D5
BC845A7D
3D806424
3D53176F
BBA88671
BD9C4894
3D87BC61
3E195FE9
BD7338D7
3D08A624
BDB83A77
3CD2BBE5
BD1AA0B3
3D9965D2
BDAD618C
BE16802D
BDD8EA5F
BBF771BC
BE018399
3D5389A8
BD523448
3E318350
BDA79DE0
BCA05555
BD2DC86D
BDCF239B
3D8CBD2A
3C27E663
3C52D255
BD515E47
BE2944D5
3D5FFF52
3BB3B712
BAF9482B
3DA84136
3BEE4B22
BC4830B1
3D8B2608
3DA2FCA7
BE4CB7DE
BD2788DE
3CBEA120
BDBB1766
3DDABA51
3D54F1DF
3E05D6E4
BC9D1A4D
3CEBFEB6
3D03C61B
3E0921F4
BD90AAA7
3C9466BF
BD79CF01
3DBBC1A3
BBD3C829
BD0117D0
BB685E4E
BCBBB665
3DB4403A
BD868833
BBB2DF7B
3D77A0C6
3D97D897
BC57980D
BCA05550
3E085209
BCAD54E2
3E0E0591
3DCB584F
3CC8FB1C
BD250CC2
BD9F36F6
BD951E33
3B183A9F
3DA25C79
3DA5B4BF
3DA9BD88
BD785587
3E0CE459
BDA6CF90
BD243B8C
3CE52086
BDF4A4FA
3D851815
3DB2DA3D
BE6F6F67
BE51F9DF
BCF044BC
3DA43EC7
3DBF5C01
3C9EE385
BCDD10DD
BDAD38FF
BC3D49C2
BD858894
BE14D388
3D593D36
BE0C6E1C
3DCD1B7B
BD1B5EE6
BE0E561E
3D96AC52
3BCC04A6
3D207D79
3D6564C9
BDAEDC30
BDEFE38D
3D09AAB6
BD679256
3DC9165A
3DE0BF78
3AEAF252
3D6C2AA3
BD4B6204
3DD9610E
3D8E2406
3DB42599
3D7C9A45
BCD36A40
3D307DD7
3D9BE3C4
3B193774
3C000040
3D462C2C
3DE3EAC9
BB297CBC
3D3599B5
3DBC4269
3E0A5D78
BD5CF084
BDAC4960
BC2B6081
BD213732
3DC1570D
BDAC9D91
BCA472B1
BC9AAA40
BE59D85A
3D871097
3D3572C9
BD6068F1
3DCCB2B6
3DC8283D
3E14915A
BD1574D4
BD7F13F4
3DF89F9F
BD6CE487
BDDBE802
BE17709C
3A7126C9
BC23C105
3D9859A2
3E489F2A
BD5A8702
BDB5EE17
3CE110EC
BDA6FDC8
BDB20BB5
BE52E68E
3D4F94AE
3DA35DC4
BE0BE810
BD3DE289
BCC810E6
BC80D776
3D80891A
3D99CA7D
3D544046
3D9020E5
3D2BE376
3CE67EAA
3E0FF1E8
3E19998E
BD886D4B
3D52583A
BD879E38
BD92C0B2
3E31E0E9
3DC40AE4
BC04E908
BD738830
3DB1DF6A
3D8E7CA8
3D97C91F
3B89A5C6
BE078619
BB7BD650
BE059E89
3DEA72EC
BDCAD1C8
BE5211F4
399A5B0B
3E194636
3DA2DCBD
BCDD7577
BA4EF71F
BCFD68B1
BE298258
3D662DB1
BE02B06F
3C252513
BDCC9F22
BC05DAE0
3D7B35D1
3C38D6F7
3DD50157
BD9C2902
3DC1D981
BD01632F
3D01B029
BE0A3966
BE4AA372
3AA4BD8F
3D021D01
3CD5CAB8
3D7AC6D6
BE854A2F
BCCEE012
3CA4EBB2
BDD6435A
BDC5C24E
BE15F6D4
3DAF6242
BE00E102
3C88BF5C
BC26529A
3D556A50
3D07065A
3E56A900
3CA1D197
BD951C0C
BDF475CF
3DF8CC9A
3C6DAADE
3C8908DD
3D51E95F
BD4F0A4C
3D0A88B8
BBF1F34D
BDDA3118
BCECE95D
3D759B50
3D1CE648
3D278AD4
BD72A5A7
3E823BF5
3E49E478
3D0D9047
3B988BD3
3D829F71
3DF78387
3D001F1A
BE384762
BD4724FD
3CF58EAD
3DB47D37
3DDF3C9E
BD805F2B
3D997D79
BD12F909
BDB327A2
BE284581
3D31F042
BC094F1F
3D7107CA
BD704293
3E2AB6B2
3CAD68CF
BE05669C
3D0CE38E
3D652FC0
BDC3C2CC
3E26C7AD
3CBEC553
3E1D1FD5
BD04AFC0
3D021C1F
BE01FC71
BABCAA40
3CA0B23D
BD81E456
BE200A5D
3C71E62C
BD6AD0EF
BE1FF7FF
3D96ABC9
BD633FC8
3DE255C6
BD2A45D7
3CA28937
3E21395D
3E202799
3CA35D22
3DB5FC7D
BDAAC75C
BD98E75C
BE9BB3C2
BC0690E9
3D977784
3E664B3E
3CFCBB17
3E05CEB7
BC4FE114
3DD87AC0
3DC07A55
BE00A79E
3DA3F657
3D70A389
BCBAB6B0
BCA47C0B
BDA9AB8B
3DB3BD7C
3CD0CC2B
BDD036E5
BDB8B6DF
3D2E8833
3CEE6B68
BE068024
3D12DE47
BDC11024
BD13E7AE
BD1CAB27
3E2F5260
3D82872A
3D91DF20
BE0D0F06
3E9235AD
3E08F4FB
BD9A3A78
BDA1E4FF
BDCCA02A
3CE25463
3DB1CB5F
BCF5D77D
BD538A00
BDFD2BDD
BD42C458
3CDF4FB1
3D0F4280
BD13D07F
BDC55A41
BD9C6857
3D9F3192
3D2D8C05
BDD9B8BD
3D8A84AF
BD65FE92
3D1A5D61
BDE449B0
3D1FBC38
3DF8E2EF
3D81F5A8
3C7762C3
BE2D055D
3D030A97
BDE7040E
3D39ED6F
3D8FF9D3
BCBD83BF
3D25F159
BDA3D551
3D7005DA
3DCF517E
3DF5F05F
BDE5BF40
3DB1C40F
3D335DC3
3DD5A9BF
3DDFEE87
BCC95F4A
3DA32215
3DD0280A
BD9FEB81
BDB747CB
BC8AF0B4
3DBFADB4
3C31798A
BD0134D6
3D800E5F
3CDD7475
3D504AC9
BE026861
3D44B3C4
BD28DFA8
BD8D94BB
3CC5DA2A
BD81D234
BDB1C8C2
BE1D7D0F
3D513DC5
3DEE6C07
BBBC8C63
3DC76AFF
3C912E30
3DD89266
BC3ED390
3ADCAC3E
3C875F2F
BC8312C4
BD10761D
BD8FBA1B
3C63C08F
BCDBDB28
BD086628
BBC0D218
BD8C6193
BDD5DEBE
3DBD23C6
3C7901F4
3BC1C939
3D163C7D
3D34784D
3B74E9CC
BD8CE3FC
BDD6C810
BDA14AB7
3D0A1720
3D88F346
3D78EA7D
3DEAABE0
BDCD029C
3E06BA01
3D82E69F
3DB474A9
3D82578A
BDB0B9AB
3CD094FE
BC3A6FE8
3D32F426
BD7ED75E
BDB69D76
BD83940D
BDD1288A
BD529840
3DD712D1
3D270A2B
BA92222C
3DEE6908
BDB7A3CE
BD077E19
3DC4E6EC
BDB5DB4D
3CEE06E9
BDA58D41
BDE028F4
3CCB5335
3B2A7B94
3E013AA4
3D71F4D5
BD031B1B
BDB403ED
3C776014
3D916C01
BDF98C19
BDBAEB09
3D0840AC
BDF906A8
BD843D68
3DD1E81E
BC144074
BD7972E3
BDDE6FFD
BB6773ED
BD150C6F
BDDC1E3A
3D816A75
BDD767AF
BD80588B
BD931E59
BDAC2CBD
BC3CCE9D
3D58A210
3D43FE0F
3D3D5F06
BD484DB4
3D05A754
BDBAE354
3DB5107C
3D8AF9E7
BD97ABFD
3D17C1E3
BDEA1306
3D6BE869
3D3BE78D
3D1D092B
3DF10E59
3CBB4967
3DEDF1B6
3CE4CF52
BD9483CE
3DB8991C
3B633747
BE4F461F
3D850BE5
3E2EB367
3D822720
BE3BC530
BD993E25
3DE318E8
BD826230
3D43C08F
3C58147F
3CD9D6A1
3D9F3FCE
BCBC72C2
BC1A9CA4
3D498C4B
BD84380F
3D39E745
BCCD3E1C
3DA31236
BDD02A3D
3DCF43D7
BD61C949
BDE50F0E
3D840820
BE03C309
BC26F25D
BE01E388
3DA3AF90
BD381CCF
BDE5EC09
3B3A8C03
3ACAAE8F
BD939E98
3B320952
BDB70F20
3BA6C175
3E071DEB
3D0A4992
BD227583
BD46E34C
3CAE5883
3D9DF4C3
3C8FDA3E
BD12C755
3DBAA713
3DF989F1
3CB990BB
3D8EC487
3D64AFB2
3D6B4754
3C5D120A
BD423F85
BBA71A4B
3C0EA66C
BD0E30F8
3CB5C4BE
3CB1BBD5
3D84D095
3B9BAC03
BD8686AC
BD3DF602
3D0F6688
3C8BD7FA
BC8A5AC7
3D8E11A9
BD20A577
3CD3D9FD
BCF24B1C
BCCFF0E9
3ACDE0F4
3E082E5C
BD33EAE4
3D5C97F9
3DCB65DD
BD9F2408
3CBAFD6C
BE044E3C
3D8419E4
3D717BF1
BAF71EDB
39BF063B
3D541508
3B794628
BD8728B8
BD1A0B97
3D58CC95
3E2AFAB4
3D313BA4
BCF73BAB
3D2DC413
BD5B30A6
BDAF7ACE
3D2EFD87
BD83B114
BDB0F18D
BD87823F
BD82FC92
3DBBACD0
3DF30499
BD0AC4D5
3CAC2248
BC858B55
BD74440A
3D9379C8
3C8431BE
BC391139
3CD4BAD8
BD53532C
3D9DDAEE
BD8EF4A0
BDDDA9E7
B9B248BD
BD0378AB
3D068ED8
BE615284
BDA13025
3B1E2C7B
BDAACA7C
BC4DD657
3D8B0BE8
3E0BAE43
BC1DD33A
BE17EF8C
BD581BA8
BDA2505A
BE1ACC70
BD479888
BCA031D9
3E407EFB
3E842E44
3E1C4C95
3E0AD2C4
BCBBD2D4
BD20715D
BE54AF00
BE0F0930
BB05A4F0
BD68C1D0
BCC8DDEA
3DA13326
BE3194E6
BDF3CDDC
BDEB0742
BD20627E
BC900846
BDA7DF81
BD791825
3DD6C82D
3E1E8B81
3E08419A
3DBCE141
BE4A3B0B
3E006BEF
3DA53BC5
3CCE4DBB
BE311D39
BD93A099
BEBFC8DD
BA71CF3B
BDF54BC8
3DED4F6E
3D8C7B8A
BE2C9378
BE3837AC
3DD5C6FD
BE1E965C
3CE7A47A
BD18643A
3C627F31
BDC60C26
3C34732F
3D1B22B6
BBB9DAC2
BE1C5E84
3DE78297
BE80450E
3DC93340
BD2C8110
BD5700B8
BD980432
BC8E7879
3EB6890B
BEA8300B
3D3F5D60
3C64710E
BB7A5BFC
BE1B1FBE
BD62A1BB
BDC01ED7
BCC7AE6A
BE7CCF0A
3D39A139
3DD8C3AB
3E175B85
3D9209D7
BD6A0B95
3DEEFB9B
3E3210FB
3D28F0F8
3DDDF6CE
3B676E8F
BCB5DF65
3B8137E3
3E80C444
BE1F2E9D
BDC2F426
BDD1EA0F
BE803707
3D41BFA3
3DA7DC22
3D8913E9
BD0CF503
BC6C2598
3D1471E5
3C4BCBB0
3D678740
3E7DB341
3D93F9E5
3D06FA22
BCC3BA44
BDD0496B
BCC8B7CF
BDDC834A
BB5B809A
BD64052B
BDFCE1C6
3E1A5B1B
3C23561B
BC61D06A
BD237685
3E28BDFD
3AFE6F87
BE367749
3E7236EF
3E0CB8E6
BE2CAF66
BDEDA37E
BDB4B914
3E0A484F
BC77B3AB
BD966B29
BD780753
BE4D0EE0
3D4814C4
BE762333
BE0E12A7
3E03D7BC
3D996F55
3E2D971A
3E2D1ED5
BD8756DD
3BA4042C
BD05720A
BDDE3DE1
3D698ED5
BDB984B1
3E0444D1
BD91B331
BDA3B0D4
BCC603E0
3D36BA29
BD909D6E
3DED422D
BDC06BE1
BD951A74
3DEDDF5C
BC8A1DFC
BE04E66C
BDC07EC7
BA6D6FDB
3E963286
BCB6189B
3E0C925A
3E3D89CA
BDE263EF
BE59162A
3E1BC71F
3D137F81
BC919F95
BD365FC9
3D01DB4A
3CD85BA7
BE79A597
BC8EF4AA
BC849C6D
3E209DB7
3D041D29
BD9C6BC0
BDDF8687
BE5DB064
BC86671D
3CD581CD
3D35C04E
BDF3367B
3D524B7C
3E3DAEDF
3C844748
BCBA63B4
3C6CAF40
3D8A6C2D
BE48F8DA
3D460210
BE3DC7E0
BDB249A9
3D7D4372
3DEB13DC
3D746B44
BD2AF541
3C41337C
BDC32887
BE14AC14
BD9B557E
BD8F5795
BDBD4851
3E3268A5
BD761F6F
3DF2788E
3E4BEC35
BD710B6E
3D861127
3D18F189
BD83E1B8
BE47CBF9
3BBECD30
BE57EA18
3D20B09F
BD8E7415
BB8380FE
BD918163
3D9098B6
BD5FA32B
3CC09373
3D983687
BE016864
BD6CAD9B
BA08F303
BD786351
3CC57B14
BD6C706E
BC580479
3E4D14E2
3C98DAB2
BC8F6FB5
BD00F063
3C92D8A5
BD2B3172
3C1321A6
BD24E21A
3DC7A0F4
3B675087
BDB1585A
BCF93622
3DC28DA3
BE2D0666
BD32DCDC
3E00D9F1
3CC962D5
3CA98D62
3CA12016
3D85BF40
BDAF0BD9
BD5282DF
3D954B0E
3D927680
BCB3C920
3D82068D
3ADED38B
BC26D308
BDA5D591
BDB6B1FE
3CFD063B
BC9268B3
BDB8D539
3D1AF2C5
BC85DF98
BC7E4C21
3DBC2DEF
BD7FE24B
BC7A4784
BCF717FF
3E38DE0E
3DBD2C09
BDBB362E
3D36E895
3BC555F5
BD8FA4D2
BE73FBFD
3DD8B69D
BCF541CB
BE259CE6
3CD7344F
BDFF4D1E
3C867027
BAC3AF6D
3C30004E
3E1BFF87
3D9795C5
3B931AFA
BD80920A
3E0B0BF1
3C8DFDAF
BC301B66
BD1BF7F6
BD8D9A6C
BDAD429E
BDBC587E
BD8C5140
BD4378F6
BD856E47
3D16CFB8
BD45808B
BD1C1976
3DA11115
BD2D953C
3DFDF539
BC287966
BD099A5B
BDBDC061
BD982391
BC1C4200
BC745F38
BDAFD4A6
3E2E5683
3D3A9A3D
BDBD81B9
3D999A5C
BC8C9B7F
3DDD833E
3B25DA1A
3D967760
3BC6C70F
BD95A181
BDFBBA59
BE082084
3DA0F7B5
3DD71258
3D6CB5DE
BDBBA21C
BCD37E62
3D78828E
3D0DB187
3D7D2EDD
BD5CEE8B
3D00F7CA
BDCAF9C1
3D8AB6E7
BD5EFDF2
BDAAE06C
BDB74245
3D688463
BDDB5FBD
BDD949B8
BD532993
3D7C46D8
3C145867
BD664E43
3DDAE58F
BDAD2F4E
3D828444
BDEEB450
3C98C93F
3D973311
3D8A1575
BDB0F268
3D5297F3
3E19A5EB
BD3BCBAE
3D9EC8F2
3CA9FA95
3DA3E4EE
BD4BD8D9
3CB1C47E
BCDA027B
3E32873F
3DC851D5
BE14C559
BD83A06F
3D8759B3
3E432223
3DA503AF
3D0C3E19
3D8365EF
3D4C2700
3D0FD71B
BE02C760
BDE320AB
3D853633
BD9AB822
3B842FE5
3D6036A7
BD93E5AC
3D7A7FD1
3C956AE6
3CAFA48E
BC9BF696
BE171A4C
BCA179F3
BC0F18E2
3E239582
BDA9E378
BC44C3D4
3D126DC6
BDC160E5
BDB338B9
3DC20475
3DDF2922
BDC213ED
3DCCEBB4
3D44BA0F
3DB47988
3CEC1A90
3E340283
3DC2A0B9
3DDEEC08
BD95D1C5
3D128927
3D5F2620
3DA305FF
BDF20D9F
3C449B5B
3DC8B186
BDCF464B
BCF3539F
BE491B33
BDBFDABD
BD74764F
3D21D4F7
3DDA1132
BBCDB311
BE24E97F
3D8F1527
3C30BC40
3DFF853C
3CDA2FC7
3D4BEBAC
3DC42385
3CB4E789
3D74BCD9
BE409C5F
BDB33A01
3CDFE57E
BD36EB7F
BE2B6F3D
3C49A088
3DE6C1E9
