3E4A4FCE
3DC928BA
BE54CD03
BDBCCFD6
3DD288BE
BE0AF3DF
BE77EB60
3CE28A8F
BEA6F061
3E0AC4B6
BE81E50B
BDFF29B3
BE0EEC79
BBB9D005
BE910CAF
3E7B6E3D
BBB30C06
BDB01724
3D0EBBBD
3DAD4EBF
BE4FACB4
3D452F92
3D9099CA
BE68A425
BD08FA78
3DEA3FCB
BE78D8F9
3E04BC92
BE7BA5EA
BCDF6AE4
BDDB6FAB
3DE6E06C
BDA20440
BDC437A3
BCFAFBEF
BE5A14E1
3E2552FC
3E3306FB
BE47FA97
BDCB8C5A
3E77619C
3CB3EBE0
3D019FC8
BEC798D7
BD6FFB10
BE212481
BD58FD07
BEA8B157
BE21E2CE
BDDEBA59
3E73FC0D
3E202131
BE8DB107
3D803842
3D9E96B0
3E8AA263
3DD87C8A
3D7B595D
3E55611B
BC15B330
BDC20C5D
BD5E0BB7
3CB464CC
BE7D3186
3D95195F
3E2C8CBA
BE5964CF
BDB24AF6
3E9EB74E
BDB93431
3E62D2EE
3E973DFF
3E9C1222
BE6ECE1F
BE91D621
BC2AD7AF
BDD42EA7
BE39925B
BE9B742E
BDAA7300
3DB69223
BE000B82
3E766DB5
3D8D5B17
BDA6417F
3E4BC5EE
BDDAA2EF
BDF80BFA
BD4B48BE
BB251EDE
3DC1357B
3D1A073D
3DB0EB08
3E7512A7
3E1FFA33
BE24B2FA
3DB0364C
BE9D600E
3E015801
BEBD78A5
3DB67E1E
BDE30651
BE839C3A
3E8714AA
BB027F77
BDCBD8D0
3EAAC754
BE151DED
BDF50784
BE087448
BDCFAB19
BE94D038
3E7731A6
3E1D32CC
3E655656
3B306B6D
BE64F119
3E63969A
BE84EED4
3E9BDB81
BDD3D68C
BE9DC1B9
3E00DC55
BED8F698
BE34C92D
3CA41599
3E0DD65B
BE4928A7
3D8F513B
BD58B9EB
3C0A1522
3D97FE7B
BE1C7209
3E40B72F
BE617BD6
3E1C8BA3
3C271C8F
BE919FA0
BB67F9A4
BE0E137E
BE71398A
3E98D36C
3C31DB2F
3D88E894
BE343699
BEA7384E
BF1AD281
BD037F56
BD7B3766
BE264355
BD339767
3E893639
3E7087B0
BDC65170
BD3ECF4E
BD8F8C7A
BD6EAFC1
BC419597
3E84B952
3E1DE8EC
3DA3E2E1
BD9510D6
BE3152D8
BEB5EDAA
BD9AF6BF
3DCB7D1D
BE4B1C23
3E54A593
BEA2C740
BBEA452E
BDBFE240
BD686115
BE8FF179
BDA7A0B1
3E601B36
3D95F2FD
BE153E0E
3E8D52F9
3E2D2B3A
3E43F9F2
BE722A74
BAEB1288
BD003F63
3C8CF8CC
3E549FA2
BE339FD3
3D9CDCA8
BD4B52FD
BD9778B0
3E84A56B
3DFD0A7A
3E831270
BDD9E792
3EEBD0D7
3E23F286
BE8073B8
3E74B5C5
3DDC6891
BDE0E580
BE191B28
3E4BA7AE
BE1222FA
3D62EB14
BD8DD141
3D79BAE7
3CA7B7BA
BD9F8894
BDF3A09A
BE8C7A90
3D10DD65
3C428434
3EA7FAE9
BE376E82
BE3B5E77
BD835A6B
BBD1DE6F
BDB4C0E9
3E1B0009
3E741658
BE972FDB
BE0B45FE
BDB89F18
BD9F93F8
BD690DFE
BEA6093E
BACD4848
BEBADC53
3D54758B
3E8B4301
3E966B7C
BEB08357
BDE14C28
BE5A5423
3E725904
BE454F97
BDCD946A
BEC1A5D0
3E43D384
3DEF04BD
3D0F8FFB
BDA4336A
3E92280D
3E78A024
BE59BD9C
3D4318A9
BE3B5154
3E6EC6BE
BE31CFD7
BDE156FF
BD636301
BE184CB5
BD0A1EED

