3E2B1D7C
3E2E10AC
BDFFDBA9
BE2072AC
BDCAD4E5
BA1C1F5B
3D3022CB
3D41CB9F
3D86B456
3E3E4476
BE43CACE
3E5CA726
3DA6A732
BDEAE321
BD288C39
BDE116C0
3DC8E13F
3E7AA9A0
3B213E7F
3E5FED79
3DD036E1
3D41DD3D
BE668ED7
BDD7594B
3E5687EF
3E8E9922
BDE06727
BDA51266
BDCC173D
BE6E2DC3
BE452A4E
BC928655
BE3249B9
BE22EB4B
BE54B7BD
BDBD159D
BE8DA0F5
3E48003F
3D0EAA32
3E45D2AB
3E79007B
BDE939BC
BE8919D5
3B65BA5A
3D51CE94
3BA3B4FB
BD7C93A2
BE44E110
3E32BDDB
BE76D94C
BE5138CE
BD69E0F2
3C2357C9
3DE26287
BDC975BC
BD1E59B8
BDE7FC75
3E783470
3E304961
3CF1363E
3E1AF8DA
BDFD2BB0
BDC198A3
3B5E2D47
BD7C5020
BDD0DBF4
3D923850
3DEDA008
3E027D18
BCAE59AA
3E563505
BDE9C2B6
3CE15453
BE576626
3E75C8C6
BD77216A
3E6B2D00
3D4F25C5
BE834EAC
3E543855
3D91F2E2
3E00C3C7
3DEE0583
3DC40930
3D6E31DF
3DB27AFA
BCB922AC
3DF1B2B8
BCAAD785
BE727A52
BC826708
BE210BF6
BD58EAC3
BE404057
3E3C492B
3E3D3653
BE93EFEB
BE098503
3DC40754
BE0726BE
3BD1EBDB
3E18DFA7
3E39E45B
BDBF82F4
BE6AC39E
3DDE8D72
3E057D0D
3D59A98F
3DAF22A0
3E22E3F6
BD26D36C
3D4758BD
3E29505A
BE47F688
BD88CD55
3E36478D
BD92BE2E
BB547F1E
3E0FCF54
3E0C3018
BCFE792D
3E2004C7
BE286B3F
3DA52186
3E098182
3D49DE6E
BCF3175F
BE20DD17
3D937ED4
3DBFF9F8
BE1FECC6
BAA146B7
3D96E9AF
BDC6B975
3E45F5A3
BE7619C5
3CE08FE8
3D27AABF
BD0A84EC
BD1CAABB
BDD96ECC
BBA67EF0
BE5EE7F3
BDB9D379
3E838203
BD42FA5B
BE6CF2B7
3D90D395
3E08EF80
3D6AC89E
BE085AC7
3E4B2A6C
BE10E5C9
BC50BEDF
BD54BA2C
BDE30BB1
3D506073
BD1FEC0E
BE2E4FFC
3D17ABA3
BD9069E3
3DC579DB
BCBD52A7
BE1937E6
3C5F223A
3E130E51
BCEE40B5
3DD47270
3E30EDB6
3DD852A2
3D742EF4
3BF24191
3D799EF3
3D30CD12
BE1C0AEB
BD975E30
BDDA6A43
BC7A707F
3BCEA468
3DC2E6CC
3D860343
3C3BBFEA
3DED7E06
3CD33BC2
BE46A6D8
3E419139
BDCD0846
BE15A0BD
BD12DA40
BE11AE3A
BB3EBA3A
BE0179AE
3DBCAA61
BCFBDA41
3D0DFE25
BDEB8DE3
3E066B22
BDA33A61
3E057537
3E19944F
3DFF2072
3C9F013D
BE069068
3E3ED69D
3DF84444
3D1675E6
BE325599
3E27ACC3
3DB35D3B
BDF75642
3DA5A871
3C64539C
3B874A62
3D553363
BDC86D32
3DBCB47A
BAD43E5B
BD0CB390
BE001A7F
3D250429
3DA8BEB4
BD88A1B1
BE11AE70
3D36E11B
BE3BEFB0
3DDC162B
BD9A19EF
BDE81890
3E070816
3D82BF17
3DB8EF25
3E06E2EA
BD4D5DC1
BE869D3C
BE244DF5
3D9C9A2E
3D047E1F
3D936F94
BE02351A
BD84B4A5
3E343A9C
BDDDFF6B
BE487781
BDF787CF
BE1A884A
BD841567
BDC785D1
3D9CDD8E
BCE6BD69
3E1A9842
3E0C25C1
BE22FC63
3E130F34
3CD201BB
3CF67F23
3E033DA4
BD86A4B5
BE0C71B4
BDBDBAF4
3E2AD6C0
3DF5BF3C
3DF59A93
BDD5AABD
3CB74AB5
3DB2C2B9
BDA5E4E1
3DE93CBA
BC3B36E3
BD00DC39
3A805E8A
BD6E2F68
3C1DA87D
3E043487
3DB00F4A
BDD10E82
3D562284
3DD1F31D
3D4151C7
BB74F865
3D8BE58D
BE030227
BE03F324
3DBDC213
BDD022FA
3D586966
BDBB5AAC
3E119A16
BDA8AFFE
BD897B26
3DD786F1
3E1A5225
3E2F4534
3D802F9E
BCC00A01
3BCA7C50
3D850F85
3E14B0D5
3DD63028
3CD3E5D0
3C744A14
3C5A28AB
3D62E2CE
3D918414
BD656AD9
3DCADFE5
BD1468A5
3DA15C12
BCBF550A
BE27EF73
BCC60DB6
BE086492
3CF7B7A7
BDE9A973
BDA44C15
3DA008D2
BAE5CFA8
BD6D4A38
BE07A5F6
BD511D49
3E16DABC
BDC3EEDA
3D6D9905
BD955742
BE039346
3DA46066
3E0C0DDF
BDDDAF31
BDCE03F6
3C779A8C
3E1630C1
BDBB64D8
BC75544B
BD9BFB76
BDE88DE1
3D90CDFB
BE1A1ED2
3DC25A84
3DAC026A
3D4097E3
3D4DE8EF
3E51E553
BE0AA539
BDED4653
3E1892A5
BBBA4866
BD8FD801
3E28765D
BCB6E4D9
BE0CC9D2
3D4760E8
3E4069CB
BDF1364D
3D310990
BD249185
3D540820
BDAF1F48
3E155346
3D89C370
3DF65F67
3B784F32
3E289A90
3DD28E12
3E12FA38
BE627C6D
3E3AA6CB
BDF6BC17
BC8EC398
3E2653B7
3DBDE0B4
3CF9F265
3DD0D344
3DC66786
3E05591C
BE7028AE
BE1602C1
BCFC6D1E
BD13B425
3DAAC24A
3E49C03E
BDF9752D
BE3E953D
3C953622
3DA21A84
3C66822B
BD914DD3
BDC8E449
BDEDB650
3E4BA8E9
3DCD8DBC
3D29C101
3E5A9C41
3E071440
BDF65F58
3D6686B8
3E170D28
3E2B2279
BC74A6E6
BD5BF11D
BE347EA8
BD031EF9
BDB2ED87
3B2108FA
3DA1E959
3DC7F4B4
BE1AC701
3CC0D7D1
3DED42DD
3E2783CD
3E278383
BE22F43F
3C06AC0C
BD967133
BE18ADEF
3DA4D6A0
BE44CD53
BD41ABAF
3E06578A
3CF13D6F
3BD2CC6B
3C54D834
3D8FDB0A
BD952AB9
BC205C8C
BE654710
3E330B97
BE3BD912
3DC537E9
3D4A973D
BDBFE70D
BCA1B58D
3E21EC9A
BD562C32
BBE6A2B7
BE0FE12C
BC8D3924
BCFABE68
3DCA761A
BE5FE5D2
3E502F3E
3D11576E
3E90F0FC
BDD14936
BB0DB3DD
BDC591F9
3C9C078D
3DDC26FD
3E2398BF
BD4CCF89
BCA1256F
3E01A70A
BDDA4F63
3E591077
3D887396
3E3820F3
BE67A82A
BC9FEA20
BE6BD6FF
3DD98A13
BC3687FC
3CBCFCD0
3E070215
3C403B64
3D036DF1
BDB6A39F
BE0D4C39
BE99806E
BD9EFF8B
BE85A051
3D92D906
3DDF2603
3E385BE5
3E6E5B0D
3E2EFB64
3BF69508
3D1C05BD
BE072AD9
3D9AEB1F
BCB8C172
3CB0A4C3
3D37826B
BDDDDA82
3D705FDF
BE52403F
3D299CF7
3C418978
BDB97769
BDF9E18A
3D83A970
BD8B17F5
3CCAB17A
3D36F0A5
3C48B957
3E4492D5
BE3BDC72
3DC9E609
BD683AB2
3E7EA920
3DCAA1A6
3D5CBD5B
BDF5EB20
3E194FE3
3DF73964
BE1BC8FD
BE0DE9B7
3DB09041
BE92B32D
3DEB0695
3DA15D02
BE23AAAF
3D3E95A2
BD558D25
3E54665B
3D57B924
3E5D7E99
3DDDDD18
3E0EF8E1
BDC9172C
BE1ADE35
3DEA93AB
BBDD2865
BD646F96
BD451A3E
3D93AB73
3CF7C9B0
3D80F57D
BD7B7AA0
BE20E386
BE4110E2
BDA7E4FA
3D770C19
BD96A7AB
3C97E4B3
3DEC6A7C
BD9417CF
3E3E44D0
BE219C58
3DEBF74E
3D04555D
BE240743
BE7F21F9
3C6C06E4
3D4C3520
BD09119C
3DB3B728
3DA1FA24
BC61FB68
3E2F7AB8
BDA3D4D5
3D7826E3
3CA33956
BAECBA53
3D1FDDE6
BBAB7B2E
BDC74BE1
BDED4D11
BC2ABB80
3C05378D
BDBF83CA
3BD8C3A6
BCB52F27
BDC73207
3E6CD53E
3D341E5D
BDE857DB
BDFB1559
BE1BECDD
3E72C647
BE397C87
BE856D96
BEAA19F2
BE1DD09D
BE19B08D
BD569818
3DE63D8D
BE54C6E2
BE064A1D
3E748329
3DED110D
3DF62C4C
3CEDA6CD
BD51033B
3D56D1D1
BE2A77B8
3D89A078
BDF97DC5
3DACFB55
3E71AE75
3D40264B
BDC2A97A
BDB5D9A2
BDC806C3
BD691387
3D07A5C9
3E195E67
BCC1DFDF
BE139424
3CD496E1
3DBEF21B
BDD693E4
BD9E2C4A
3C349F04
BE1075E4
3E0939C2
BD2E2CCC
3D2A9651
BCE093E4
3D41E403
BD6757E0
BDD81F6E
3DED6F91
BE1DF892
BD91CEDF
3DEC0086
3CBAB9F0
BDDDEFC4
BDF0FD04
BD58C79D
3DB54E14
3E22BDEB
3DAE8149
3E24B14D
3DD12213
3DFFA48A
3E1A9890
3E162CEE
BE0630E8
3E0B8EB1
3DAA04C9
3E23C631
3D6C2987
BD41783D
3E0BF0E5
3E1ED569
BE19FD40
3CE20417
BE0CC10F
3C7C0E03
BC95E6ED
3D7648C2
BE30AD77
3DB71B7C
3DE46B1B
BDB4C745
3E26CC37
3E117A0D
BD6A92EE
3D38C490
BD265E51
BDF9DB61
3DF3425A
BE232F5F
3D732C7B
3E15E32A
3DEFB49E
BD8010CA
3DD3FA62
BE12B3A3
3D93BCE2
3DC7C890
BE0EFB2B
BE0DCEDF
3D86E73C
BD6594CD
3B4D2C18
BDCCBBC9
BD962F4C
3CF69390
BD5263F0
3E088452
BDDB1499
BE1BCAEB
BDE861F3
3E42F85F
3E0D454F
BDA75892
BD31882B
3E0D25BB
BDDA7848
3DC954CC
BE1693AC
BD9B2141
BD84FE77
BD4420AC
BDB4094A
BE03C3A8
BE22E2D1
BE328059
3DA736D5
3BE9259E
3DA6F889
BDBFE38C
3ADDB451
3DB81825
3DE82296
3E3577CF
3DDCC23F
3E181141
3D59BDA9
3DBA7222
BD8F261B
BDB48ED8
3D8C0DA9
BE09CDA6
3DDE2489
BDE663FE
3DC90ACD
3E7C2FC5
3DB86C33
3DF9EE1C
BE1625AD
BDDF306E
BD4411F3
3DB01F9B
3DB14DEB
BD4C42A9
3CF3EDBE
3D60B118
3E1F223B
BDD7B2AC
3E1D3CDA
BBFF41FF
BD381F89
3E301FF3
BE0CBB4D
3D315088
BBE35275
BE149D7E
3D3C7ECF
BD999F6F
BE641965
3D5DDC44
BDC3439E
3B33FAC4
BDD47CEB
3DF30115
3DEB5C07
3E227E66
3DCD2103
BD52F743
BC953ED6
BD399364
BC8155A6
3E4F90FA
3E0F5FAF
3DF67F19
BDE889F7
BE6DF6EE
BD824037
BDCD219C
3D3623EE
3E10A209
3DE72352
3DD23DD0
3D8D4E5B
3E22D57C
3DD9EDB3
BDA7C74C
BE2635E4
3D6AE902
3DF84366
BD6BF6CC
BDED52EA
BDD6255F
BE17EE41
BDB63525
BCDBC5A9
BDB58770
3D83DF7C
3D3ACD76
BDF45AA3
BDA41087
BCF04852
BCE77EC5
BDD6FCE2
BE148C05
BE1F7E42
3DD95079
3D2F3347
BDE77BFC
3E222B8E
3DB8AE6E
3E13547E
3C50B169
3DAB4A00
3DC27F48
3E283699
3CD0AFB0
BDE75766
BD9AC93B
3DE8564A
BDEBE3EF
3DF87D5D
3B0DBF71
3BCB332F
BDE0B96A
BDD1B488
BB8299F9
3D926593
3DB31AF0
3D07A8D4
BDD4E86F
BD3DD3E3
BE0F2AE5
3E1AB705
BC0309A0
BDAC3450
3D8832E6
BDC4C7B8
BDEF307D
BD1152F9
BD8DAB1D
BC9639FE
3DC0535E
BDC7E760
BE133A43
BC52ED43
3E063193
3C035A3D
3CEB4365
3E168E91
BC98F6F2
BCC79713
3DA52BFB
3D471FAF
BC81F380
BDF63446
BDE55A5A
BCC26FE7
3E1DF303
BD71E80F
BC4DD1BA
3D56E89A
3D52977A
3DF86AC9
3DB53280
3DE46655
3CC508DE
BCF7B79D
BDE8A300
3C8BC92C
BE4DBB41
BEDC04BD
3E794A4E
BDEFCA41
BD77EF22
BD5FCD2A
BD305B47
3DFF4198
3E4B364B
3E6258E4
BBDAF112
3E0862AB
3F0254B7
BD3BC508
3D1DFA4C
3D01CB9F
3C2720E1
3D728685
BE1BC5E9
BE240F7F
3E079078
BD12E822
3CADD2FC
BE6CA6B6
BA857A28
BE0C5E1B
BE2060CA
3DBABADB
3DFAD485
3DD81E7F
BE151D9D
BCCDA037
BE0A0572
3D0B4A1E
3DCC8A57
BE3C2FD4
BD05CDF5
3E30DE40
BD9216B9
3ABA829D
BE1658F0
BE07AA02
BC78EBFA
BE27C751
3E072123
3DD8E112
3E7D01E3
3D8CC1BD
3D03602F
BE0C38ED
BE3FD977
3C9CFAD8
3DBB4947
3D1EC9ED
BE17E211
BE650214
3E5A7DC4
BD706CE0
3E6E9104
BDEC8EFE
BEA2867E
BE2B49CE
3D0C2AB9
3BC859CB
BDF2B09F
3C1B6B4B
3D459A59
3E31FAB1
3DE859B3
3D3D40EB
BDD93BF9
BE4D09EC
3E85E8A4
3E5980D8
3E07F666
BE0AD625
BE17907E
BDD26D33
BD415D88
BD71C1E7
BE205684
3E68EC84
3DB1B5C0
3D806BCD
3E525B46
BD0ECAF9
3E303011
3E56093B
3E4EF125
BDBDA814
BD0CB2A1
BE01FB70
3B1840D4
BDE1AF08
3DBF9F33
BDE3CD05
3E163B9B
BDCF805B
BD095DAA
BC6A60A7
BD79999F
BE877C73
BE0773A4
BE0A8E01
3E32E2CD
3E119913
BD950541
3D9159D5
BDD6F772
BC9CABC8
3DDEBCAF
BE77E63E
3E0A328B
BE32FC6B
BC408A7F
3E33F319
BC271294
BDFFBA89
BDD3ECBB
3E04AA4B
3CDA3E1A
BC08233A
BE42B53F
3CE88BDB
3D969D00
BE326667
3DD9A9C4
BCC0553A
BD17CA11
BD641C5A
BD78AF94
BDC2913D
3E4D8CA3
3DB45150
BE015A9A
3C8BE180
3C86D25D
BDFDE386
BBA9755A
BE18129A
3DFB6D12
3D93CA2D
BE0BBA3B
BE175B3D
BDAA430E
BDC2EAB8
3C5325ED
BCCECB1A
3DC99D36
3E1F8A1E
3E0BEB56
3E2EDD54
BE61BB94
3D091F4E
BDBA1B81
BE83FF3D
BD263239
3E4CE326
BE0C4E3B
BD902B05
3E01D873
BDC4AAD6
3D83F70B
BD6E3862
BD5F9600
3E2206A0
3D575681
3B35E2FB
BDF02129
3CD7329C
3CE1CE41
3DED74D2
BE25D0D1
3DCFA2B7
BE1C027E
3E1CA42A
BCC1B191
BD154105
BE13EF19
BE676AE6
BDDA414A
3D8F7326
3E4EFFD3
3E243FCB
3E1D56C1
BD4E3EAD
BDA02080
BD2B998C
3E089C1A
BDA62C4C
BDC1545B
BC6807BC
3E58067B
3D8459E8
3DA15750
3C953379
BD67CFE3
3E2C5627
3D4428D4
BE009E11
BDA37182
BDEC161D
BE3794F6
BE48077A
3A920F62
BDF4A3FC
BE37F5BE
3E428E94
3E33AE8E
3E4CB6F6
3DE66431
3D82460C
BE21E1D7
BE78B341
BD84DCE3
BD5005B2
BE1BF8B2
BD9B640A
3E0EB0F1
3E7FEA79
BE11FCBA
3D53430E
3E32FCD1
3DAF4D87
BDE0FF09
BDDF4C6A
BDA91C02
BDE33F1E
BCBB07F4
3DDB810F
3E2D19F3
3C2574CF
BE398E45
BE3DFE5A
BD6A0A6D
3DE5A714
3DF37FA5
3D634C00
3C1F0A5C
3D660429
BE1F8612
3DE9C84F
3D6442A8
3E131A9F
3E39D93F
3E4A06F0
BCBD5DE4
3D49AB75
BB8354C9
BDD21AC3
3E11EA8E
3DAEB048
BDFB7C9C
BDC8214E
3D68587C
BD406CB5
BDC2BC98
3E413C71
BE2F0B3E
3AB94937
BE134D80
3D9892E4
3CB8D173
BD014755
BE1374C8
3B07E10A
3DE7A96A
3C6CB0C3
BDAC5BCA
3E617BB4
BE1ED4E9
3E089608
BDF2D42B
BDB56981
3E0419CE
3E6E8B89
BE1F59D2
BCF6E8F5
3D82E403
BDC0AF1D
BE2877D4
BDC2FD06
3BEC0892
3DA82EA5
3D833E4F
BE67080E
3D04E6C7
3DEAA2A1
BDBCECFB
BE349621
3DCA5576
3E1202C8
BD067AD4
3D6A2B47
3E28133C
BE10D22D
BCF2E144
3D926BC0
BE0EF9B5
3E8E7F80
BE4F322D
3D28E574
BCAE3D85
BA8027D9
3E1653DD
BDF9D967
BC259F77
3E2C99CA
BD8617DB
BDCCEB6E
BD54C4C6
BBBA5DDF
3D56E8D0
BE1657F7
3DCC3EF2
3DBAD7AD
3E3F4DB3
3AA7117C
BD95A336
3DC8D6D4
BDD76110
3E37DA0F
BC88BB90
3E292A66
3DF9E70C
3D24847F
3D816935
BE264491
3E0612E8
3E1AC438
3E419899
BDC621BD
3D65ACF8
BE8B2475
3DE55C54
3B0A009F
3E3A2B80
BE0F23A8
BE165074
3E0E5B69
3CA770E3
BDD2BB36
3D82AD2E
3D9FF37E
BCFC25E1
3DC978DE
BE0E9272
3CFC8638
BDD859FA
BE423477
3E3BE4DB
3DBC8D69
BE3CB9DF
BC097BF5
3D9193D4
3E059564
3D85DEFF
3DE44867
BE237BB8
BD1B1156
BE1A6A8B
3E34DB54
3E1B90CA
BE0524B5
3D815F62
3DAF0BA5
BD5DA2CB
3DF1EFD8
3D5716F8
3D219CE3
BD9027A6
BD7E955A
3DC9EE17
BD83DE46
3E1B209F
3D2D5B12
3DBB3DAC
BD943389
3E12087B
3D8B4E55
BE31BDAE
3CF67ADC
3CCA709C
3E53068D
3DFE697C
3D6142B0
BD9A0829
3DFCAB86
BE2B4A30
BD9C56F1
3D553320
3E25A00A
3DBB7122
3DD09831
3E568081
BD2C0CF1
BDB785CE
BE0CDF57
3C36F1DA
3E031C50
3DD5C04C
3DF0DDF9
BE0EF0F8
BDCAB23E
BD8232CB
BE08BFDF
3E10D1D8
BC9F738E
BDDE6584
BC2FE0A3
BD3CFEA9
3AB8E691
3D0C454B
3D998F6B
BDEC9B18
3DF06CA7
BCBAF448
BCD30779
3E23DD74
3DDEE1BA
3D8450D0
3D038ED3
BDBBB90C
3E4B9340
BD8ABD50
3E23196C
3D56BCA8
3DA28F43
3E1991F5
3E48E0D8
3DA4C93F
BDF99C4B
BD2BC31A
3E01B52F
3E6AF3DD
3DA779FB
BDBAB40B
3DA3479A
3E341B9D
BE12ACFE
3E4C54FD
3D881CEF
3E0D884E
BE1C4BA1
BE0A457D
3E6783D8
3CD42BC7
BCFD846B
BE1944F9
3E6A1433
3DEBF951
3DF32D64
3E614C41
3D9CB799
BDC4CF4E
BE33B398
3E0DD8EB
3D689C71
BD6B2FE2
BD0D2469
3E5E7D01
BD608B76
3D27572D
BE2BD71F
BDE94795
3C5C35AB
3DAAF4D3
3CB5DE74
BCD1D16E
3E32D736
BE2CC599
BD8B1A19
BE3BED9B
3D8893AA
3C36B680
3D41BC96
3DD97290
BD010BC4
BD20530C
BC81053E
BD8C37C7
BDEA6237
BC8A65B5
3DAFEBFC
BEA65A83
3D3D613D
BD99C9E0
BD90EA91
BE58951C
BDF911C2
BD32C9E7
3CD1DF71
BD58A7CC
BCE44D1C
BD688AC3
BCE69250
BE79059C
BD9729CB
BD49DC3A
3E27F5A7
BE5158E5
BDA34441
BDEE8677
BE41AA28
BDB2934C
BDB66AC3
BE4D655A
3DA59C60
BD969457
BE2798F7
3C885CA6
BE0A92B2
3DECCF01
3E370535
BBCF9CE1
3D9123BD
BCCB0CB4
BE0D0512
BDE2BFB3
BE63DA89
3E25EAC6
BD5CEFD5
BE652B3F
BD766C76
BCBC4BC6
BC44C1C6
3DCEEA3F
3DA683A9
3E0143EC
BE4EBDB2
BDF882BF
3DB55709
3D9186B8
BD3CB65F
BD9BA14A
BDB26157
3DA3BFA1
3E426B24
BD80A806
3DDF4EEF
BD934AA1
3E5D4EA9
BDA5E8E1
3E3E819D
BDAD3455
3D3AE051
BB9F4ED0
3E007E5E
BDBC22E8
BE4A6C20
3D502C22
3DDC6E0C
BE38CFB2
BE2614C0
BD9B5205
BE3B078B
3E5C6C6F
BE341EA4
BE0320B5
3E1EA012
BDC6F7CD
3DFBEDAF
3DC59B40
3D6E9F0A
BE0E8955
390EEE70
BC266D27
3E76F501
BCC62320
3DA0AB6F
BD1530A4
3C9E0DC8
3D535174
BDA2E22C
BC696782
3DEFBF6C
3E610ED7
BDB80787
BCB00D64
BE554B73
BE164949
3E11941F
BE0D9F75
3E0EB823
3DA5A0D6
3DED0347
BDAFB78E
3D6A5C42
BD83218D
3DA7BB7B
3E0AC7E9
BE5E6047
BE04F7AA
3E283C51
BD7166CD
3E12F16B
3E5B5B22
3DBA38B7
3D8AAB63
3D06E588
3E64F21F
3DCB74FA
3D225106
BD88FD5E
BD6F637D
BE0C4296
3E193577
BD813D7E
3E1D2672
3CE5A16F
BD920091
BDD51C1F
3E515313
3C8946C1
3D9D7606
BDC52900
BDA1C3C3
3E19836B
BD2C124D
BE1606B6
BE47A961
3E11E92C
BE39245B
3E0F8C03
BE95F8E9
3DF6325F
3D4FEB88
BC65913F
3E218AE9
BC2387BA
BC56E245
BDBB8DA4
BCC5E790
BE60382F
3E189A7B
BDB75E03
3D3CDB22
BE26E375
BE38E7E9
3B15CF0A
3DBC2AEE
3D8A4EEB
3E01F9D9
BE2AC65E
3DB442DB
BDD84A84
3DF5CFF5
3BF7F128
BE373447
BD7844D5
3D7C88B5
3E0FA49C
3E228A82
3E53D290
BE2099B8
3E1BE709
BE47E346
BCCF8610
3DA38909
BD36D0B2
3E5B47B2
3E11699B
BD801E48
3C944CB3
3E112842
3C06EAAB
BD8C1EC1
3E17FE58
3D5B0753
3E0F07BE
BE548D40
BE31887C
3D0790F1
BE0B7125
3DC2ADCE
3E1BB9F9
BD3DA8AD
3D6489BD
3D9EDBFB
BE30EA13
BE19C021
3D7883BA
BD8DA1BD
BDB41053
BD2E6922
BE03A774
3DA484E9
BDF803BC
3DA781E2
BDF9292C
3E01642F
BD237FF5
3D49AA0B
3E26683A
BDE22F3D
BD6F121F
3D905943
BE1A1333
3D06A5B7
BCA626EB
3D0BB00A
3C87D1A0
BD8D5072
BDD15EDD
BDA4CA8E
3D6C3C54
BD413BFA
3D9A6146
BE0719AC
BD71DCCA
3DD400B7
BDD6ACD8
3DF18D85
BDD26C2E
BE20E95F
3E2B96E5
3DB44383
3DDBD7A9
BD5D01DE
BC787466
BE130A65
BDDD01C2
BE3D07D1
3D336DBE
3D5562A8
3C041FD5
BE32C113
3E0C63D0
BDF8C054
3DF5AE36
BDDA5872
BD8E2AC6
3C84AEB6
BDD5B6F2
BD397369
3E385926
BDAABE86
3E253B41
3DC3BA56
BDDF10C3
3D658812
3D784C8D
3CB52CE8
BE2606D5
BDCBDAFC
BD00AA3A
3DD2C4B3
3D9E46A1
3D77C14D
BD948578
BD24DAEE
BD772B02
3E231458
BDA8D179
3E2783ED
3DABB6DF
BBF608F1
3E0411B0
BDCB5F5F
BB960B45
3DE86FAC
BDCB28E0
3D9D726E
BCC2D842
3E28FDFD
BDEB4CE4
3DF4EA77
3D918991
3DA304C5
BD8C2B83
3E47D135
3DDF10FB
3DCD995A
3DF0CACF
3BD2752D
3C9E4E6F
3D678E3C
3E2CA15D
3E48855C
BC778F84
BEAC7812
BC64CA5A
3DFFC9A2
BE72510A
39BDF71C
3CCAD948
BE51DBE5
BCF70916
3D7A625A
3E3748F9
BD7C0B6F
BDBAF0DD
BCA09DBF
BE0E07DE
3B850F9F
BDE50D96
3E5A7FF2
BDE32046
BE565938
3E1ED295
3D788B09
3C4F0063
3CE81598
3CE75D11
BD29A815
3DFBDD3B
3D7FBEA7
3E040B11
3DE96C82
BE0DD899
BD1C3A83
3D17012E
3DC1DB13
BDF66EC6
BE7B37E6
BC78A8FE
BE07179B
BD7BDE55
BDDC68E6
BE68C3D4
3D9E8B5D
3E6A36B8
BE338F64
BE384DB7
3D6AD0D7
BD91719B
3D3C56EE
3E003754
3E4342DD
3E107E09
3D998F35
3DAF29C7
3D9C363D
BDD500E7
BE7456FC
BD8CEEC6
BE0B184D
3CF77176
BE45E925
BD3036AF
3E40B568
BCEC6137
3E0A4411
BDEA8B5C
3E2083CE
BDBB34E3
BE26CE1A
3E112D68
3E216830
BDACB041
3E06CE47
3CDC40F4
3E15AA48
BE252ED9
BE2F8450
3DB3B5BD
BDA4994A
BE12B9E4
BCCEA22F
3C710CD3
BC660771
3DE26C15
3C023544
3DD978A5
3E28E845
3D2DDD46
BE08E24E
BE438AA1
3E2C0DF6
3E1AECDC
BE2AE360
3E35F198
3D19A553
3DD3B515
BDC80D23
3E16D972
3DDA9A64
3DFC848C
BD9AAD58
BE2ACA61
BD15A63D
3DAD4B9F
BDE20EB4
3CF87F28
3D164BFA
3DBD0A57
BE1FEFDA
3E232A58
3DF624FF
BE2CF11D
BB128325
3D26313A
BD34A168
BD8F3A6D
BBFE59A2
3E1A7D3E
3D5E62D2
BDD6BBBC
BDC25607
3D07F019
3E355B54
BE25FA28
3E02139F
BD84153E
BDC6E782
3D8978EE
3CE8CAEA
BD8F7BE7
3DAC75B7
BDE77737
3C4D6C2F
3DC2F677
3D12C38A
3E3EA888
BE382181
3D9C10DA
3E2B8647
3E00A96B
3CA99E2F
3CFAA1D2
3E4A0888
3DC73B1B
BDBFEEE6
BDEC3394
3CDDDD91
BE17F762
BE3BE112
3E41D387
3DFDBE87
3E008E4E
BE280C9E
BC9DB385
3C9CDB4D
BE0D2088
3E108878
3D85B5B6
3E14BF52
3E1622ED
3CCED8AB
BC84F46C
3E201B6F
BD05678B
BE1FF49D
3E314C30
BDAE0889
BB8A740D
BDDF2DC1
3E11AF1A
3E066F14
BE358856
3E1F9085
3D9D53CD
3E181191
BD792A89
BD81D5AE
3E2CBD16
3D98B00A
3E120416
3DAF696B
BE104450
BE603BA1
BE24AEC2
BE14FB3D
3DE5E50A
3DD4A066
BD9236E6
3E1F7523
BC8D4944
BC9EB4FC
3CBF038B
3CA337E3
3DD2FC40
3E05785A
BE032FED
3D8D21F7
3E1539C2
3D9799C4
BE38F4A6
BDCAF31B
BDBD1F9A
BCB1D921
3D0AFC68
BCEF6F9F
3E3C2A12
3E11A0BE
3D17BA6F
3D3A2B65
BD9BE044
3E37D815
3D6E11C4
BD80E091
BDB30689
3D953AE9
3CE45F96
BE0CA771
3DA6EAD8
BAC27256
BD4DFDC7
3E509A8E
3E3B8E76
3E19CAE7
3DCED9C2
BDD97612
BCA43640
3E37687B
3E0CFD82
BC96878C
3DD6F59F
BE5B04C6
3E3BE584
3DEC39A9
BE367165
3D14CE36
BE0DD306
BB880202
3E2700FE
3DB2324D
3E83A018
BE0194AB
BE489209
3CF62A13
3C65A7D0
BE2F9EB7
3E60899C
3E2A8DF1
3D25C1AE
BB8549EC
BE05B80F
3E41C73E
BE3B07C3
3D17EF45
3CA32330
BDEC5DDE
3E4DEF42
BE5ADABD
3DCA7E5D
BE871F56
3DCDFFD5
BDA18557
3D163D4C
3D9EBE04
3E4B6F99
BD4AADA1
3CA90B01
BE754FE3
3E94CEE7
3E9BC5B9
3E879B31
3D0583D8
BC371D99
BE221F10
3DC34F01
BE24E18D
BE96FE56
BDDBF328
BE90A863
BA40C5D8
BC276971
BE5F8AF3
3DEC2A90
3E47B764
BDDD5983
BD27744B
3C2EB1E4
BD320DE7
3DE0ACFA
3D8EDE2C
3EA8D13F
BC9A536E
BE300057
3C2E7224
3DDB1687
BDC3BE0B
3C7D0F1F
BDE41F6A
BE286ECE
BD976072
BC9A9E57
BE6FE003
BDC054EA
BE49198A
3DB03B5C
3D99D804
BCF546B4
BD14F08D
BD5DC87D
BDC5058A
3E86E326
BE0F3B95
3E24A807
BDE49D69
BDFE265E
3E11DA9B
BD00B463
3E24B5CE
3C542069
3E4FFB59
BD800D8E
BC409881
BD5DAD4D
3E5BB21E
BE0923CF
3E75F89A
3E023C76
BD8C75AE
3DDCC31C
3DBF0C55
3DFE6E26
BE2F41E9
BE444526
3D7CB746
BD6243BF
3D2E01BB
3E039C76
BDB6B630
3E1BEB96
BECCB3FF
BE139D8E
BC7A04E9
BE1703E1
3E0CB0CD
BC2D6FC5
BCBC0798
BA9D69DE
BD9FACC9
BA8EB50F
3E298464
3DBD9CC0
3C63C09A
3E37BA1E
BE167987
3D09D6E9
BE481264
BDEF39DA
3C0757AD
BE308C09
3E17898E
3DAAC2A3
3E0B5862
3E5C58E7
3CF1A14D
3D8E8E46
BDA05E6E
3DE76DAA
3C43ED15
BE1CB306
3D64CADE
BE6F3286
3DB6A33A
BDDFDBA4
BDD2054A
BDDF61F0
BDDFC771
3E2CE819
BDEAAA97
BE43233E
3D519B6E
BD5364E4
3DFD8B3D
BBAAD886
3DA1F766
3E479211
3C6A92D1
BE6DA37F
BE197865
3E6A8EBA
3D149860
3E3708F0
BDAEC911
BDB3D98C
3D04B85C
3E393325
BE348EF4
BD99EE15
3D73B09F
3D27E410
3DCC9DBD
3C5147E6
BDA86DE0
3E78F79C
BCD617C4
BE88DF8A
3DF1AD06
BDFB3A4F
3DB0CC45
3CDE7591
BDBBA0F3
BE13BE59
BDFFB821
BDDAC20C
BDE70437
3D2AE003
BD9952A7
BE4C3354
BD979747
BE18B7CA
BD97EE14
3E0B28A3
3B85F2C9
3DDC1CF7
3E837673
BD5E14C9
BD77A64D
BDD34575
3D219135
BC0F5924
BCA44E39
3DEA3645
3D327D28
3D6BCC16
3E0F01F0
3E75F6E7
BCCAD0F4
BD24D979
3D33E35A
BCCEB50F
3D7955E5
3A0CB961
BCFE6FA2
BD8DC29A
BD8885DA
BBF5CFE6
3BFFD7E7
BDFD1BDB
3E04F724
3C6B1044
BD39C7B2
BD87EA2A
3E27EF5C
3DB27DFC
3D802226
3E5A472F
BE3D2965
BD112A1A
3E11EE7E
3C7F085E
3E850E9B
3D4A0552
BD8EAC5C
BDB674C9
BDDADF3E
3D1D7D1E
BB055367
3E94E898
3D281540
BBFD7968
BC44449E
BDA1CC53
BE3A675B
3D96D9F3
3D8E53B2
BD414D7D
BE2218F5
BE621410
BDC2639E
3E14F77E
3DF27A4F
3D90302C
3E70F149
3C9F2179
3BC8A332
3D25C44D
BDE8C058
BD993187
BC14DB2E
3D959A1E
3C6E0A95
3E145451
BE07F66D
3D1A83ED
BD0AC2FA
3E0A5CB5
BCECD0F9
3DEB4C8E
BD72D78B
3CA2A36E
3C5184F8
3E27BDC3
3DBA68BC
3E038FCB
3DB8AE6E
BC5CAAFC
3E2246A2
BDBF0761
3DC3EBE5
3DC8BC37
3D905C87
BDD4AD91
BE1C7205
BCF9A7A7
3D0ADA77
BE174B77
3E14EFCE
3E051825
3DFF661E
3D931F5C
3DC49632
3E170DA0
BBE8C9C3
BDC5287B
3D864539
3DC72F96
3E100396
BDB0A0AC
3D90ED30
3D28489C
BDA0BE19
3D935A22
3D8DFA2A
3C8845AA
3C02CC2D
3DD04242
BD650A0B
3CFB372E
3E297605
3BA22066
BE1A6CCB
BC0734C8
3E0D0B7C
BCA3D278
3DEEC33A
3D93615E
3E1A68EA
3E0346E6
BDD30340
3D0ADEB9
BD03CD0F
BDF19FAF
BBF0F927
3DAE9405
3E26688F
BA628E2A
BD23AE20
3D8CD85E
3DE7992F
3E0CC88C
3DB624DA
3DF2F760
3C903A5A
3D29746B
BCF30F67
BE176A45
BDF17189
BE285152
3C4F8D5C
3E656DEB
BE36F2A3
3DB59716
BCFBE5DF
BEA1C876
3DC82EF9
3CF8FFC6
BDF17068
BD8DA343
3E46BCA6
BE07A090
3D01FB0F
BE0A7E08
3BE28C27
3DD05520
BE2D38F5
3E0E62E6
3DC5766A
3E1F9C11
3E1525E7
3E754212
BD6C4719
3E3B23DB
BDE0E535
3E385A46
BE0B77D3
3DD81437
BDFCA79D
BE31517E
BD2D7635
3D82F93D
BDDCBE60
BE04A37B
3DBDF294
3DA33D46
BC7DCEE3
3D7C4A39
3DC0FE4D
BDCD5D10
3DDBB33B
BDA7496D
BC1CD975
3CA86D9D
BD1E3057
BD4E1AD0
BD4F5A71
3D045991
3E27DD64
BD38C6FC
3DB203A4
BE5BFDB9
BE24997B
BDD84730
3B56DC1A
3D2C34BC
3DF38CED
BDD5E9AD
BE0295E2
BDB293CC
3CEDE81B
3D1FB1A1
BE2DFB0F
3C7EB7C1
BD1B08D8
BD9C7F5B
BDA20053
3E12EB40
BDF0F371
3D22A363
3D825987
3AD198E4
BDF449F5
3D4791B7
BCA035EB
3E04A8B2
3D0856B9
3E4376EF
3D7B5A34
BD2EAF4D
3D08C4B8
BC6B0FCE
3D387DE6
BDE2554E
3D72C728
BDF8D936
BE0BD8CD
3C4AEF72
3DD5926A
3D211EA1
BE0DFBE7
BD8CE240
BE224B3E
3E0CE289
3D65A25C
BB128DE2
3CC5637C
BDC16703
3E029FE2
BDF97759
BDAF1279
3D1DF56F
BD931AC2
BD5656D4
BDE68311
BDCFC178
3E3161BC
3D5CF7E0
3E21DC76
BD40A9E4
3C1E5C61
3D27E0B2
3D869609
3C535DC0
BD9D47B9
BE0911BD
BDF3A3F9
BE1C2E63
3E1D0A28
BDDE2408
3E01D824
BE055E1D
3D969DAC
3D9352DB
BC1AA903
BD99DCEE
3C66A9E3
3D96BF0B
BD91C8D0
3D91731D
BE1F8EF0
3D1B792B
3E1301DF
BDEFF83E
3D4465EE
BDCC61C3
3D7273FB
3E245E8D
BD4FD924
BE0C83B3
BE20046B
3CB005C7
3DAADCC0
BE128016
BDA9D703
3D60D598
3C4E86A1
BD4A21ED
BD3CB3B0
BE06049A
3E12A428
BD8C0E72
BE1FDA5E
BDFCBD92
3E2BCBDE
3E0CB3E3
BDC91899
3E11F163
BDC50F38
BE01E550
3D2EDEDE
BCC7433B
BD8B44D8
3E0E8650
3E228A25
BDDE370B
39CD2E1C
BD34307C
3CC3A33E
3E849032
3E3E4CA8
BDB607AD
BDD4B815
BDDB26E5
3D792DCE
BE08A204
BD74301B
BDBA5758
3E0FBBF7
3E185ED1
BD5D171A
BDC7181D
BE3CC0A7
3E053AA9
BE0F5FEC
BBFF72A7
3DFE2066
3E0BC0BC
3BF3A00B
3DA9B612
BDB7DD21
BDC1077B
BD268842
3DAA1F9E
3DAF8A19
BCD18879
BE060C92
BDB02D30
3D9C2872
3C3EB5F3
3CCAB07D
3AF85AF0
3DA9F500
3C23C501
BE242DF4
3E6349DE
3E28E7AF
3CB125E8
3DC305BA
3E4CD243
3CC89347
BE15FA10
3D77CE0D
3D801E8A
3E33469A
BDF88CCE
3E1A3A2A
BE24350E
BDEC2197
BDB9E2E4
BD2A8949
BD9600A3
3C325903
BD90A3DA
3D428EEB
3CAB08F8
3DEF44CC
3D65FE41
3DFB0D5B
3DF65D25
BDB4A437
3CDA8852
3AD46CFF
BDB79D16
3C8C824A
3D6FACEC
BE0391D6
BE15F314
BD76F2A8
3DFB8713
BE1F7806
BD211CF9
3D9C7A50
3DEEA1E4
BAF921EA
BC7B1E59
BC76DAC8
BE05460B
BD2B5A21
3E1B97D5
3DA0ABBE
3E096C82
BE15AB7E
BE10B92A
BDA34C0A
3E09E497
3DA97B7B
BE131489
3CC7B6B3
3E18FDA3
BCED2DCB
BE14C60E
3DE10A6D
3E18A659
3D6E8509
3D02CFD1
BDE6A9DE
3DCCF7D4
3E0EE7C8
BD6C5E3D
3DC7BFFB
BD977269
BDBA1F7B
BE0428E9
BDF89F2F
BDED336D
3D084EBE
BCA7FA25
3E15BACC
3DEF2938
3E187CD3
3DBA42FE
3CAEA3B2
3DF1DACC
BDD760AD
BDEF3068
BB326DD1
3D9BB54D
BE29E9B5
BE39AE14
3CD705DB
3E227BB3
3DC331E8
3D5DF2CD
3E187B3C
3CB283B6
BDFCA2AA
BDF11039
3DA44B2B
3DB9D389
3CEA93F3
BD4ADCDB
3E1D7AB4
3E241166
BE15EE64
3D83B2CA
3E244E61
BDC273A0
3D85E3AB
3E2BF4BC
3DA3F392
BCB44851
3D29F450
BDF87A33
BDCB0143
BDFAAC7D
BE04D26D
3DDAC707
BDC11424
BD9D46D3
3DB918A8
3DDED4BE
3CEEE703
3D76D6D1
BE23B3F5
3D818F23
3B2F55EE
3E204616
3B7DBB57
BD6B2C3E
BD9E7DEF
3E0E3FCD
3C7B3D18
3DEE4576
BDCECC66
BD9787A6
3DC2FF52
BDF6F7D0
3E1D17CE
3DA8C340
BDB404D1
3D18D468
3CED214B
BDB473B1
BD1B610F
3E1A6265
3D96DFF3
BDFBE23C
3E4AFB75
3E1A1677
BDDE30D1
BA8A5D11
3B832107
3DEED01F
3E025BC7
3D273DE7
3DD6C652
3CAF155C
3E0B57DB
BD8A252C
3DF5EA07
3E1F33A7
3DC67D3C
3DD77541
BDD1FEBB
3CFE62C2
BCC80659
BD6CF74A
BDA62CAA
BDA00568
3E1F45E8
BDD59288
3D865B1A
3DD7554C
BE1FEA14
BE00D357
3E31FBF2
3E5AFD88
BE21B438
3D4E3433
3DCD2F56
3DC8674D
BDFAA344
BDEF7343
3CF78F0D
BD7F3C6B
BCBC4BF1
3DE412DA
3E0B3781
3DF1ABC6
3D93A744
BDF2F60D
BE4EAF36
3E2DA0DB
BE0169F8
3D96A5DC
3CE069C2
BE01E879
3B811350
3CB9A085
3E241F3D
BD0F5CAA
3B7D8277
BC876499
BE388F82
3DA05E87
BD78152A
3E18EA31
3D883D1C
3D96E04D
BDD8D082
3E18E09C
3DAD7492
3D1B551E
3D7C37D7
BC889759
BE1D9359
3E0A1A21
BDE865C0
3D056357
3E03D9DF
BE28FBE1
3E1DD8E5
3E238078
3B4438AA
3C8991AA
BE086F1F
BE02FDDB
BDCA8C5E
3D63325C
3E2B6107
BDF28BCB
BDF403C7
BD0A8F0D
3DBBA6C2
3D9AAC33
3CE2663C
BDC9F193
BD8FB568
BD43F878
BE1F4394
BD859EFF
BDF36004
BBF1D3C2
BE1C1721
BCAEBAA3
BE335B7A
3D989DC3
3DE6A7B1
3E33129D
BDCA1F4B
3E49C131
3DE0888E
BC9B153F
3D2600FE
3E4796BD
3DAF9698
BD4DAD2D
3E2E94DB
BC290FE4
BE09A328
BCF23A35
3E72616A
BE0FF56A
BD361DD4
3E22BE86
3D375306
3CFA517A
BE4B8A4E
3E12255A
3E2CDE83
BD8A6278
BCA20F49
3D911FEA
3BD3567F
3E28EAE3
3E09EBC4
BD815B30
BE2456F8
BDCAC022
3E3EEC6E
BCDC1092
BDFEB537
BDD605B9
BE38F25C
BDAF4AC0
3DF4D924
3E471418
BC8EF393
3E116D31
BDC0A894
3D8D1BC3
BDE0CB20
3E3CD5EE
BDB63D48
3D615F30
BCF11A9F
3C63C9A9
3E00E350
3E2AA7A7
BDE49AEA
BCF22785
BD291215
BE7E6D08
BE55FA57
BE37EA7B
BD46D34E
BDECA292
3C9EBBE3
BE467B4E
BE1373C2
3D8D191E
BE15C07B
3CA604A7
BE6B7BFB
3E780F44
3D008AD5
BCC1E87D
BD94B01C
3D69D269
BDA8D73C
3D36F3D5
BE710986
3C2E1DC0
BE4902C3
BD04C5C5
3E6F70F0
BDC11CBA
3E85E1FE
BE2C3E56
3E9C31D6
BDF656DA
3D756C1E
BCCC702B
3E32B5F9
BE852269
BCF98278
BE05D904
3E1CE4F8
3E786F4F
39FE40E3
BE5DA0E9
3D69AF41
BDEEE69C
BE05C967
BD1ECAC1
3E0D2DD7
BD2B8918
3C68A855
3E360F14
BE399C1B
3DBCA9A0
3CB69DB6
BC3EBADC
BD8E515B
3DDF13CA
3C1AA101
BD65C02B
3DB308C6
3DAEC832
3E887EF4
3E56AC1A
BE163123
BE595B6D
3EA9C96E
BE033870
BD1CF4F1
3CA6BDD5
3D959918
BE3FC072
BD6738A4
3E7F386D
3DA71BF5
BE11E4C3
BDA1DF0B
3E842BF2
3D857133
3C853EE9
3E26EED8
BDC75DD5
BE456BA7
3E45EA84
3B4B031E
BE3E4A59
BC0301FE
3E397EB3
3E035BE3
3DE78D1C
3E3E69A0
3D81A3C1
3D0FC558
3CB4B99B
BE15C219
BBAEFAAA
BDCCBC09
BE23C7DE
BD9B3E61
3E0BA7FC
BE1F2A09
BE237121
BE5B70DA
BC1F9572
3C4978FB
3BD94023
BE0FCA8F
BDA9FC39
BBCA2898
3D8B4558
3E4C9F56
3E4D9415
BD6BDB68
3DBEF036
BD969578
BD3692CF
3E0A1778
BDED15D9
3E02EFB0
3B9CB5D9
BD058822
BD451AC7
3DDDB47A
3D8E6C75
BDC2B4C5
3E3EF796
3E2473B9
BCA848A9
BE432D3E
3E04A69F
3D205939
3AAECD88
3DD8C42E
BE29C537
BC29164F
3D11277A
BDB5D5F1
3D907ABB
BDA67B9A
BE1F3E89
BE0A109B
BE2C2EAF
3E3503E9
BDB1F31E
BDFC9229
3E69D8FE
BE1F6A6C
3E148EB9
3D8872BA
BD5861C6
3D9584EA
3DED88E7
BDA67253
BE018C91
BCD2D71D
BDC59F73
BD7FD2FF
3E20E20E
3CC0D588
3DB2F41E
3C4EEB0A
3E3D7AD8
3CA16FAC
3DAFB8A0
3CA59DD4
BBAC3B07
BE122D90
BD8CFFB3
BCC0C384
3E3D0579
BE171FCF
3E2B14C1
BD233ED7
BE2F5757
BD8339DC
BD3B2D38
3CB8C7FD
BDF89682
3D712819
BE10BAF3
BDB18DC8
BE028899
3DB248E7
BDD53765
BE106D8E
3E1166DF
3D4FC184
BCE922F9
BD3CF079
3E0FC66D
BCDEEF24
3DE32FCD
BE0FE56C
3D0EB1FF
3D44CC40
3E20BDFA
BDBD760A
3D8B22A6
3D9AFCFE
3E2D10A3
BE1E606D
3D86D2A6
BD3A37BF
3DBACD4D
3D181A60
BDBACC64
BD0B0E1B
BD493C24
3C8FCE44
3E1A976F
3E4BB109
3DDA06F9
BE192FCD
BBCF299E
BCAC6C35
3D2B7438
BE303D83
3DD41A13
3D81246B
3E160D2D
3E92EFE2
BE49DBD1
BE5035D2
BDFCEF09
BE3CB1F7
3DA1965D
BDEF89F5
BE45783D
BDDD5868
BC12A2A5
3D29CF57
3E813E80
3E006C58
3E28085A
3E8324DD
3C8814A1
BCCCC9F3
BE0AAB17
3E20C920
BDD0B0F0
BD4253CA
3DE3F91C
3E188A7B
BD5A8AA0
BBA2AB66
3DB99434
BD5EF55E
BC9DE828
3B10D82A
BBD15E97
BD19A3F3
BE161DF2
BD043D09
3CBEF30A
BE0C1009
3E96FDAF
3E3183AF
3DE6F648
BDCA0CD4
BC92F200
3DD087BD
3DF17622
BDDAE78D
3CFBB1ED
BD88AD42
3D4EEFD2
BD23CE74
3E1BFAB0
3B80972A
3D19B64A
3DC83F22
3DB06A3F
3C940D38
3E21B124
BD02908E
BDB77304
3DEB727A
3D44B5A7
3DD893C5
BDEB08C0
BE827D7E
BE6D1AD7
3D95A67B
3DA60FA7
BE0D0765
BCC88EF0
BD93FA79
3E53FC5E
BA90257D
3E06EE8B
3E22E974
3D864EFE
BD8B17DC
3E55A487
3E01B02A
3D7E1F4D
3E4EF097
BD9C6E7E
3C951032
BCDF8F12
BDCFF644
BE2F927F
BDA8940F
3E14846E
3DF5C05E
3AD0A950
3DA7A839
BCF8EB79
BE13FA55
BD87BA2D
BDB5F389
3CDFD518
3D2C2ADE
3D8E245E
3E488A7F
3E72E275
BE0E4ACD
3DAD977F
3DF33099
BD7CE50B
3D34549B
3DFDEFF7
BE08B6C5
3D90EB54
3CFB07C3
BDAAD106
3DC6AB4F
BD6C0282
3DA1D258
3E1DD2C9
BC64A18A
3DF62B26
BDDB45A4
BC61668D
BBAB3DF1
BE0993BC
BE0362E5
3E122A0B
BD06DD8A
3E1975DF
3E01A3B9
BDF3E463
BDBB491C
BE9E617D
3D8FC88A
3E2227C1
3DF68495
BD4E9041
BE457D8C
3DEACAB7
BDCF04D0
3B3E5A99
3DD446EA
3C39AECD
3E0FA392
3D3D462C
BC87AF3C
3C545B57
BE3C07F7
BCCB7E03
BDCBC429
3DB284A6
3E25F289
BDC48F38
3CF84A4F
BE167507
3DDDEA8C
3E08E912
BE03D590
3E12FC63
3DBC8D8A
3D941078
3D67B40C
3DB4C01F
BDD30FCB
BD9A697A
BD457E52
3E460CA2
3E13103E
BDDFF83E
3E86A7A1
3E05BD86
3C9038B2
BE29937F
3D51327D
3D5ECC13
BC556420
BDC275B4
3E559035
3BEDE97D
BD686A4F
3DBCBCAE
BD1702DE
3CC3BAC5
BDED85D5
3DCE084E
3D261291
BC2B3C8F
3CAE0F6D
3E1481C2
3E8FB701
3DD97E0A
BDFE822F
BE277CDD
3E33D46D
3E033460
3E3212F2
BE204730
3D30A7D6
3E29FD88
BCE824A7
BE68BC71
3DC46E1D
BD0E3CCA
3E2532EE
BD9CE925
BBD6EBB5
BE456767
3DD0FD7E
BE426972
3D879264
3E014145
BD648454
BE01CF9F
3E3FE945
BE205014
3D861AA3
3D8EA780
3E482748
3E4AAF09
3E69FD9E
BDDFAC45
BDEED7B6
3DC5523B
3E125D0C
BE2E728D
BD8A6F36
3DC6AE8C
3CF2E8C0
BDA2B7BA
BD72D42B
3E682BE0
BE999138
BE0268D3
3E0BFAFC
3E13C1EA
BE901E3D
3D9476DA
BDD7231E
BDF55959
BE2AE43E
BDEDB5BF
3BA98103
BDA570D8
BD9C0B58
BE1EFA18
BD98BFBF
3E71E693
BD96B7AD
BC7E1EBF
3D402A78
3E5E478E
3D866016
BDF72361
3D99ADAF
3D85F043
3D8D1602
BE162BB0
3DBE7748
BE430C9D
3D49BF49
BD04ABB4
BE4D8759
3D1CB674
3D316E8D
BD6F2B7A
BDCAA544
3B6CF810
BD75F6C5
BE106239
BDBE4D3C
3C658B0A
BD0A50B4
BDA8BCA1
3E3A428B
3DDBD82D
3D21E317
3DC527F3
3E0F1969
BC5F450A
BDC51C2C
3E019BCD
BE14A801
BD5059FA
BE232738
3E2C42D8
BD226FC7
3D6829DB
BE6CB4A9
3D748C34
BDCE3A1A
BCD8BC85
BDF33BC7
BE80D8BB
BD982552
BDDC79A5
BD535F20
3E4E3935
BD54D649
BE6593D1
3E414EDF
BC9959B9
BDE2C9AC
3C276A27
3E24009C
BD5122AA
BE54F125
BD104446
3E330357
3E329BBC
3B2D8C15
3E41D886
3E02BC6C
3D6E727F
3DA21D9F
BC57B858
BD5A49E3
3E1707EC
BC81BF38
3DE6BF65
BD08DB76
BE3B3194
BDD296D3
BB2B72B5
BDDBA710
3E171FE7
3D003F3B
BE0B5C3F
BD9ECF86
BBDD0452
BC11B62B
BDC47F00
BC246CE7
BE12A939
BE9FB2AC
BE288DDD
BCB7315A
3D908638
3E47505D
BDF85307
BC6C9951
BC967D7B
3DB9C0BA
BE0AF42E
BDC02EA8
BE8DA845
3CB9210E
BDA47361
BE2A1F95
3C358FC4
3B68C881
3D229107
BE362D3D
BE079B55
3D59100C
3D94381D
3D8D727C
3E37C767
3E0EE26A
3E154469
BE094697
BDBEA13E
BD570ACE
BE1EDF9B
BE003E88
BE276A96
BCB178AE
BE0043E6
3E1458E9
BD1952CD
BD3C8BEA
BE2525ED
3C98FFE6
BE2CEF97
BD0CCC49
3DF132DA
BD157804
3DD12E6F
3CAC9DB8
3DC2CD8A
3E17DAA6
BB4C3F33
3E1EA2CD
3CE26F31
3E22D7C1
BE02CBE9
3DD66293
3DA6B834
3DDEB878
3E4F4FC5
3D8CA4AE
BD5A416F
3E37E481
BC7A2F06
3D69370E
BE2996AB
BC235ACE
BDE80EBC
3BC09399
3DAD7BE1
3CCE5005
BDEE4202
3E584CBF
3E1FC86E
3E30A8DC
3E0800E5
BDEF9326
3DFEC609
3DBDAB7F
3E525365
3D1F1D04
BC98D80E
3D9F4100
3DEADD6F
3AD42B91
3E0DD697
3D864C56
3D03DD7D
BC2AD231
BD7E47CC
3DB5448C
BD9B060C
3E387423
3D89769B
BDFED44E
BE19A1D6
3DE048F0
3D8F7107
3DAE7FA2
BE4F6B51
BE28905A
BE010101
3DA80823
3CF6ECE1
BE3FAA8A
BDDF8CAF
3D359AD4
BD904AD0
3C3157DC
BDACDF31
3CAA3461
3C9E83EF
3DE0A993
BD8417FE
3D9A81B4
3E09A361
3DA3FCCB
3C6DB276
BCABFA29
3E0B98C1
3D8964A4
BCA94543
3DEC3F62
3E15DA66
BE36ED70
3D7DE774
3D6AB154
BD9BFFF5
3DD6F545
BDB7E0CF
BCCB978E
BC3007A5
BE78C2E9
3C85C551
BE424C97
3DA285B8
BE3B993E
3D5F71C8
BDD46397
BD742881
3C7A5318
BDA5F6E0
BE205296
3C13D0C2
BDD53BC8
BD35BF5A
3D10156F
3DEB3F08
BDC66689
3DB49F5D
3D106479
3C094625
3D55B8B7
3E0EE347
BD9B29D3
BD8A8FC8
BD287255
BBBB80B5
BDB4B4DB
3DCDB577
3D6C088A
3D8E7EF5
BC2EDDA4
3D88DBB1
BE20C863
BD8B75BF
BD72ED5D
3D716378
BE1F2CD9
BD5E38D3
BD49A6A0
BD04421C
BCCB90BD
3E41881E
3E24710C
BDDDDDA2
3D26B389
3DE19923
3D40F680
BE0CA597
BE0B8294
BDD59575
BDA2FC1C
3CD2EF9C
3DA27B66
BDF1A737
BDA5DA65
3E379542
BD85C13C
3D3B413A
BDFE515C
3DEE399F
BE0C4EF8
BDC31256
BDBEB811
BD9B91EA
BDB5EA2C
3DBB9F15
3E3A3147
3DCBAAAA
3D8F479E
BD11A081
BD9EE8BA
3D87DEC8
3E1FDFC2
BD837316
3E0E62B4
B975181A
3DE23DBA
3E01E7D2
3E0C8826
BE23C447
3D5C7FF0
BA7EEF5F
3A2A0578
3D58DEFC
BDD07155
BE27B716
3DE6E998
3E34143B
BD6DBCDF
3B525725
3CC4A8A1
BD385A6A
BD29BB73
3E1BB3CF
3E4BC50F
BE0CFF46
BDA3F2F9
BDBF5533
BE23122F
BE5B3986
3D82BFE6
3DFE3D94
BD90D59E
BD696417
BE25BE6C
BD663E4B
3C1BD0D6
3C6CE5B1
BE115A65
3E10A611
3E0E8902
3E584D79
BC90A834
3DDA8EA8
3D3BF683
BE013165
3CA4DA60
BE0FFEC4
3D64E74B
BDB2AA89
BE4EF804
BCB34ADB
BE0349B3
BD16C41A
3E00DB33
3E11DA89
3DAB8CC9
3DF7A3EA
BDDEFFD9
3E22DF84
BE334614
3DA490F3
3D4120CF
BD1E4617
3DDD9FD7
BC079A9E
BE744457
3D044AFB
BE3289F7
3E06B9AA
BD85B053
3C97EAEE
BCF9596D
3E017DCA
BD793977
3E1C84F4
3C5F3E49
BD05F7F4
BE01491D
BE09B0E7
3D8FB8C1
BE2F2541
3D747F6E
3E3DB654
3D020787
3D3FF355
BD88D429
BDF3DB99
3CEE3D8B
3CC1ECAF
BD83B3E2
3D979052
BD25C620
3DA94C6B
BE29DDF6
BD886839
BDCC74BC
3D8185FB
BC290FF9
BE026471
BDA0DF2B
BE070078
BC165F1D
3D5B3489
3DAAE425
BC0234CE
BD8D5533
3DD84502
BDF6DE2C
3E1E6F9C
BD54DA4A
BE06412A
3D61C1FA
BE0D202F
3CD6355C
3D57C20B
3B7625E2
3DC0450A
3E520DFA
BD9CB884
BE0F2270
3D81589D
3C89A621
3E1F618A
BE4D6AE5
3BE056D8
BE09280D
3E147999
3C906F13
BE1BDC48
3E2EA2A7
3DC91975
3BF56A7B
3D708833
BE90CFB6
3DEE3089
BCEB366F
BE259EE4
3DF6CEB1
3E1E8A2C
BE0FB140
BD5E91E1
3D713FA0
3C82FC7A
BD99F45F
BC42113D
3E12EA72
BE37C6D3
BD205766
BD99C08F
BCBAACC4
3DD8268E
BDF6CE3A
BE0A347C
3BC37662
BBC9FEFD
BD4CA9DD
3D7F187F
3E1B2581
3E3AB989
BDAE890C
BDF3F97F
B94841CE
3DEB05E5
BDAA8137
3D2D6D21
3CF02CAE
3D7A2842
3DBB214A
3C49F6EF
3C33A6C1
BDD872C7
BE40D9E9
3CA92B12
3E0E2379
3D5F2108
BDB58A36
BD4280FC
BD4F9E8C
3B9F5AA4
3D8A01C4
3DA8CC0B
BB4BC0B3
3C6492A7
3D723054
BC7FA69F
BDF27806
BE28C754
3E134C9F
3E5DAE47
3E0102CC
3E0E9E63
3E1CF713
3E10255C
3DAF68BC
BCBD8DCA
3DD23123
BD3DF813
3BCBCD1D
BDE02081
3DAEA957
3DC7A08A
3CF28F39
3C278C61
3D957BCB
BC544F78
BDD7D479
BD4012ED
3D5A24E7
3E3E9D8B
BDED207B
3DA784D6
BE17A449
BD7D16F2
BD3BA327
BD9B50D0
BDD1D57B
BDFC1918
BD79FADE
BC8AB9DD
BD97CB43
BD5A89CF
BD04B42D
3E38D68A
3CDC6A1E
3D3D74F8
BD4CC248
3D7801A9
BD67B005
3CC96EBF
3DFF4F88
BD60341D
BE4760F6
3DD241F2
BDDA1D94
3D5C32A1
3E3A4C5A
BDD7B382
3E2CCCD5
3DCC17E0
3D9F48A0
BD113DD8
3D616EB0
BDDE78FC
3C432CD0
BBFDABFD
3E09B376
3D4807BE
3D00D248
BE1B3844
3E1AA240
BD859DCB
3E587A65
3CA8E516
BDB6F82B
3DDBA3E8
BE172627
3D9F70E7
3CB98D1F
BE5696A2
BDE0380F
3E308DD3
BDC94FDF
BD3F54A7
3D559DCF
3C973B70
3D13BF0A
BDCB8D9E
3D9C318A
3E563496
3E3F3D4A
3D06D610
BCB75CAE
3E6A9A2A
3DD6E14B
3CEC98DB
BD89B0B3
3D46623A
3D6D210E
3E001811
BD837448
3D9BA76B
BE2F2ACE
3DD57DA8
3E334738
BD5AB378
BE2D59F0
3D295363
BD07B49A
B9625B29
3D8F2388
BD37278C
3CF3E5B6
BDB1461D
BDA7F761
3DDC9C02
3E780E37
3D3CDE15
BD8F760B
3BAA4B43
BD2FCA43
3DFAA87D
BD540474
BE188A3B
BDC2CED7
BDD982FB
3DACED7B
3E299360
3C26C074
3E11F97C
3CA19236
3E325A51
3E14AEAF
3E0FBAAA
3CEA2E5D
BDA06F8E
BDE2387A
3E16BC51
BCCA9890
3DC0E521
BD98EB84
BE0B1523
3E0BD804
BDEC529F
3E2469B7
BD924142
3E0FF22F
3DBA1238
3E4C9959
3E30268D
3D772070
BD76123E
3D46C2C5
BCD86176
BC6CDDCF
BDC0E93D
BD17A246
3E03DE64
3DF6BE7A
3DAC519A
3DF49FCC
BCA4AD8F
3E1CD0E1
3E105199
3CE8BF31
3DAD8481
3D616865
BDA4B872
3D3BFCB3
3E23A6D7
BDAB4730
BE1991A1
3E0BC3A2
3E2DFA92
3E341BF3
BDE27B5A
BE768A68
3E1C43F1
3C310BF1
BE0C45D9
3E18751A
BE9F83EB
BDA1F013
3E2119F2
BBB2F83A
3DE847FD
3C34FC36
3E21C0A5
3E1403C3
3D9FFFF7
BE117CDB
BE0FA046
BD265557
3E0FE5EB
BBA5E1FC
3DF9D90A
3B7F92F3
BD8BA9AC
3D40D677
3DA6996B
3D5D4AD9
3D3F31DC
3E4F7D96
BC413CEC
3E174809
BDAD1EAA
3CCC8C25
BE5D5870
3BE40751
3E3CB6B9
3E0AC39E
BCB0A09C
BB8D2415
3DA28478
BEA04C3C
BE26A849
3D3B294C
3E56313F
BD924817
BE019F1E
BE4B93CE
BD65A023
BDC140CA
BE5BA5B0
3D815EAC
BB2894B4
3D849EC6
BD37F339
BE43C98E
BDC6B525
3E7F3F5C
3E26C4E7
3E0EC5E9
3DDB1FFC
BC2476CD
BE515C9F
3D920D82
3C118315
BE1D19C9
BDF02E61
BE14A098
BE5DB1F0
BC618231
BDE39328
3D91709C
3E2D3BEB
3DD3FA2E
BC920F37
BBBD3453
3E260BD4
BD65568F
BD55383E
3E10B330
3AAC6071
3E225298
BE7E1A55
3E31C406
3E39001C
BC9130C5
BCBC9B47
3E29277C
BDDAD82E
BDF67895
3DE6AB82
3C0750ED
BC3C63D4
BE11F56E
BD28A540
3DCBA3A1
BD2AB677
BDBB9F1D
BE1D646B
3CCE757F
3C240335
3C9F8226
BD94DA6A
BE0B45E1
3DB26577
3CC2DF3E
3DC4F9DD
3DC95BE6
3E1875DF
3E20EC2E
BDA67A0C
3E5915B8
BD980A45
3E41F710
3DB26936
BDCE67DA
BD7825F9
BDACDBEA
3DDCDB2E
BDBE17CC
BE0C8CA1
3D70127A
BC1825B1
BE27760E
BC935E87
3E1D0E3C
3E293254
3E314210
3E5CADD4
3D6ACCF5
BC53B8A4
3DAA22BC
3E08B252
BD3EBD93
BCAC60A1
BE316901
BBE1AFDE
BAEA9BC0
BD0CDC95
BE2B393E
BD22E080
3D3D985C
3E268CCB
3C613AC3
BE2CA50C
BE0CD21C
3CEE9F3A
3D8DB799
3DAF1DF9
BE489D49
3CEFDC3C
BE28E5E0
BE350B82
3E060123
BD297C78
3DABBCA2
BDF0D575
BD588763
3D1D89E6
3CE4C790
BE24B2F0
3DCF003D
3E405AE6
BDD5A017
3DB36A23
BE1C2937
BD749E2D
BDBCFF8E
3D4D77E3
BCF00C7D
BE152A26
3D9E6CA4
BE2B3973
BDF110D0
BDE9515D
BDFF21BE
BE149E00
BC3E3814
BE33724D
3DDFF173
BDE9E7F8
3CCE5838
3DE08BCE
BCDE647F
BDB59B12
3C5020AA
3D6094D0
BE082556
BC9F27DE
BDDFEB0B
3DF95C87
BD33CD5D
BBF4167D
3C09B164
BDB2E9B3
3D95FF13
3DDF0998
3D3E01B1
BDAA45EC
BE111572
3D973206
BD594BDE
BD96E985
BD6E2B87
3CD87212
BBED6DD7
BDFA6BFB
BD1A7B9C
3DC32030
BC617688
3D4F1081
BE38E9B5
BE11DC43
BE319DDB
BD0F6536
BE125979
3E3F6DF7
BDC8E03A
BDEB78D2
BE010753
3B1B3378
3E27B899
3C7C542F
3CBC8CE9
3CFD0574
3E0F7DAE
3DD6845E
BD887467
BDB0159C
BE22DE25
3DB59688
3E3D9D14
BD2EF914
BDAE3159
3E3DC6F3
3E110A51
3E14BCBD
3DC96EBB
3E082768
BD8D9983
BDEB1A34
BD0C18AA
BDDF165E
3CA1D38F
BE15DAD4
BE2C3035
BD0458DD
3E1760FB
BE19CC20
3DDB95FE
BDF28BE4
3E19ABB2
3E01BEEC
3E20356C
BE07854C
BD45BAE0
BC483EB3
3E021BCD
3E377040
3DA6E79F
BD6DC662
3B10D2A1
3DB01F29
BDC496AB
BD6A27DA
3DE66644
3E165C61
BC039E0F
BE321135
3DD39289
BDDAD962
BDAE39B7
3D1A043B
3D3300D1
BB960916
3CDFA7B6
BD35E2BB
3D673E76
3E4E87BC
BDB7D4C2
BE1FA16E
3DBD7711
3C2781E5
3E44F239
BE51DA55
BE5E3C18
3DAAEFEE
3CC60893
3DDF6943
3D3A43EC
3DFFD3E4
BD9A8282
BE58B83B
BE395658
3E34E2E4
BD05A190
BE14273C
BDD40282
BCE4B11F
BE0E48EC
3DD69D17
3D21CC7B
BD02DD17
BD2C8349
3E1C766F
3E356248
3E21EBD3
BC271FFF
BD07AA10
3DF157C5
BB9D7485
BDE101C3
3CBEF2EF
3D011DF2
3E284AA0
BD7A0225
BDBA9D2B
3C8FFC87
3E1CAF8B
3D73B966
3B84EE26
BDE408EC
3DA0FA4E
3C831EFE
BCAA039F
BD8A602B
BDAF9566
3E090687
BB2A7661
3E1665B9
3E24C61A
BCFED0B6
3DE16CC6
BE4DE40A
BE308E3A
3DBEC38D
BE475470
BC87C90D
BB6A287D
BB3C1C50
3C95769F
3E9E4B4E
BE21A651
BCE66B5F
BE00F513
BDD3A6A1
3D6329BB
3D63EC53
BDB1493D
BD74FB95
3DFAE50F
BE0594A9
BDD30B7E
BD97C9A8
3E47ABA4
3D2F001B
BD814404
BDD20CEF
BDDE27D5
BD04A630
BD56392D
BD907392
3E5F5984
BE3100DD
BC75183B
3DA8A06C
BDB012A3
3D452BCC
BCFCB497
BC75622D
3E3A4633
BE47ECEC
3D8746BD
BDE52BE7
3CE7F344
3D06E1A9
3D91C2D0
3E2B9A7D
BE84CF6C
BE1B0C0D
BE3BD828
3D713120
BE153F32
3BFCAC4E
BD68523C
3DF179D4
3DB92FFB
BD76C201
BE13BBF4
BD88EDC1
3D8FADAA
BCC1EC8A
BD089E87
3DAB9894
BDFC355D
3D7F2D24
BE498D3D
BE0F6072
BDE24912
3E102174
3DE43ED8
BD809E54
3C3828FC
BC967126
3E0996B7
BDC7D61C
3D6EA097
3D325562
3E03616C
3DE471D6
BCC00894
BD509CD9
3E173450
3E75CCF9
3E3C0B3B
BD252168
3D17C612
3D12B717
3E502510
3C05D68E
BDC5B5C0
BE1445B2
BD9EED18
BDAE70DF
BE14E321
3DA5CB3D
BE0A582D
BD604075
3E159F95
BE05F6AB
3E22A10F
3E2951FD
3E537C4D
BD971134
BE0C6BFF
3E2B0F57
3B7EC441
3E3BFD1C
BCC1BDB0
3E8D30CB
3DD795E8
BE085B0E
3DE0C8DD
BD60E0B6
BD98DF9C
3E576D65
3E13B25E
BDDAA67D
3D509485
3D338226
BD6633DC
3D8C4760
BCD4B8B4
BE81E6CE
3E23B4D4
3E5DB576
BE027087
BE90FFEB
BE1A488C
BDC855CA
3E27B988
3E3B8CE0
3D7CB0E6
3E0F451B
BDB23C48
3E030A08
3BF107C0
BE443F82
BC9985D8
BDCCF74F
3D9C28E0
3C895F8A
3DADF2D2
3D647075
3D919B81
3C524C53
BE36A225
BDB46F92
3DC99F71
3E2AF70D
BDC87A55
3DC460B1
3E5BD774
3DC6BF9D
3B6D4716
BE6294F4
3E044518
3E3B8DE7
3E407CF0
BCE7C9CE
BE5DC7E6
BCE37EE6
BD7954FB
BD8BB920
3D147DF4
3E1564F6
BE3B8787
BDDD7673
3CD70F96
BE3355FC
3DD5FA01
BE2E327A
BC954FA3
BE16A00F
3D95D230
BE4C1B39
BDB3E0AA
3D225911
3DE8B239
3D50AD7F
3D8040C8
3E3442CB
BCE7D653
BE10DFA3
3C8C0FF9
3E3A8FDF
BDE443BF
3D88386E
3E4E1DE5
3E71B944
BBB9915C
BD1E9D2F
BDE8150A
BE6578D9
3E6FF21A
BE0BDF88
3D99DF63
BD9540BF
3E74DCF5
3DCE8152
BDA0C65F
BD8E3F34
3DFE4737
BD473CA0
BD0D4F89
3D96B5A7
BCF28DB1
BE0464E6
3D4B818B
BD9B20E4
3E008B73
3DCE4AB9
BE4547E2
BE425C34
3E21369E
BE84D481
BD85CF1D
BDD71CFD
BC2D9BE5
BE60AB21
3DC91CFD
BCAB847E
3BEC65C4
BE359ADB
BD414CFF
BD3AD704
BDCF0C66
BE81CA60
3D0672CE
BDB5F467
3D1D1DD0
BDA1506E
BE5E7E69
3C3021A6
3DEFFA5F
BDA09E42
BE214D69
BE033CFC
3E1CD4FC
BD712A92
BD362AFA
BE43AEB3
3E7DD762
BDB92095
3DB2A2E6
BE0AFC3C
BCD39127
3E18DB05
BC0CA331
3DDF132F
3E53F0A1
3C78F4E9
BBD1F6C3
BC7B5886
3E469567
BE351B11
BDE7B6C3
BD17E9E9
BCCC3A50
3D93EBAD
BDFE63AE
3D9DF932
3E4513A0
3DADFA2C
BDD779D2
BD93D3C2
BE24A319
3E14DFD3
3DF85CCD
3DC91EBD
3DC8AE42
BDC80548
BD04930D
3D6D026F
BD082FDD
BDFF3611
BC6069B8
BE011D41
BDCE47B7
BCCA0B92
3CEB1DD6
BDA69DF8
3DF389E9
3E06896A
3C931C22
3D894203
3E3B1A62
BD011856
3D941FC4
3E19D417
BDCBE2EA
3D19F10D
BE23A7B7
BCF7A395
3E187D19
BDFFC19B
BCB0DCB7
3E4225F5
3E1E2B48
3DFC8963
BE05FD15
BDA174BB
3B2727F8
BE688BA2
BDC5CD72
3E0D6611
3DD28AF5
3E24D2FF
BE185305
BE61BF9B
BE37CF47
BDD0E72B
3D82FB39
BE8578F5
BDA12413
3E413689
3AFC864E
BDBB818D
BD0BA047
BD2C5E9B
BE63096C
3E1FB482
BDADF3C5
BD754064
3DA071D9
3E1CD601
3D8B6191
BCB0C1DA
BD05EC50
BDFB52DB
BD9A090E
3E1CDA5D
3D064F07
3C581454
BD5141A4
BD703C3E
BD850034
3E252607
BD6B3D2B
BDCC6E9D
BE563B6E
3E7E1410
BD9895FE
3B7A8E51
BD1F519A
BDC10BDF
BD96156C
3C600849
3E2FC6AA
3E163B5C
BE11F4A5
BE30B3AB
BC91CDFE
3D82235F
3B19064C
3DB45877
3DC07DDF
3E0F7A85
3D3F4FE7
BD31B71A
BD9A45A5
BDDBBE0B
BDBF0DD5
BDA576DC
3C067484
BC1A4EB6
BD6F2E33
3DF621FC
BD2C841D
3DC6F4A5
3E2AC72E
3E488AED
3A9C799E
3D7D46E5
BDCDFE93
3D872D96
3DDEC70F
BE04E577
3C87F67F
BCCA9CC7
BDB6E1CB
BD8A8181
BC2071FB
BD345DDE
BD17D955
3DF39FFD
3E498502
3E61535F
BDC70D1D
BE4883D3
BE4B8C83
3D99EAA6
BC3EE8BE
BDC93701
3C8ECF16
3E1935DD
3D7BA0F6
BE1B0EAF
3D10CEAA
3E4DA962
3DFB15A3
3D3C3B2A
3D980293
3C804E29
3D0FDB55
BC4A2E6D
BD39904A
BC5DCFD4
3DA46104
BD566930
BE0931A7
BE1796A2
BE1B74D6
3DAB2C46
3E029597
3E01DD33
3D217142
3D78A451
BCD3A8CA
3E05168C
BA87950A
3DFEF787
BB843381
BDE8E37A
BDE447C0
3D819430
BD550D60
BDE8101B
BE27FD36
3E18C462
BDEA660A
BD4C155A
3D642693
BDD1F5AE
3DB9F04F
BD8D0675
3D72638A
BC38588C
3CC17744
BE00B5DF
BDEF12AD
BB631E48
BE2C2944
3E201856
3D038FB2
3D8BA540
3D1A3263
BD6C0CA1
3D05EF89
BDC5F9EA
3DC1A995
BC719335
3CF4B3A6
3CC6576D
3E25038A
3D6F00BC
3DFE85C6
BD105AA6
BE02EA12
BDE8D134
BD970550
BC94031D
BD0F61BD
BE41A001
BE32D11C
BBC84E38
3D22B762
BD9C7146
3D2D30EB
3E0F654B
3DC28A3D
3E1753A4
BD7FF777
3D1346BC
3DC8F9EE
3B93DF45
3DD62D86
BE11EC64
3E38BE21
3DFDF700
BE3D1AF4
3DAC68B9
BDF3978B
BD45A805
3E097D08
BD8A21C9
3DDF5AEA
3DE6AE0F
3DB6EE73
3CAFEF5C
3D966225
3D955C9D
3DDCBAA6
3D01D8E0
BD488C3B
BE0AAF41
BDF69C18
3E45369C
BDCDD7ED
BDBA3067
BD3C701B
3D38C1B8
BD9E52EA
BE1B53E6
3E268B98
BE1A9FC3
BD957498
BE020401
3DC66C0F
BDDEEC37
BDD03A2B
3D949111
BE1EB683
3DF19267
BE0D0943
3E6719BC
BC3FDCE5
3DB622E9
3E184EF7
3D5EA87F
BCA06EB5
BD037B45
BE42CC68
3E437FF4
3D734511
3E3E57D2
BD9551B1
BD9C345E
3DEDD5D7
3D5DF48A
BE4B65B6
BCA362C6
BCFA2DCE
BDA74F2F
BD1722B9
BDC66136
BD78E9EC
BE28FED0
3DE48ADA
BCB5D524
3E0420A1
3E38FFA2
3DC6E1EC
3CC473EE
3C808003
3E1F5ACB
3D97241A
3E516DD4
3DB4A786
BBB2E26B
3D2D7FC3
BE3DE854
BE0DF756
3CF88FBE
BC82E09B
BD905D19
3D65887B
BE0CAEEE
BE37CFA5
BE383A6E
3DD0E3C2
BBF36410
3E014939
3E4338EC
BD6BFAA5
BE10B1B5
BE0914CB
3D6CC815
BDC63680
BE006170
3D361048
3CABDD08
BCD25EB2
3E56DDCC
BD6BCCE8
BD644D8D
BDAD9E29
3E82F7A4
3E547244
3B7D3951
3DA78C3A
BE6EDE7C
3E1EFD13
3D68D4C6
3BE22BAF
3E8E17AC
BD99D11D
BDB1023E
3E01DF45
BD6117E5
BE4F19EB
3E61F373
3D1D78E2
3DD2A93D
3E6E086B
BD352089
BE32183D
BE46CAAD
3E3ED356
3D6FA57D
BD191720
BE3053CC
BE2A36F4
3E36B2CD
3DB214D1
3DAA8938
BE02B6F4
BE21D69A
3C891466
BD5A4DEC
3E1186F8
BD8F331D
3E0D469D
3D18ABC8
3C2F820E
3CDDD75C
3CF1A1B3
BD87D6BA
BDCDBA24
BADA417F
BE1F6055
3D2D7F32
3D659BE9
BD4ABCB5
BD0C1D8D
3E28CD41
3E2AA2E1
BE2E0B2E
3D332BCC
3CCC03D4
BC9679CF
3C0E9FD6
BD5CFD41
3D55ED7D
3D7018D2
BDB9D8AB
3D240CD8
3CA62604
3C42A3FF
BE04B487
BE200F7E
BD9D1A17
3A53450C
BB2EA499
BE6F900C
BDAD144B
BDD50FF3
3E78BB2C
BD6102FD
BD9B4419
BD886886
BE20E2C2
3E097DCE
3CC39434
3C1B27D9
3E09387B
3E23B217
BDB39017
BBF2C0A7
BCE66CD7
3CFFE3C6
BDBB0685
3D471CCA
BDEDFC1F
BDB1027D
3D8A62FD
3D7D012D
BDADFCC7
3E20E009
3D59EB91
BD37F98E
3DAB35E6
3D48A203
3DCB94A8
3B4B5F39
3DF8066C
3E34F965
BC7DA72A
3DCD2553
BDCEB942
BDFED4D2
BC82CE11
BDDBB63F
3D766D5A
BDD669A1
3DCB0001
BE98DA93
BE2B7DEA
3E3159D7
3CA492F7
3C5760F0
3E0A910F
3E004415
3DF74C61
BE1659EA
BD93C815
3DEC24F8
BDF0756A
3D0C7BA7
3D9E61AA
3D23082D
BE4BC708
BD9F444F
3DEA08B5
BE1F305B
BDC90030
3CCC3EF3
BC4A5005
BDE26E21
3CF184CD
3E158A8B
3D23CC40
3D9D1637
3E022E7F
3DB79761
BE847D6D
BDF560E0
BE02707F
BE231092
3CBA213E
BD5DE975
BC766B21
3D03F862
BE2D99C8
BC2F2547
BDBD7B90
3C422000
3D404D6D
BDEFAC4F
BD12F01A
3D9776AB
3D1F5A18
3E59497C
BDE9B298
BE12ACEC
3E04A18F
BDB4C9A7
BA590F7B
3E035F3C
3E6D8417
BC88FBAD
BD88083D
3DBC46C4
3D15C7C0
3DD75D7E
BE096222
BC0C7458
3DC02617
3DD4B854
BE222CA1
3E24B094
3E2470E3
3DF63492
3B588EF8
3E0A35BC
3E64E110
BD872CED
3E3F0089
BCFD29DC
3D0A6D47
BDCD5B6F
3D690D9D
BD395FB0
BC6CAF4B
3E040D8F
BCA7DFDE
3E076FE2
3DF3657B
BDFCD717
BD14815C
BDF379AE
BE017748
3DB7F899
3DCC64B9
3C3B3388
3CDC3AD4
3DA1B8F7
3E4A568C
3CD96E76
BE83D96B
BD2E37C6
BD025D90
BE6931AA
BC392220
BDE86446
3E0B88B4
BD040C16
BE50F0D9
BE26082F
3D946B76
3D7795A6
BDC0503B
3D8DD3F7
3E315D03
BE230140
3DD50219
3D8ED935
3D889353
3E5575C6
3C1404C5
3E65E6F6
BDE5D74E
3D81068B
3D9C4567
3D15F0D8
3CD65272
3DF3D2A1
BE1AA815
BE344D6B
3CD8D80E
3D9CE822
3C302948
BBA0BAB6
3E5C5285
3D385620
3DB694AF
3DCA1782
3D1D006C
BE36B115
BD4A2A5E
BD1A7572
BC87EBA7
3E2E6561
3C113F02
3E0CCEA8
3DF62F04
BDA95511
BD7B158D
3D0F39B4
BD167BE3
BD922DB1
BE06C81B
3D159068
BE4F2718
BE3C5C30
3E1B1B4F
BE3C22A0
3E309A51
BE0E5A1E
3CC6DE5B
3B68EEEC
3DBC947F
BE80878C
BD18DC7D
3E3D9E4A
3E3C693D
3E166683
3E428C32
3D96893A
3D3AF5D2
BE35E90B
BB24C094
3E29A04B
3DB43647
3DAF4347
3CD3D997
3BC5B3D4
BDA30A1E
3E4F4EE7
BDAEC3FB
BB5564CC
3E2C725A
BDF2DAD9
3E2DEC69
BD09952A
3DBE1243
3DFCD50D
BD07DF1F
BE201E7C
BDD99CF5
BD725CEF
BE3EADC7
3DA5C5B2
3E7107B3
3DEE5CBF
3D485CAB
BE559E88
3DDF53D3
BE968D44
3C8D93C2
BD4FC10E
3E26A474
BE354F9B
3D7A0E8F
3DC1A8C0
3DAAE8BB
BC375130
BE1DF06B
3E13F3C4
BCD50FB2
BDA33FF6
3E9D8644
3E178817
3CF00BEC
3E2BBBF9
BCA11A01
3E5FE66F
BE395E5D
BD9BCF57
3E220968
3C2F3E92
BCE0A3FF
3DE9C56C
BDD7356E
BD0D8943
BD82FB1D
BE0D7497
3E64C48D
BD95F569
BE0CFCDC
BE2CDB3D
3D97AA62
BDFB32C8
BDDE2256
BE9ADE9D
BDC827A7
BD000318
BE2AB918
3E508FC7
BDD3ECBB
BCDDEC34
3E641762
3E2522FA
3E5B3086
BD885D08
3E001043
BC40029A
BE30CA7C
3CEBD1D0
BE126E8B
3D62A28F
3E6FC37F
3D14D40A
3DD80766
BE081C60
BE2BC56F
3C86F8D3
BDBA5DC5
3D8A2D66
BD9D95CC
BD6C41CA
BD61C9D7
BD8DD5B1
3E098DE2
3D913AE5
BE4B0016
3D025738
3D5AEA97
BE47C23B
BCC0FEA3
BD94FE21
3DAF9E82
3E342D11
3D44588A
BCB87730
3DFADFBA
BDFD91DB
BD0AC800
3D5B687C
3D4E2778
3E0C9707
BCC831DD
BD83D045
BE17ABC7
BD648F9F
BE457B62
3DCECCD6
BDE02585
BE0DB3FC
3DAB1267
3DD29FA9
BD573C7A
3DE96950
BE1A7F63
3DB8BF41
3D4D09FF
BE0B5382
BE18604A
BE10A972
BD22362E
3BD9D39B
3E2E3783
BDDF77CD
BC52BB59
BC5D7591
3CC95A8D
3D684833
3E1EFF13
3DCDD5F9
BE80FBB3
3D0336F2
BCC86CFC
BC978C29
3E4D7608
3DFEDA7C
BD1AEEA6
3E146FB1
BE44E795
BE4A6A8E
BE27A10B
3E33295C
BDBA5671
3DD84682
BE68B958
3DEBB629
BDE92EA2
BDBED485
3E0EA28F
3E3030A3
BE317BF5
3E3D23EB
3CEE4FE4
3D8E5290
BDFBEA2F
BE28B297
3E021DF5
BDB9DF52
3CBA56C3
3E2B5496
BD54204E
BD39104D
3DA563A3
3D9498FD
3D8DD8A5
3E54094F
BE02D7A9
3CE5A6A3
3DC4056C
3DF8D5EC
3D98953E
BE2E5F7C
B9ACF3BE
3E076B4E
BD492471
3E81599C
3CD5A127
3E4ACD87
BDD29F24
BE018880
3DD4D18D
3D46B137
3E11F36B
3DD46EE4
3D9A7FBA
BE189C57
BC43D949
BE595CDD
3E0A186C
BDF0C2AE
BCF84729
3D833E85
BD21409D
3E58119E
BDB9B537
BE640CE2
3D9C4AC7
BDE0D740
BE3129AB
BE4614C4
3D726791
3A87CA64
3DB889D0
3DF1AC75
3C42EBE3
3E32B77B
BDC700CC
BDD12803
BD8146D5
BDE6C3A5
BD33FF49
3D45C349
BE12B3BC
BD894B1F
BE01862C
BE4A4A80
3DE100D5
BE217F2C
BD781088
BD94A5A1
BDBE2C0D
3E507408
3CC70DB1
BD2C99D7
BDB21874
BD040022
3C6E291E
3DF35A31
3DDCA26C
3E3D2C1E
BE27C698
BD6E4C1E
BB23FD76
BDD63EF7
3E442A3C
3D273FE8
BE7C6D13
3B34B224
3DE863F7
3D4FE8C1
3E210709
3CD347D1
3D031338
BCC8A286
3DCF8A4D
BE24A41A
3D5A298A
BE22A7FD
BE24FF13
3E2FF573
3E848D27
BC489550
BD61414E
3DBF034E
3E5F8B8E
3D9F7B7C
BDE5920C
BE234016
3D92513A
BD13C55A
3E70556E
3CDAE193
3E5CF382
3C7411A0
BDA542FC
3E247F2D
BE55110F
3E4ABB77
BC868F76
BDA138D0
3D83ED88
BD42893A
BDB900FB
3E689BA6
BDC39436
3E8AB360
BD9E5354
BD57B28C
BD4CA725
3E890EC3
3CD45943
BD5DACE1
3D036A83
3DA0F83C
BE9D511D
BDC9B065
BCDF6561
BE42813C
3D73575B
BEB619A6
BE2B20ED
BE5063D1
3C894C7A
BD05FB98
BEA24D20
3DF3B8C5
BDFF73C6
BDF0C061
3E2A0DB0
BDA6D941
3DBC7BCE
3E226489
3DBB4B13
3D411EEF
BE333556
BCEDB4D4
3DEB7983
3E64867A
3E167F63
3C205D63
BCC662FB
BDD894F2
3E974000
3D0631EB
BDDEF553
BD6CC32A
3D561771
BDDF48B8
BD4D3DB1
BE97CCE9
3D302B21
3CA5C75A
BE144B1B
3D35DA6D
BE3EACFC
BE1365CE
3DEC3951
BE1CEAD1
3DE0AE06
3E2BE33F
BD83A8BC
BCCF0160
BE18FEEF
3DC910A3
3DBAAF41
3E369630
3D435644
BD1D2D6D
BE21E249
BDBD952B
3DB3EEB3
3E47F9D4
BC8DA6A2
3CA622DF
3DDC7875
BD89083C
BE038614
3E098797
3E25BC72
3E30F8D7
BDA95E89
3DB7B23B
3E29E204
3DDAF489
BDD5FB77
3E384835
BE0846BE
3D943D45
3D67D8B2
BE1B1C3C
3DF6B271
3D948F48
3D8F26B5
3DFA31E2
BC0EF6B3
3C8FAEF5
BD132F90
3E206337
3E19A64A
BE1A26E4
3DF318B9
3BED5B38
3E193998
3DA6DD1B
3BD7930F
3E02A27A
3E23EC0A
BC6C9DCE
3DBADCC9
BD97D313
3DB79CF8
3D33E49E
3D93623F
BE2BFB7C
3E14AB03
3DA5B3C8
BDC62C58
BDD62375
3D715E14
BD997552
BD591CBF
3D1AA146
BE0D27C4
BD5E58DE
BDDB4E2D
3CFF5BB0
BD378DF4
3E27BC18
BE14277A
3D660CCF
BE166A9B
3E44B068
BDCCFD98
BD47435E
BE4B6CE8
BDF496E7
3CD31003
BE4452F4
3D990D7F
BDB1868D
BE19DA01
BE1E32AC
3D9DEBED
3E03AB2E
3C06B8A1
BD8E37B1
3D08EF68
BE5A51FC
3E262152
BD58AA69
BD67DCB3
3B8DA215
BDE5DFAC
BE3A764D
BDC517F4
BDB338CB
3D0EC6E5
3E08ED89
BDFC52B7
BE3DCC2D
3C2000C7
BDCAA443
3D882217
3B9FD532
3DBC702A
BE236215
3E11CD54
3CABB103
3D372EE6
BE099BD5
3DFB6530
BE56707B
BDE74786
BDC2368E
BE18925D
BE8A334C
BE5ADCA6
3DB6827C
3E005252
3E567643
BDC629A7
BCFEE38B
BDD7C1CE
BD658B7D
3D92996D
BABC21AF
BDCADB7D
3D4A3B32
3DD330EB
3E1081A6
3D558F06
BE6D9352
3E292E88
BE21AF87
BDBB82AF
BD42FB4D
B7963D6F
3E535E4E
BDD9353F
3E2C2109
BC571AA4
3CB53292
3DFC853F
3E02A79A
BE96A206
3C2746B6
BD7E64F3
BD53AF24
BE3ABCB1
3E4626FF
BEA14F15
BBE008EA
BDC9CF93
3D31A41F
3B661ED8
3E205311
BE75B64E
BB3636B3
BDB72FE8
BD7AE1E1
BCBFCA0A
3E0D0E1D
3ABA707F
3DCC1243
3CB7B8C4
BC66C1CB
3D9C8C7E
BCAF258D
3D7E3BEB
BE2A9C32
BE1B46C1
3C8D77F3
BDD44E88
3D822B82
3D9ED492
3D59C2CC
BD9D416A
BE1546AE
3E2C1B20
3E3A4555
3E3D6DB0
3D9DD824
BD85FC6E
BE645B38
3E6C3B24
3E03345D
3E374A9A
BDBA640A
BD84F131
3DD25956
3E2DFCF7
BDEF8DFA
BDADB35A
BDAACC93
BD0A31A2
BC255834
3DD06954
3DCED4CD
BDA50686
BE2A533F
3CA15FA1
3E0E810F
BE29C47C
3C5EA4DC
3DBB111C
BDFBB2C4
3E13087C
3D73B918
BE4EF73E
BCCFCBFB
BD7FD24E
BD16A701
3DA99342
3DE8E77E
BB9F5D12
BDA9799C
3E088318
BDD326D6
3E2D3191
BE21ED2F
3E409009
3D074FBD
BE0B136D
3D92675A
BE2CB3FC
3D6F3EAD
3DC34212
3CB70870
BDBDAE82
3D03FF94
3C6706CA
3E07FF41
BDE2B9A1
BB1C60C9
BDFAF39D
BDA9AAC3
BB71D61C
3E81635A
BD8D7CA9
3CE474FF
3D16D180
3E505382
BE14B171
BE004594
BD4125C5
3E0B029D
BE3B09DE
BDEABE20
BC4D8B64
3D8E575A
3D962FC2
BC709839
3D6EE4A5
3D24CD19
BC8624AD
BDC648C0
3D613F73
3BA17571
3E4DF0B6
BDC8D8E1
BE20E339
BE05460A
BD510546
3DB07D78
3DD8B367
3DCCE1F4
BDCA2C93
3E000EFB
3DD77AA6
3E24BDB8
3DA39462
3E35CB44
BDBD6993
3E0CA2F6
3D682535
BE14C0DA
3DD0C12D
BD928BEE
BDD5837C
BD9AC7ED
BD3EA30E
3E39AC46
3D16E641
3D9B4767
BE164FCC
3C92F29C
3DC515D5
3DF7F42B
3E2B0E03
BD705012
BDB17909
3D39F490
BD135776
BDB4FE09
BD725C20
3DBFA6C8
BC190123
BE0C9A88
3E10C0F5
3E6F28AC
3E05F6CB
3DFDB5F6
3E1E02EF
BD94698F
BCD5094C
3E3FB86B
BE022C85
3D91517B
BDBFA6EC
BE4408FB
3D04849C
BC811F1A
3B7E9115
3E222AE2
BDA2AF10
BE0BA9A7
BE2C7826
BCD69B48
3CFA8D90
BDD238B5
3E58683B
BDF75A11
3DDC117E
3E3D7954
3D66CCC3
3DD6ABDC
BC943AF5
3E07DADE
3E4BF953
3DBABFFC
3DA8C426
3DFE9F69
3E7735DC
BD90434C
BE66A0AB
3E4C1D23
3E08E5FA
BD96D655
BDE204B6
BDA743C9
3DC7BB76
3E46450B
BC517589
BE51142F
BE12E663
B46C3924
3DF19220
BD6BA63F
3E2F52D0
3E0F21A7
BD82EDB5
3DB5AE82
3D806A22
BE04FBB3
BE0A60CC
3E1E5DBA
3C66A7EA
3C49124D
BE3BE954
3E2CB275
BDAA0623
3DCA4F9D
BE33B13E
3E3D52CC
3E28B087
3DAD4687
3B774AFB
BCB97E61
BE40C468
3E40302B
3E0134C9
3E366C35
BD535D07
BC49D4A0
3D21710F
BE0270AD
BDFBFD51
BD56BE0D
BDD39CDD
BD114882
BE4AAAB5
3E17D93E
3DFF3F68
3CE68179
BD14CB99
BE0ECADD
3D1F5FD2
3DD4889C
BE55D221
3C1FA2B3
3D518B4B
3E3D86C9
3DCCFC4C
BE34C025
BDD66F25
3CE87CC6
3D1BE5B4
3E0B2DBD
BC9C2743
3D4B758F
3DD4E1A7
BDB4CD50
BDF9CFE0
3DFF5FF7
3DE3190B
BE0BD4F6
BDC068AF
3C79AC34
BD851DE7
BE0A6ADF
3C89709C
BD4C6E22
BCC633B1
3E1A47DE
BD929126
BE437007
3D0FBA1A
3D4F32F3
BD1D7AAF
BD3A8D90
BCACCAF4
BC190783
3DB14DF3
3C8CA941
3D09DFE8
BD9B98DD
3D08508F
BDF9B389
3D2E9ABB
3DCC1C33
BDF97DCD
BD21038E
3D8F9675
BEA1D76B
3DE73A0E
3E854049
3CB7ED2C
3E2F3148
BDE1A86B
3E8F6309
3D289F23
BE0D8979
3E02234F
BD310863
3DBACFCA
BDBDDF4C
3D0E40E3
3DAFBA77
3C3AB59E
BCB7E6E2
3E439217
3E501471
BE0CBA51
3E1F3ED7
BE2ACE00
BE05DF65
BE163826
BCA03A98
3D98616A
BDA23D30
BE15CB1E
BD3A0CB6
BE1FF210
BDBD11CD
3D17B589
BE6F174D
3E740829
3DD27715
3C8D5731
BC626C3C
BC94052B
BE324512
3D331B93
BB206134
BE31F850
BCDDFA87
BDBBBBE0
3DFFDF12
3DFF6074
3D87BD9C
BC1D50BE
BD749655
BE23A908
BE2E8D23
BD9B451F
3CB8D5B4
3E3156A1
BD3CC220
3E243315
BDBF108C
3E2691C3
3B4A7026
3D8610A8
BD418EF6
BE692FE2
3D079924
3DDEB6EC
3D6CBA89
BD27486E
3E2537C8
3D81339E
BD65E908
BD96F9C6
3D3F75AC
3D476C56
3DF88102
3D816AA2
BE30EEFB
3DC66513
BC49C77F
BD6A67C3
BD4A5630
3C6EDB35
BDF9F9E1
BDAD4F9F
3D5E68F9
BCDD6D33
3CE60B8D
3DA7BD94
3D35574D
BE23BC7B
3E06B2D1
BE170649
3D23D78B
BE2A56FA
3D9119C7
BD1AA5D1
3E1E9DAA
3E06C761
BD6DB45B
3E276C8D
BDC012AB
3E2A1791
BE064626
BC6EC321
3E103AE6
BE2309DB
BD8A150D
3E208736
BD665CD6
3DA4363F
3E28C0AD
3C307508
3E24F741
3C89FBA7
BC33A330
BE1DE397
3DC05F35
BDDEC7A4
3E1EA705
BE0FC3D7
BCE73E6D
BD6CC42E
3DE1F2D9
BE05A9FD
3DA75A7F
3E2D629D
3C9BE7D8
3D5E64F0
3D40DA99
3D3996F0
3BAE8F60
BE0C0BF6
BD486CE6
BD05A2B2
BDFE02B5
3DF92473
3E178D15
3DE840EE
3D1B1B6A
3DDE0EB2
BDCB354F
BD1DAD98
BE2B9025
BCA89DDE
BDF8C7CD
3D19C299
BC8E9996
BCD5CB79
BD91AA07
BDC2CE62
BD0D3222
BE12BC20
BC927BDE
3E6A775C
BD8500B7
3E0C35CD
3C4B4B2D
3D31DEE8
3C44C211
3D031935
BE037DFF
BCA5B48A
3E03CC56
3DE0DFEA
3E5AD367
BDB140E9
BD541B66
BDE94E2E
3DD95AD0
BDB945B5
3D97BF8D
3DD4E7D9
3D89E03D
3E31F240
3E21BDCB
BE6D428B
BE04F99A
3AE7CE5B
3E357B30
BD3DC855
3E4719D2
BD9C6508
B96730A6
BDD10F89
3E2FDF87
BE074A10
3E1C94B5
BE208CD2
BDC13BF0
3DB74C78
3BCCE099
BBBA5F0C
BD479FED
BE0F17DA
BE036EF5
BD02C33C
BE1AC723
BE3BADC4
3DE3AF18
3E248F71
3DB3D788
3D2A2E62
3D4ACDBF
3DDEDD0D
3D9386D7
3DD6E3C9
BE35CA0B
BDF5DC3D
BE22F300
3E61FCFB
3E2D5779
3C38BF39
3DD6BCDA
3D3D0FA8
BDFCA0B5
3E437FA5
3E0E5DA0
3DFC35B6
3DBEC89D
BE096952
BD27CC27
3E03EFA8
BDFD1476
BD87002C
BE0C5448
3C92A00B
BD336A68
3DCE67F6
3E043061
3D8ABBF7
BE1A37EE
3D8CEAEE
3DC9F63E
BC19F8A5
3C913C8E
3DE12155
BE3DAB25
3D350E45
BD2318BC
3D8704FF
BD9A3B44
BD624103
3DD84B96
BCB30881
BE4EDBD9
3E641D47
B94F607B
3D35312F
3E39C3DA
BC324F33
BD968F45
3D8371AD
3E813451
BE10B53E
3DDC5F5E
3E42D69C
3E50E101
BDBE6839
BDE59ED0
3C569F49
BDB964BF
3C16383B
3D54E4AC
BE714C79
BE0FE281
3A0EC022
BDB3FEAE
BD106CA2
3DF1FF4D
3C9305CC
3E13601E
3CAB36AA
BC35AECE
BDF62B38
BE273985
3DF2300B
BE64BC45
BE6D14CF
BE835696
3D40EFA4
BDE426CD
BD5C3525
BD03CE06
BD575343
3D9DAD37
BDB95470
BD4183E9
BC93AFAA
BD9F2DF4
3A7E9CD4
BDB9A460
BCCFA864
3D60C997
3E20B562
BE3D98BE
BDA9F5F4
BE60F564
BE156346
BDFAEC41
3DD0C69F
3DE4877C
3E4F9484
3DCFA632
BCA93A56
BE85ED21
BE1EC101
BC91270F
3E0AD6FB
BE6F2D8E
3E11E79C
3E06AFB0
BE1F6EC6
BD81992C
3E2ED769
BDD6EAC2
3B496768
3E32CE4C
3DB0349A
3E0B22B3
3D4E8950
3DB119A0
BC6F1B56
3CF1402F
BE3DA0F5
BDCCEC8E
BD7E5E0A
BCF6ADF2
BC7B3830
3DA29584
BE338039
BBFF1991
BDD8F8E2
3DD97F9F
3D6A1F0D
BE046459
3E4619E5
3E16605E
3E2A7A75
3E804C8A
BE46851B
3E0EE70D
3D8D9080
BE103C7E
3ADF9ADB
3D093830
BE951FCD
3CC453D7
3DCA67CF
BE8BDA49
BD32253E
BC96F9A1
BE4C36B0
3BE0AABB
BBB1C8BA
BBBF29B7
3DBDC85D
BDDDF5B2
BE305C74
BE33308F
BE178368
BDC854FE
3B81A8F8
3D4D3DA9
BD702D14
BE0AC24F
3DC0C433
3E1532DA
3D9D52EC
3E5B7892
BC8D8341
BE0243F0
3D2A1F4E
3D09D31B
BD9E5AE4
BE3914CE
BC9673EB
BE1DAFC1
3E559847
BE4ADC19
BD961E53
BDBE2236
3DEA8CE3
BD6526AB
BD1939E8
3CB8C41C
BCA5BC17
BD1D6B45
3DA415F6
3D3D58F4
BD591479
BDFEA268
BA35C49D
BD222DFB
3D8AB65A
3D02518C
3C99067C
BD7E9077
3E0DD31D
3E34EA6C
3E260A42
BDCDBC66
3E326FC6
BE25240B
3DE352C0
3C8B6B33
BE2086B0
BE0613DA
3BF8B35B
3CD91748
BE3AFE8F
BE7C7EE5
3DEC9712
BCCFEE0F
3D32F1DA
3D9B38C3
BDC6FB29
BD47226E
3E1D0338
3DA07720
BDEBAE57
3DAC473A
BDD1123F
BE2D9F3D
3E3CD666
BC031BC9
BE2FA7C6
3E200C93
BCDF8ADA
3E0EB91D
3E1B95EC
BE14E7E6
3CA58E5A
3E4B14CC
3DB514AA
BE6FE8A0
BD32C623
BDC7C6A9
3E0EE276
BE2D3356
BB5D5F97
3E4005E2
BDE6EA66
BCF70EE0
3D0FFCCB
BD6F5B0C
BE0A74B7
3DD8AA4D
3D3E4AD7
3CDF3A93
BD9290A1
3E26A83D
BE6426EC
3E81C4A0
3DD27993
BD31F81D
3E42A7BC
3D59B360
3E421B13
BD4434D6
BE1294E3
3D51D471
BE1C3F70
3E11622A
BCC2F7E7
3E03408A
3E357F37
BD43D2CB
3E30962B
BC6F558E
3D118ADD
BE04397B
3E0F0401
3DD1979E
BDF3A511
3D883A23
BDAEDAD1
3DF308E7
BC41894D
3E0E621A
BE62E5F5
BD9458A5
3D739F5C
3D616299
BE657F0F
3E2E9EB6
3D4D3382
3DCB43F7
BC07BD64
3E019C45
3E3EFF6B
3CA17A84
3DAF4ECC
BDD78E1B
BE077A4F
3E99C0EA
BD06CF57
BC6C1FCE
3E2D17FA
3E60CFF7
BE264A40
3E593BB8
BE6FACBD
3E01412A
BE0D0DEA
3CCEA29B
BD981730
3E37A85C
3D397829
BE022C54
3D9EB61E
BBB83D9F
BE3CA4DD
BE0DA51C
3DFBF268
BDC1141A
BE712F6F
3D209175
BDD29D91
BDA04042
3D9ED5E9
BDCC8830
BE1ED3E9
3D5BDCD5
3E16C261
3CD8F351
BDC7AA55
3DF21CA0
BE15F00D
3C98E17E
BE77616B
BDB9205C
3DF8D134
BD7D2265
3D9C97BB
3E2F054D
3E73CB45
3E35CC1F
BD999439
BE60799F
3C774C27
BDD6C125
3D3D63C3
BE1B447E
BDE0CD73
3E2CE667
3E0527D7
3E135FF0
3DC73E7B
BD2D77BD
3E444875
BE2245A6
3E22CF56
3E5710EB
3E40058A
3DC95F0C
BDEC3F18
BC1B0B74
3DAE3834
BDF440AA
3E035956
BD28E1FC
BCEA8E34
BE17C7CE
BC1AE6EC
BDDEDDB1
3D033B10
BA82705D
BB7770E5
3D9DF2CF
BD7F5429
3C5CB375
3D91AC69
3D68C628
3E144B71
BE1DE61C
3DC7E93E
3E0EC11C
3BAB43D1
3CD77ED2
BCFE9EF2
BDD6B70E
BDACE7D2
3C3FD7DC
BE008A34
3E4F7823
BE450C30
3DF0AB1D
3D8DF3CA
BD9AFCCF
3E0FC591
3E163635
3B245D6D
BDA5AA71
BE144BF1
3D9919A4
3DC46CA9
BC329A06
BE909724
BDCB434C
BE0FF84E
3E438820
BE01145A
3A514F13
BE50656F
BBC79718
3CC8D887
3D0295DA
BB181EC5
BD2066B0
BDCB15CF
3C1BF000
3D975B5D
BCB0C1A4
3E139848
3DA4FF08
3E261B72
BCF50607
3D364BD7
BE1ED299
BDBFE61A
3E180DBD
BBD31693
3E17CBA0
BCB0FBD6
3D2E0B36
BCC13FDC
BDDD32F1
3DA3E6B1
BD485650
3D635814
3BE5C5ED
BE267CFF
3D147268
BD2C7905
3DB78174
3E1F33AD
BDD8262E
3D96313F
3E0E1043
BE04EBB6
BE6D7E2A
BE4A36D0
3E28C1B0
BCB45E01
BE5A6A6D
3D58C15A
3D41F3D3
BE316275
BCB87654
BE60C0F5
3D6A3E80
BCDA4BC1
3D3E00DA
BCBAACCF
3D345E2E
3DE392CC
3BEEA9EC
3D476105
3E4AAFDA
BE0D7175
3D0A2B5D
BC3D81D6
BEABF0C9
BDA8E11D
3E55ADB6
BCD89F49
BD4715BE
BD35C303
3D989B55
3CB0B910
3D4ABC6F
3D04B732
3DA77E4F
BD8AF26D
3D0700CE
3DED3E64
3DE1966E
3D611ED9
3CB4DA48
BE0BC395
3DAC7EFC
3DB95023
BE135C1E
3E0CEA05
BE5ED621
3DD22AA6
BC471F99
BDA707A6
BE12EB0A
BD897CF7
BDBD1198
BE1E793A
3E7610F8
3E40E82E
3DFFA731
BDF188FE
3DC68AF1
BDB8372D
BBB1B788
BC869134
BD888C8E
BC613CB1
BD651A61
3DC969C5
3D801F45
3E1AEA2D
3DE49140
BD851D0E
3CA48820
3E06EE9A
BE307791
BE417FD5
3B1206A8
BD8E7F2A
3DEEB1CC
BD4B3741
3D86AB06
3E2A43BE
BDBC10F4
3D4632FA
BE0BDCAA
BDA470C2
3D8D9F7E
BDB50A0C
3E171472
3C7C66D9
3D339FE0
3DF6FAC3
3E420F77
3E2BB3B5
BD5BDDC4
BDF1050F
BCD4471A
3E3641C9
BB9C2F76
BD8BB18E
BC72F0E3
3E5A0888
BDD682E2
BDB92FD5
3E14CD56
3E1D5E41
3E0336BC
BD7C8E49
3DC3F50C
3CFA6135
BE0EA38D
3E100C6B
BD496E2B
3DDF0C84
3DE90CC1
BE144BF3
3DC49EF7
BDC1F3F1
BD7AB3E6
BE0387B0
BE2B5D41
BDC0DE8F
BDCB08A9
3E237790
3BDF6642
3D5E6BE6
BE222B1C
3E194B5F
BD3A4FCA
3DA0A33D
BD4EB0A0
BE280281
BDC49B84
3DC409E9
BDB0CD44
BDF062D5
3D9C32DA
BDBA054D
3E089193
3D4AA911
BC0889F2
3B3F8917
3E077735
3DFEB1EB
BE12438C
3DAB5E8A
BD9A5F54
BB2D5D1B
BD9C487B
BD10BFB3
BE009A3A
BDC728AA
BDF3DA90
BDB8FCDF
BC982EEB
3DFE7628
BC67AE65
BD5AE859
BDD14C8E
3D9C1C21
BD1DD568
3DBE9005
BE1D88EA
BDCDE299
3DA9405E
BDAA82B3
BC11FDB9
BE22FC20
BDC9BDC0
BD0A6FB5
BCB0BB1E
BE213C97
3D24B150
3C848D48
BE02C8F1
BDC88141
3DCE0CF8
3D9D051D
3D6E79F6
3E17BBCA
3E321FC7
3D7719C2
3E1D11F7
BDDA30A6
BD032E30
BDEC685D
BD95CA56
BCAE9D47
3E21CE30
BE9051CB
3E1CD708
BDD5C2A2
3D8A7F64
BE055E4D
3D0DAAC9
BE384C19
3D5965A7
3D8E753B
BDA31267
3E5F4EA9
BE0D20DC
BDC90980
3BF105D2
3E0D1BE2
3CFEB796
3C981D88
BE458C34
BDCDD7C3
3DE6FE34
3B9E01F4
BE646775
3B1EAC53
BD0D2677
3DAEC59C
3E1E387E
3D866E38
3E101C39
3E1B5B81
BDA495B5
3E540BD2
BE5618A9
3D3E64DA
3C666CFC
3CA54468
BD4893EB
3E1DEA3B
BE56ABEB
3C211A6C
3DEFA787
BC93DEE5
BD4E287A
BCD4F29B
BE0B2DE8
BDF4DBFE
BE27A7B8
3D18EC32
3D37E207
BE3068B3
BB9ACE0D
BD69E1BB
3EC10580
3DBB7297
3D9CC44A
3C3C689C
BE218A2D
BE1D75F0
3D8230B2
3DCD077E
3DC8FA91
BEA0A604
3DD6FD46
3D35F418
BE2CD5D8
3CA2C9C4
3E2F6012
3DA44286
BCC22B6E
3D92A60A
3DC797B1
BD1C3A28
BD845F63
3DE822F3
3E2EF8B1
BC853B5E
3D64D85C
BA254D82
3D8B9CD7
3E0232A9
BE052D51
BE08F020
3CBABC7A
3C1A2FED
3E076FB3
BE38BAA1
3D2527E0
BE08F11C
BE67F5B9
3D772FA5
BE44E4B6
BBB4A980
3E1292D5
BE50C960
BD8CBEBE
BD32B98B
BDABE82C
BCFF6AAF
BB9BE87E
BE065094
BDA3BA8A
3E48FDB3
3E6E3BAE
BBF80AA9
BD688001
BD9B64E8
BCBC5FAD
3DA8CFDF
3E322183
BEA8B50D
BE783E71
3E86BEAE
BD35AE55
3CCB41B2
3E1FA9B5
BE350F20
BE15D299
BBC2AD0E
3DC22021
BE4B27B8
3CCD1D24
3E3C8AD6
BDED8976
3DBDD9EC
3E22C4C7
3DED0F40
BC72BDA2
BE795A27
BDEDBB47
3D7527E0
3D9B2234
3E52AE03
BE04998E
BDFDA79D
3D492DCE
BDB27D75
3E37DD32
3D5E44D7
BBB08498
BDA26491
3E2A52D1
3E823C47
BC27FC69
3E11B0E6
BE242E1E
BE08A087
BE18B78C
3DE1DA59
3E5ABD71
BD725684
3DE3069F
BE0721DD
BDB7C9A3
3CA88F0B
BE495C30
3E168B80
3E2052FB
3B395A7F
3D2318C1
3D60E8B3
3DF69D00
3DAC455B
BC2E7F5A
BE21383C
BE64AA19
3E89469C
3D983A64
BE34BC69
BD8B373E
BCEED1BF
3DE555D9
BC0F55A9
BCBFDF3E
3D26CD64
BC8ABD0D
BE1F1B4E
3D3D4901
3E81F6C2
BD9F1D39
BDC82B56
BC23B96E
3E405FC5
BD165CC9
3E870404
3E8B0BEB
3E43864F
BD277659
3E2DBFF8
3D1C8CB1
3E86A73D
3D277F18
BE518A21
BE602339
BCAB926A
BD56D483
3CFD8EF7
3C0C54CD
BDB3BEAE
3DB36A8F
BD739C9D
BDF342E2
3DD50F73
BC64696C
BE04E8E1
BE941487
BE447D20
BE6A2DD4
3D060109
3CCBBF61
BD57DA7D
3C1FFCAA
BD2EA694
BC3FF315
BC975440
BE762DB5
3C707C14
BD9809D6
3E1CB9A0
3E3D38BA
BE0FAAF4
3DF3C4B7
BD8CFBD4
3DBB7060
3E9C9FF0
3DB54F1A
BD8042FC
3E11C928
3E1EA166
BD2F81FE
BE6F04B6
BDD5D14E
3E57218E
BE43AF05
BDD46E83
3DA4E2FC
BDECA9E2
BE19663B
BDF65BDD
BCB0F5E1
BE3D705A
BE4B6AC7
3C8FC713
3E16B0C0
BD9A2B8D
3E1B764D
3D5F3B77
3DB4A36C
BE88A039
BE32BFEA
BE5C989E
3E08451C
3D2E2453
BDDFB43E
BD762992
3DFF1626
3E4AC517
BDD06667
BD01AEE1
BE469675
3B62CF43
3CA2FF9F
BE2BDB1D
BE073750
BCAFA824
3DBD644A
BDA24115
3DBCD73E
BDFE76AB
BDDD4B19
3E21C29E
BC129335
3D646C06
BDA7EDA6
3D9858FB
3EAC0C4B
BD3622F2
3DB0626F
BC6D2DC0
BD27A967
3D46CB1B
3E144B1A
3E0BCC3B
BE0A7A03
BC1978CD
3CF275A9
BE2533A4
3E54D97E
3D74CE7E
3CAE83AC
BDF2C8DC
3D9EA1C3
BCD64343
3E22CA83
BBF35A40
3D671FDA
BD055E8F
3DE2F221
3D0FB1A9
3BE53E73
BD30B371
BE8C2FDD
3D28EE7E
3D4BCBF1
3DD97245
BE7C7326
3E35C45F
BCA620B6
BDCF17F1
BD17C61A
3E3426EF
3DB464E6
BDEC1800
BE2FCA1A
3E6ED96B
BDBA095E
BE106E11
BCA08D03
3DA87449
BE3CFA4D
3BB88CB9
3E3877A0
BD0F9094
BE1965B9
BDDD08DD
3DDBA50B
BDB3C9D1
BD244D1F
3E2C13D6
3D9274C7
3CF7ADCC
BDDA512B
3DEAB8F8
3E4D7463
BDE40290
3E7A4780
BE28EFFE
3DC778A5
3DDF2990
BDA482E1
BDF65B38
BD2D3D78
BC85C801
3E42880D
3DD5B092
BDC8154D
3D399382
3DB96E1C
3E17E558
3E3D74B7
3C7D5B15
3E077405
3C8176BD
3BC5C5F2
3DBF5DE7
3DADB635
BBF6287B
BD65B8BF
BDE04492
BAD88898
BE567D9E
BDB95342
BE1ACA5A
3DA17598
BD085E1D
3DD6C035
BD7346D4
3DD02E78
3D752792
3E11B549
3D5117CB
3DAC67A6
3E3FB623
BD8CCEDA
BCA1EB1C
BDEB9A63
3E23C903
3E3A959B
BC59336D
3D965FB7
BDE74ABC
3D591974
38C4B11F
BE4DE485
BE48F753
BD6578D3
BBA40808
BDD839EA
BD8A3351
BDED7929
3D953B2A
BE44A9AB
BD22056E
BD9A6C77
BE27CEAA
3DA8A5A3
BD9902D9
3E0AF30E
3D83C08E
BD811A05
3E209BEF
3D1407DF
BE53F90C
BE18C963
3D476F96
BDFEA31B
3A8BAEF5
3DBC3470
BB48B1E0
BE54C5F0
3D9E8B76
3E2571DA
BE7BA4FD
3E46E11A
BDB54B4D
BD4A6407
3D6F02C5
BDA8D337
BE3DFC4C
BE170C85
3E52B923
BDB1E281
BE0F9C8C
3D9C5AEA
3D6FBFE9
3DD8009A
3DFA71CC
3CF4E657
BD126352
BDCE75FE
3DC4C019
BE18D6C5
3E0AC176
BE27E754
3E02B5AC
3CF4D2FB
3E50F34F
BE10CA3E
3CCE9AB3
3D2308F4
3D4957F3
3E2482E4
BD90B893
3D7E285A
3E11F1B0
BDDE1A06
BDDAB3F2
3E2925BC
BDBEDDEF
3DEF6CCC
BE58B177
3E32866E
3C3BE99B
BD005AD7
BD4F023C
BDEBEC0C
BE44B7DE
3CCBC0DE
3D5CC5DE
3DACF234
3E04FF35
3DCE7E20
3CE6DBB7
3E36DC29
3E1652C1
3DE6F46D
BD8FBB70
BE0C5AD0
3C97B229
3DDF07E5
BE562CB7
3DCC7972
3D2F8407
3E180737
BD0AF102
BDCF855D
3E256F92
BDA495E1
BA7636A9
3DAAFC92
3E1CE628
3DC1B54E
3C7D60DF
3E0479C3
3DD80D7B
3E4CE558
BE8450FB
3E1A88CA
BE1AC8E8
BD87DD51
3D3B16ED
BC9A2301
BDCBC34C
3DF67E90
BE1CE8BF
BE18EDD7
3DD52A79
3D2434BB
BD2AED16
BD8880AE
BE2A2CAF
3DF2C4A3
3CAF15B2
3D28D534
3D2EADB0
BD603C2B
3D2E826A
3CD8B695
3E0C457A
BDD1DE38
3DD7342F
BCB825B6
3CEC3736
3DD10C10
3E41810B
BE524942
3E401F31
BDCEF89C
BDB32DAE
BE30FDC3
BAD6141E
BD0473C3
3DE08CBB
BE63F0E1
3E6B3B96
BCBA52CD
BE53513D
BE004D17
3DBD7D29
BD3E4DD1
BDC37BB7
BD98D03A
BE445623
3E4017CA
BBF2027C
3D2D0EAC
3DC66C17
3E3EF058
3E4A7B85
BDFE7263
BE65234B
BD9BE73A
3D1878D2
BC3B314F
BC8F85EA
BE0A3CF8
3D926C68
3D7A6102
3E084DFB
BE192101
BD44215D
3E18586E
BE1EFA52
BE0CC22E
BE6DECE3
3D44B2C2
BDB9026B
3E468BAE
BE1289E4
BD492FAA
3E823344
BE590E86
3DD51D94
3E14AC89
BD705723
3E0F80E5
BCF90397
3D93BFD4
BD8CC4AC
BD137624
3E128508
3D90A2EF
BA264727
3D863DB4
3E393185
3DE73A1C
3E1F7B6B
3D46F780
3E44AA9E
3E66141D
3E22FCFE
3E158E1A
3E0837E4
BC9D9A70
BDF6BD87
3DCBED85
3DAD6E71
BE407512
3C8FC5EB
BCCFA290
BDE0CA70
3DCCD778
3D5DFDDF
3D0B106A
3DCD14A3
BCB62236
BD881823
3E30C6C3
BDAA631E
BD00B6BC
3CF9FAE8
BDF87854
3B962607
BE0CDB98
BE1297A5
BCAAFFF3
BDD16EC3
BDCB812B
BDCB5320
3BE850E2
3E00F8C3
3E434859
BE4F7F00
3BDC508E
3E1ECB0F
BC83374D
BE11E551
3CA178FC
3DC41879
3DF8CDC4
BD8AECE7
3E33E7DF
BB881421
3E460764
3E0F2586
BD8E35AA
3D2A7E6E
BDB4C316
3D864AE1
BDA95605
BD0F2C93
3DEF1636
3C0CB464
BE3B7AEE
3E001F40
BDF2B2DD
BE91AC5C
BD9BB66D
BE2679E2
3D4443C4
B90484DF
BD9B6554
BD8DABB3
BE3D39D4
3E22AF09
3E0A0B9A
3B9E0EC9
3E3CC3FD
3E2198AE
BD472EA8
BD81E4B2
3DD7D4A2
3DC2C9C5
BDC3D041
BEBF1361
BE388005
3D29D437
3E4B0AB0
BE27AEE7
3E58B7D6
BE961DED
3D2BF42D
BE16C88E
BCA64153
BDB776BA
3E3F6BB6
BD559C97
BDB33384
3D6898C6
3E61DFB9
3C97080F
3E2A1872
3E4FB9EB
BE134F6A
BD3F6917
3CA4620A
3E4A4A3C
3CA654A8
3E476777
3E37A05B
BDEE262E
BE85C69E
3D6E779A
3D8E52EF
BE3A6F05
3E17275C
3EB4C6A1
BE024BDC
3E7FF8C3
3E431582
3E4253FD
3CF3DD42
3D3A8420
BE2867A6
3E8FA3CF
BD72C6BA
3E264446
3C873D6C
BCA82279
3D25D379
BD84B58A
3E659EBE
3D6B9B7F
3E68E968
3D2E0C68
BE17ED45
BD713329
3DED20D8
BE25B792
BDD6F12C
3E008A2F
BE3CB80B
3E435801
BE8D134D
3D67A6D3
BD604C76
3CEB18A8
BE02DB34
3D7F8089
BE02EFA5
3E0358ED
3CC896D2
3C15B2AF
3D4600C3
BE6840CF
3EC25E88
3D07D25F
BBA2ABA7
3E1279E0
BD75E6ED
3E4A2D4E
3D765BCA
BD2050E6
BE31CC3A
BCFA1215
3E748A4A
3E35819C
BDD68763
BDD074F7
BD56705A
BD63F48F
3D3D7FE8
BD57E894
3E6C3B1D
BD619E05
3DC38D47
3D87D257
3DF26FE0
BDAF0E93
3E5FFF13
BCDE5291
3DA6AA71
3DCBF873
BE7541A5
3DC51A8F
BE3FC7FC
BDC09F4A
3CDDEE22
BE0341B9
BE08A091
3D6A86CA
BD9CC36C
BE004EAC
3C03157E
3D100B81
BDD472DD
3D829AE0
BD101E0D
BE0C4574
3D162B40
3DDB0385
BD29C3C1
BDF48479
3E2766DF
3E148067
BD099EB2
BCE96EC4
3DE27604
BD5CDC0C
3DC11EC2
BE289290
BBE5C3EA
3D2D1D3F
BDFA9AD8
3DFB795E
BDCC2E41
3D16FBD2
BDBE8B0C
3DB9BF12
3B70DD22
BD16A1E3
BE04E442
BDF1B27C
BB8F861A
3CC0236C
BDFE7AC1
BDE68A31
3CAE9D5C
3C8BDF87
3E0BAF0B
BE09959A
BE0752FB
BDF2AF5B
BDD34536
BDFF68F9
3D91F59B
BC8465B0
BC89A667
BDA84413
BDA9E46C
BE221273
BBD1B224
3D275285
3DB541F0
3CC5E5B8
BCFBB3C5
3E21EA89
BDCDF6CB
BD1E3044
BE276559
BE2FCB18
BE291F3B
3E1EC1F9
3D8C9D8E
BD68F354
3DD4A4A4
BD4024CB
3DF34808
BE0CA6E8
BD44A5B4
3D9B1212
BDAFEDE0
3E1398A5
3D1E26D2
3D84DF96
3D99AF5D
BDAF9157
BDC7E133
3DF29B71
3D07073E
BD951018
BCAA2C2E
3DB4AA07
3DC84451
BC422BCA
BD956C51
BD0E4852
3E3E91F1
BDBE1186
BE872B4F
3CFCD2A9
BD284B66
BE19E6E3
3E7F2F30
3D9916DA
3DCCCF22
BE27F05E
3C38598E
BD1297DA
BD7DC528
3D9F4FC3
3D32452C
3E192A01
3E7622E1
BA982149
3DBA2D45
BDF503CA
BE1F9EDF
3993CBFA
3D6115A4
3E23903E
BD1EDCED
3C4F7818
3C639F21
3B3FBC99
3E310C98
3EAF74F7
3E7083A2
BD92E4DE
3EC0408A
3DD3E0A4
BE06578F
BE23BBCD
3D7E9BBF
BE1EA075
BDEF1FE6
BDD16BC8
3C2DBECA
3DB88830
BE4CD209
BDAD9ED7
BDE18DB7
3DE8AD36
BD82D81B
3DD0CFEC
3B592B55
BE36CB5F
3E176B78
3E8BEB86
3E760133
3D589060
BE587B60
3DAEE2B1
BDEA86BF
3DD2BDCF
BC8151E5
3E8D0F8B
BC05570D
3D828959
BE19215F
BC5DBC1E
BE5C275E
BC90A783
3E2ACB01
3D75BB20
3E1F4179
BEBA21A5
BEA02BCC
3CAB0A15
3BD1270F
BD5E69B5
3E94FD6C
3E4B78FC
3E7721F0
BDD37FF7
3DB6B215
3CA5C93D
3DE4DDB9
3DC89792
BDD3E690
3E2A32EF
3D0FC9C7
BE3DCB2B
BD9DDD44
3D4418A4
3E002CF1
BDE0DB6D
BDE42473
BE0C9109
BE373849
3D3E2AA0
3D1A70DD
3E2074CA
3E2051AD
BD1F30B0
BDD74996
BC836B9A
BDACA68A
3DD2F43D
3E00CC81
BE1C3DAD
BC1CB441
3E0AD1E0
3D987B3C
BE12C8E1
3CCFD890
3CA5EEAC
3E0A6B8D
3DFB1B6E
3D8E7830
BD78A083
BE2B0E09
BDE280EA
3E0F04EC
3C67C084
3E194CB3
3E013AAB
3D3C398A
3DB1B9BD
3DA2BB02
BCCA2324
BDA87ED1
BDBC601F
3E2789E3
BE3B4E77
3E0B452D
3E15F860
3D7C0C55
3E0B72B4
BDA26D86
3DA9FAB5
3D12A343
BD23959F
3D3AFA04
3E046BEA
3E48869B
3DE16461
3CCE47E7
BDAB702B
3D49C1E8
3DB56FF3
BDD5DF88
3D32F64C
BDA9F81A
3CA55AB3
3D837E1A
BE580827
BE18AB4E
BD84C6CB
3D8888A1
BE01ACFB
3D375BFA
3D03A259
3E3F7162
3D9D9A78
3E410B93
3E0FE1F4
3DCC1745
3E3E7E3A
BD6AE43F
BDBD1C3D
BD01898D
3E4B5E45
BE3405C6
3D49A90E
BDA6A3D3
BBA1FAA7
BCA062D1
3E4E437B
BD714CE7
3B9AAD6B
3C7074FD
BDBB1246
BD95CF06
BE299F8A
3E731355
3D5405E9
BD1F6901
3CFEE2FA
BE0ED72F
3E169F69
3E6700A4
3E1572FA
3D78522C
3DAF97FD
3E150CF2
3E76942A
3DFB6490
3E937F78
3E3A9E24
BD905A97
BD96208D
BDCF7E24
BD9CFEE9
3DA6234C
3CE1AF12
3E000EE9
3D581AF7
BE3A3759
BE6542D6
3CB8BEDE
3DA55BF8
3CDF68D1
3D602242
BE1A94C7
3D93B61D
3E2F7CE6
3D656B9D
BDF5E458
BB610716
BD30DE6A
3D352B43
BDDF86B2
3D2C0BBA
3DBCB3E9
BE1763A7
3E13C8F3
BD8885A1
BE5397F0
BE66BC23
3E665B6D
BE2C82DC
3D6D4DF4
3D65F159
3DDE2486
BDFB3266
BE02F7E7
3CE9D775
BC9868E8
3D605F99
3DA7350A
3DDC4B1B
BD081E2A
3C0A95A5
3D67A5F4
3D6DEED1
3DCBB95E
3E0156AB
3D1881B4
3E145D8B
3DEAD983
3E0923EC
3DDA6660
BDCFE736
BD41399C
3AF84C2C
3E010784
3E58115F
3E10D078
3E1BFDD8
BD875132
BCE587A9
3E3AAD84
BCC4F146
3D8A759E
3D7D3BF8
BE06A3C2
BE158AE4
3DA47613
3CC2CD34
3E347514
3D498EAA
BDAF4A0A
3E274DEF
BE11FE86
BDCEE114
BDA3C7C7
3D1209A3
BDB409FB
BE42C505
BE20E2DC
3E11D2B1
BD84EC63
BE0CAEAF
BDCFF41B
BD599E74
3D24BD09
BE3D079E
3DE121A5
3D975430
3DE40F24
BDF64CF3
3E40912B
3DCC08C5
BDA908E1
BC6F8742
3E233F34
BE38C4A8
BE1F982A
BE1B9B6F
BDD6FB85
3E6E2C3F
BE24463A
3E1333E7
3CFDF467
BE0AEB54
BD1EDEAD
BD9BB6E4
3DE4DE85
BE335F57
3CB9B8EE
BE1AC1B0
BDB9042A
BDAA1927
BDB9736F
BD62BE1E
3E2AC25C
3E3FE6A7
BE167C94
3D558637
3C5700E3
BD878243
BD23922B
3E1AC7EF
3E202CA6
3E0741A2
BD988067
BD826FAD
3CFEB64F
3C166FCE
BDBFD70F
3DACCB56
3D05B28C
3D876B82
3E0EEC46
BE55CC3E
BDEDD7C2
3DAD77BA
BDC1D7EC
3E677E47
BD9BB551
BDDCF8E7
BE8D3D75
BE03968E
3CD8135D
3E32499A
BC25A7C5
3D95E38F
BE54494A
BE2E38B6
BCF3AD26
BE1A4E13
3E019505
BCB1AC25
3CE9FC5E
BDAF216E
BC945B31
BE8277CA
3E54F445
BE1F358E
3DAD946E
BE728554
3E053B0E
3DF1605E
BDB86AC7
3DB29DFD
3DBF3714
BD1CA710
BD6396EE
BE367E45
BD8BE79A
3DCAF24E
3C8AB1F5
BE5A5BE3
BE64C149
BD28CCEB
BDE5A9EF
3E1424E5
3C1F4494
3E0DC136
BE0DA31E
BD0FED53
3D83E96C
BE2D8868
BD388E51
BE68B13C
3E0B872C
BE4D315D
BD66B368
3D856651
BD12FB78
BDC371A1
3CC26CBC
3E028EAF
BDBB1DEB
3E3265DB
3E606109
3E144301
3D39B46C
3DB98343
3DE7A83F
BD75A6C0
3BF8C8A9
BE5B18DE
3CD84FED
BDFA8C7A
3D904CA0
3E410EF6
3D6C017E
3D2A9263
BD9F2665
BD209C78
3E588A37
BDDB6A2B
3DB606A0
3DA55270
BD899D96
3D9CB371
3E05EAA4
BD53B2E0
BD3154E7
BDCE627A
BD79A1DA
BD0FA4A3
3DBFF9D8
3D9417EA
BDBF1FCF
3E3D66AF
BC8378E1
3C137629
3D747E67
BE364EC8
BDF90A21
BD5A0AA0
BD9F4E2F
3E02A748
3D17A756
3DAFD7FD
3E364B54
BC3627C5
3DD3F559
BD67DECC
3D07B904
3D6B8C38
3DB3F8E6
BCC9780E
BE4577D8
BE179BFC
BCA4BA39
3D6AB4F0
3E22BF78
3E53BEE6
BE970896
BE2154CC
BE234A19
BE1066F3
3E4340D3
3DD8AFDB
BD7864A8
3E0F71D1
BE20E39F
BE2A20CF
BD9409A4
BE23EFCA
BE124614
3DD0207D
3D3405FC
3D35A452
3E1CF9F6
3DFCEF23
BE2447C4
BD20F010
3DF6CCB8
3D382060
BD49DCB8
3DAB57CC
3E022D55
BE11EBD6
3E71C060
BD96BFB8
BDE28BD8
BDDBF4AE
BCC70EA8
BE5D3FFB
BE0BA04D
BD638A9F
39DD7AF0
3E0D6D6A
3C96ACB0
3C644EB4
BDF90CB3
3E21407B
BD6D00F7
3D8A073C
3D9254CF
3E77EE73
BE38483D
3D7E5591
BC4DBF71
BC41F249
BD9B21EE
BCE309A0
3DDC4C90
BE41F33B
3D3B267C
3CD85348
3DCBAD7F
BDA7C680
3E2C6897
3DF6C105
3C775B36
3E033720
BA0BAB9A
3E0B9EE9
3E04D2A0
BD0AA5BB
BC82C369
BDAF6143
3DE19FBF
BDC2CF51
BE081947
3E1CC03C
BD0A5A72
BDF01234
3DEE4079
BDF3FE7F
BDD6B796
3AAB2A10
3C9F690C
3C6497F0
BCF52D1E
BDBCF757
3C6276A2
BDA2949A
BD03A389
3D25754D
BD763C3D
BDAE1093
3D384376
3DBAEEA4
BD0C599D
BD9A4405
BD20F6B8
BDD1096C
BE331247
3DC16884
BDCF2ACE
3C93810C
3E06065D
3DFC8C55
BD75D5CD
3D405471
BDEE198E
3DC8C335
3E63B5F8
BE4D20D3
3D8BBB04
BE44C34E
3DC9C244
BD3FDD53
BCA4989B
3E1A52E5
BC256555
3E3B8712
BCFF0A57
BC9A6E36
3E0F7B72
BD0AA598
BCC189E8
BDD85891
3DC6C7D9
BC35A239
BB96E199
3E3448A6
3E02B319
BE429431
3D331CFB
3DBEA3A4
BD2BDD9C
BE15E80D
3D82B8F8
BDFF696A
BDE9DDEA
BD74C8E8
3B8057D4
3DD540D6
3E0F0022
3E2344C4
3E68269A
3D833463
BD81C2FF
BE5E0DC6
3DD9D45A
3E02E91D
3E3C6A9F
3E2FFD69
3C9CB776
BE34406C
BD0296AE
BDCD0CD1
3E2A3520
BE4055EA
BE072530
BDB09A0B
BD2796D8
3D127B3A
3DC91A8F
BD74F3BA
BE336F47
BC6FB0D2
3CD0A996
3D1FA87A
BE61F90E
BDF3A437
3CCF08CC
BCB82E1F
BCDA3BD1
3E19EFE5
3DE2CEB3
3DC35F5B
BE29A91B
3E1B8912
3BA84193
BE204347
BCDCD6E6
BD6C649D
3D873EE9
3E1A35DE
3D43E4CC
BCC95148
BE196019
BD7F6C5C
3E51053B
B843FFF5
BE2837F1
BE35D47C
BD76DF78
BD988D21
3E304BDA
BE0BC5C8
3CB02A4F
3D8AFFA3
3E3AF031
3D8804D1
BD09A1E5
3E38C088
BE1C537C
BB02BC08
3DEBF1A2
BD02A519
3E2E7BB2
3E0DB31F
BDBFE2F6
BE06DEFE
BE86F771
BDF4DC02
BE2145A4
BD86D00E
BE520D2A
3DBF480E
BE919B20
3C059E0F
BE57CDB2
BD9661BF
BE1E3F69
BD78AB58
BD156715
BE481E43
3C0E9A82
3DFF9BD8
BE3FF31D
3E058B71
3E07D909
BE7150A0
BDF9CAE7
3DCE6C3E
BC52EEFB
BDA6B0AE
3D907247
BCA0327A
BD3F2B09
3E648903
3E8570DC
3CF4EBEB
BC7D756C
BDB39A51
BC8F5CD5
BD251A46
BCDA88F8
3E483E96
3C1200D4
BE8B4E0D
BDED4F54
BE14EB45
BE59FB9B
3DB1FFD3
BE63AC0B
BDB2CAFE
BC89ECBE
BD0A13E8
BE58C767
3DFF4CD0
3D6FD2B9
3E123805
3E28E2BF
BCF8B5B4
3E46ADB0
3E4E94BA
BE844B76
BCFE88E7
BCB62BDC
3E23CBF8
3C964623
BDEF252F
3D1062B1
BDD4F045
3C8487EA
3DC3F58C
3C4D84AE
BD8CF284
3E02B3CF
BE0229E1
BCF06CBA
3AD7FE03
BDF6E8E1
3DAC155F
BDCF59D2
BDE5F1B7
BE142D3B
BDD03AFB
3E004A29
3E9377BC
3DD3AAE9
BD3D81A0
3E2E763D
BD0E3723
3E3BF43E
BDBBE7D4
BD261471
BD4810AD
BE2D1683
BC35DEDF
BE391334
BD498AE3
BE290978
3D5AC312
BDF7CDD1
3E5F927C
3E918027
BDFC7F10
3C8BB916
BE864CEE
BDFE3768
BCA1A6CF
3DFBB60C
3E20D60B
3CCE239A
3C41DED2
3DDDE037
BDBFB477
BC7A43B3
BE09864A
3D60FDE4
BE044A9C
BD707E0F
BE1000EE
3E22E42A
BDF75778
3DBDA16A
BDE2A85E
3D753066
BDBAC74F
BD303262
BB93AFA0
BD9DAE60
3E151C20
3E23B01D
BE2A16CD
BCCCF831
3C9DF4F8
BD84F5EB
BDE97C3D
BE11DE1F
3DB40788
3D15A823
3DE93E12
BE0A7540
3C69E597
BDA06EC8
3CD8D132
BDAE76F8
BCA1220F
3D887328
3CDA958D
3D54E96C
3DA7E381
3D271B5D
BDC1683D
3DB2CA2D
BD274660
BE221FCD
BDD2734B
3E158B77
BD560840
3E13CBE7
3E0581D6
3D57DAB0
BD99045A
3D43BD77
BCE387DF
3AE20848
BE220CBC
3E132B5D
BD6D7584
BE1458EF
BDD7FF96
BE27CD83
3CDCBDCB
3DBC0058
3D053E83
BD8612F4
3BF5137D
BE2A97AA
BD98EC8B
3E0FD803
3E077BB3
3D8A118B
3BF1410B
BDB3B21D
BDAD4C90
BDA792D4
3DB66F68
BC43CDA0
BDC3C8ED
BD7EC1A7
3E360FF8
BDE486CC
BD01DFB1
3CF8CFF0
3D4CBD40
BD4FCE34
BE0B495D
3D1FF05B
BE1158D7
BC099A1D
BCEAFD29
BD247471
BC89B907
BD3AC2A1
BD9C0A20
BC3923EE
3E06C3F5
3DA220A0
3DB91885
BDF14F06
BD899539
3E12BDEF
BDC87EF3
BD14674B
3DFF861E
3BC22493
3E248BAD
BDD1E0C8
3AC9D724
BE13182B
3DCECF65
BC629D2E
3D13795C
3E21DCB8
BDF01A1D
BDD05F52
3DD9F667
BE1ACEFA
3DB6BA39
BCDEFFF0
BC4CD505
BDEF4EC4
3E117741
BD6C32FF
3E12B2BF
3D661388
3E20E292
BE1477C9
3DF33AF3
BE060B23
3DCE7CEA
BE1D71C5
BE2121F9
BE292F57
3DAACCD9
3CEB94AE
BE0D92FD
BD786B09
BE298A37
3E20EBF9
BDCAC064
BDFFBE09
BD49D24C
3DC47931
3C81F4A2
3D7E8326
3DC94A96
BE1D143B
BD80B514
3E13BB97
BDE34486
3CFE26BC
BDC35520
3DA763AA
3D91A74E
3DF2DFDB
3E0B4289
BCC18947
BD39FA0F
BD4BE620
BD94016A
BC996AA5
BD546245
BE2951CC
3D965F9A
3D27020D
3D47908B
3D335981
BD42F703
BE02EDC6
3D97D96E
3D632381
3E251DB8
BC139239
3DF358F2
3D83E8E3
BE146F54
3DC291D0
3E359CEC
BE03C81F
3D943386
3D209F4A
BE0E0605
3E2DE6FD
BDF6C945
3D92AA23
3D71BD65
BDBC26F5
3C104CF4
BD728B45
BDE77A8E
3D9C5DFA
3E0AA80E
BDC913F6
3DC64A42
3DBB8E7C
BAB854F1
BDD10A8A
BE0A2B4B
3D768367
3DD9CF52
BE23DA24
BC8B14DC
3D84AFF5
3CD5E10D
BD18F2E3
BDE75C59
3DD12683
BE211ADB
BDEF6DE7
3DF9C67F
3CDA2F8C
BD0C8D92
BDACB860
BDC1F680
3E19914F
3DC43912
3E37D500
BD7D6625
3E43F841
BE090568
3D42EB57
BD63525A
3C9DD7ED
3D917855
BD6269BD
3D1CF32B
3E0DF91F
BCEF4BBD
BA54EF30
BB907F29
3D2F094B
BCCD888F
3DB363C1
BDA5A6E1
BD81F14C
3E1EB42F
BE16F918
BCEF92C5
3DC11680
BC8E722E
BE386510
3DC5EDAF
BE18414C
3D088D17
3E32665B
3E26A216
BE0FAE72
3D3EA715
3D781756
BDC7BD4B
3E1D8937
3E004B78
3DC6D93D
BAEB2D60
BD3017D3
3D29353E
3D063C0F
3D288B37
3AA51523
BDAFC9EE
3D0BD198
3DDF347D
3E19DC9D
3D1C4ADA
3A1EDAA1
BCC5D750
BDD178AB
BDF56FCE
BC0308D4
BDC2FBF1
3DDA553E
3E088550
BDDB2F94
BE3E42C0
3D808FFE
3E4E6E78
3D8BA471
BC79C635
BE14E388
3D67BB73
BD777354
BDD28553
BDCE2BAE
BE009834
BD628109
3E19E781
3D356B9F
3DD40799
BCBE65C1
BDA4E305
BDC33BC2
BDB346D4
3C0A569B
3D8CEBEF
3D4DE271
3E422874
BD1D29BF
BDE17C2C
BDDBF351
BE144C72
3CCE62E4
BD2CB39D
BB1A504E
BCEE8366
BD63E8B0
BE207DA2
3C5DD22E
BD9A9EE1
3D8EF9C3
BD3CAD45
3C0B5198
BB3DDD46
3CBFE0E6
BDF5EC48
3CAB02D3
3D02806E
3D2D0364
3DDD84E5
3B0C0F6D
BE557A87
BE1792B4
3D4F98C2
BD8676F6
3E234954
BD3FB19E
3D3A079B
3D158C5C
BDF659F5
3E269BFF
3D512633
3E0D2179
BDE23678
3CD5268E
BDDBB9AD
BDCA6535
BC2585D6
BD9A5471
BCC9DB2B
3C1A6E2B
BD14DB74
B9F9F9AC
3D42AA21
BD9B4F5F
BDAEDACD
3D8145CE
BE25AEE9
BE1E93B4
3DF27FFC
BB2F0C48
3E174E58
BCC5A902
3E23B16B
BC0FF50B
3D2FA8A7
3D4F1B71
3DF8A186
3C452E48
3D03246A
3DDD069E
3DBDBD71
3D215DB9
BC84F2D9
BE0DCFC6
BD9E2FF0
3D8EC930
BD2FD33A
3C92BA92
3DAA2B31
BDB7DB4F
3CF6FFFC
3D677A12
BAAFC682
3D93589A
3E0AA473
BE24BF87
3E1DC6D9
3E16C286
3E175A30
BE21A3C8
BD94FFD6
BC134831
3DE4D272
3E156699
BDDA8FF8
3DFEB81E
BE186AAD
BE023388
3E1CAF1E
BDFE38F4
3DAB7395
BE0D7954
BDFC0E94
BE0DA52C
3E1E6F7F
BD34A69B
BE02AFB3
3E001E13
BD8C1ECA
3D78B302
BDE01DAB
BD831DB8
BE028363
3DE01E42
3DA153CB
3DCA9C9F
3D9E641F
BDF990CC
BD2F7B4B
BB071385
3E040CD1
BE0CBB80
BE053854
BC56B56E
3CBCEFC5
3DC2DEFE
3E297053
3E0DFB6B
3CE44DD8
BDECBBF4
3BDBC40C
BC13A83E
3D181D80
3D29E287
3CDA18C5
BDCB1A18
BDAFD0D8
BDCF5E03
3CE3E51D
3D9CB78C
3D111503
3E113C80
3D62DAEE
BD1DC9F5
3E3D9341
3E0F907A
BE0770FE
3E174573
BE49C5F3
3E5BCF89
3D75C0FA
BC73AEB9
3E241D23
3BAC27A6
3DCC9F8C
3DDC6A1C
3C91A1A9
BE7EB8B0
3D5EE998
3A6F0282
BE21613F
3D937A03
BE35BCDC
BE1FE447
3E4A5EF4
3D47968F
3E28A222
BCAD7E63
BE6B65D8
BE2C63BF
3E1D6784
3E2CE462
3D0AC4CA
3DDBF351
BE4E9FF5
BE53EF0A
BDCBA52B
3C274FFB
3BF2875C
3DF8DE76
3DC85705
BE80E81E
BDF7EE56
BE0C3C59
3E0C63AD
BE2B6FF1
BE0C0F39
3DC680C2
3CAA494A
BCE26EE0
3E5A872B
BDCC005B
3D83C76D
3DA40046
BE048512
3DCB8CAD
3DDA9341
3D136BB0
3E29F5DB
BDD150AB
BE58FDED
BE358FB5
3E0707A4
3E0DC9B1
BBF74E40
BD413FDE
BC8A7CD6
BBFAD5B4
3C53330E
BDBFAD05
3D371B25
3D7EEB70
3E08789D
BE43BAF0
3E45F0A0
BE2D7A18
BE2CEF5F
BDB743A0
BE105A8A
3E17B42A
BE0E0195
3CDAC503
BE3BFC53
3CC427A2
3E87E61C
3DEA35D4
3E2BD30A
3D6FE828
BCEFBA5D
3E91C4F2
BE24FFA0
3DED6F68
3D0AA697
3E2AA71C
BC8120CC
BDCBE550
BE259CE3
BD9D883D
3D791B98
3E5C5F3E
BD1CD65D
BE1875A2
BE350312
3DCD46DC
3D121E58
BD5135C3
3E359210
3DB810A1
3BFEAA95
BDD1BC27
3DCF9AAD
BCD7FA4D
3E6D5A3E
BDBE5682
BE48E13A
3DD3242F
BDCB4090
3E0898F1
3E13FEA6
3DE165A9
3D0233DC
BE15641E
3E0CF01E
BD156B04
BE5B710E
BE0D9E87
BE0B19DF
BD96B357
BE0865B0
BD8AB365
3CAB1CA9
3DA518F3
BD829DF9
3B914461
BDFE917C
3E25E66E
3DC0C983
3E69BBD5
3C970ACE
3A8FED73
3D53513E
3E4C3B3C
3DFDAC53
3E04B5B7
BE1F5C80
3CD47C8F
BE0F6F74
3DCDE0BE
3E26884D
3E0994F1
BDC8DF96
3E4F0826
BE3D2B52
3DD409AD
3E08695C
BDEAF578
3E3BA075
3E2A690C
3E0B19CE
BDF7E131
BDD4806B
BE25BE1A
BDCB5196
BE4A8289
3E2A5B2D
BE59A050
3E7B2755
BD1D8A9A
BDBE97F2
BE1B56BF
3E585A90
BE618B2F
3DB20ED5
3D087A70
BCBEE3DB
3E5B643F
BE5C0C38
3D94BAFF
3EB833AB
BE84101B
BCF776A4
BD7F3FE1
BD63C796
BD248E2C
3DE8A5A1
3ACF17AB
BE54FD44
BDBCA3A9
3E7547DE
BE775483
3DF868CB
3DA68FFF
BE482131
BE2A4768
BE0F5566
3E369D2E
BE54B1F8
3E9C1B22
3E29637A
BE4CCE3D
3E806B10
3E56CFE9
3D88FBF6
3D4ECA33
BC9C4586
3CC6ED6A
BE6C314F
3CF16F94
3CB35CBF
3BCA51C8
BE94C58D
BE1A6B61
3DDE1F6D
BE40CD3D
3DAC75C3
3D804CC1
3DBBF400
3D54B6C1
B8BC687C
BCAA7199
BE7B12E1
BDCEC305
3D438BF4
BC45BF9D
3DAE1DA0
BE6578EB
3C480C69
BD852CFF
BE860FF8
BE25E958
3C90291D
BD8EAD3A
BE100DC6
BE3EFA1E
BC22663C
3DA2A125
3E12C2A3
BC8F720E
3E171838
BDA2AA85
3CE36637
BD83E6F2
3E0923AC
3D1CA63C
BE105223
BDFD5390
BDE972E2
BD8255E3
3CE34E49
3DBEFAAD
BDC6ED6A
BE38A8EA
BD4CFBE4
BCBE57FA
BE0017AE
3D0F5B35
BD29F81C
BDCE2413
BE0C8CF8
BC2631E3
3DAD66AA
BCA17825
BD52E3BD
BCCB3E01
3C874A8D
BCBD6978
BDBB2AE9
3DBA90CF
3D148EEB
3D96CA42
BC6AF81C
3D71BDF0
3DB996B7
BDEFC33C
BDDEC7B8
3D8F7EF8
3D3736E1
BE11EDA6
BD6370EE
BC1C2E34
3CBFE426
BDA66221
3E30137F
BD0CB97F
3C457703
3D2BAF4B
3D87B27F
BE210AF6
3CF76B11
3C98F057
BE04C99B
3C5C3AC9
3E1D80A5
BD507348
3E31BBF9
BD84D095
BD56E50C
BDB6DE1A
3DC4F30F
3DFDFF15
BD8D15E1
BDBDEB93
3E082936
BDD42667
3DF1F774
BE33961F
BAD0D8A0
BE222A93
BCC90252
BE0C3FE7
BD827F9E
BDB10425
3ADFCC2E
BD5D2AFC
BE0FA6DE
3CB4ED2D
BE2EA6C3
BD02D491
BE046C2C
3DB220FA
BE00504B
BE1AB73A
BDF5B2A7
3DF5A024
BC780CB7
3E1D4DC8
BE1BA212
BD23D0B0
BCD1A5B5
3CA93523
3E6C6C8D
3D9B5F75
BE2C0577
3D2645A4
BD824C6D
3D0AA67D
BD591243
3E4B88BD
3E100386
3D12EDC6
3E2CEDD6
BD4AD482
3D0F7C24
3D929044
BD6D24AE
BC754323
3CD770FB
3E128546
3E0173BB
3E0E39E2
3D46EA60
BC85F151
3CC44E39
3D466AE9
3E28F84C
3E2E873A
BE4F4ABC
3E365A8B
BE1A5731
BC26A195
BD913951
3E0FD98D
BD1CE6D9
3E14B2B0
3C81A82C
BDCBB471
BDA11D8C
3D3647AD
BE08BDB4
3D311501
3DC19B4E
3B889F0B
BE051A6B
BCE9CADF
BB9C1C40
3CEBDE86
3D60DCBF
3B95213A
3DD8929D
3E3426DE
BDAD5AEF
BDB85381
BD0B02F6
3DC78009
BDFA077A
3E131F55
3DA7A9B6
BB871A7C
BE320F08
BE237F61
3E2BB517
3DAED71F
3E0A9C30
3DD345CF
3E809B4D
BC505C9A
BE93EEEA
BE03168F
3E015CF5
3D01E8F1
BE306558
BCFDCC49
BD9C79A0
BD8248CD
3D992FB2
3E574A81
3E52AAC1
BE9421E4
3DD423D6
BD983221
BDA4E4A4
3C2BE023
BE4340DD
3E49AAAE
3DC944E3
3E2F6FDC
3E834052
BCA18BF1
3CDF91E1
BC3FB2D3
BDF95243
3C63A3DF
BDC4D8EC
BDFA2E40
3DD9D846
BD3C7B76
BD897975
BE21E0D7
BCB5E0C2
3D6BDB38
BC318BBE
3E135C47
3E2C26D8
BE2CBD6D
BDCF9CCD
BE918868
BDD46965
3E1CFAB6
3C986E61
BCE80131
BDFD5E89
3E047D23
BDB31597
BE2933BA
3DCA68C7
BBFAC213
BE3919F1
3DB9602D
3CEAC358
3DDE4A47
BC95BDED
BD5A5386
BE159D2A
BE71FE61
BE02D1B1
3C46FDAB
3D1FBDD8
BD675356
BDFF9EBF
BC750CF2
3E88728B
BCAB885A
BE47B7E8
3DBF6340
BE611BEE
BD742693
BC1A636E
BE437085
BD19B8B1
3D98DE64
3E40CA21
BCDEE5B9
3E09BF44
BDD5AFFB
BD41AF7B
BC802CCC
3D96EF6B
BDC88865
BDE6C50E
BE295DA6
BE1DA223
BDAB80C6
BE5628CB
BDCBA441
BDCCB2C8
BE5F9230
BCA34A07
BE91FBD7
BDD4C15E
3DE2A9E2
BE33A56B
3D5CAB21
3E15CBF6
3DD0FF5D
BDE06601
3E7D47B9
3C16183B
BD52B041
BD9A386B
3E7AF6BD
BBECBEC5
BDD43B06
BE4CDD4E
BC06DC53
3DE65B61
3D0E4C1E
3DB18C32
3DFCE405
3D950CA9
3E8AB174
BCCE4822
BE1AC98D
3E04F78A
3DE0D7C9
BE0CB87E
BC8BD530
BDD666FF
3EA9F5CD
3C20C715
3D419A72
BE510377
3CD4BDC2
BD8295F3
BCAFD835
BDE0A303
3D86EE12
3DCAC236
3DC8FDA4
BE3B772D
3D4AA10E
3DE9A161
BE22420E
3DF728E6
BDD93E9B
3E2319CF
3DF8821E
3DF32E68
3DC111EE
3E4B5B26
BE62FA51
BD17FDD8
3DAB02E2
BE1DC86F
3DA83751
BE6ECB5F
3E41E796
BE4F7B6F
BE29CBEB
3E59CCD4
3E03E8D0
BE35B057
3D87BFC4
3CB7FF5B
3D8012A3
3DFEA016
3E6C3CFC
BC06BA9A
BDFF80E6
3DBDC27F
3D05D53C
BDCCDEAE
BD379703
BE39CD66
3E27AC7B
3E1BC9B8
BDCFEAC6
BE2A7D3A
BCF16F8F
BD4CDA0B
3DB07CD4
3E3C7FED
3EA3C10B
BDD065F9
3E02CAD6
BDDC3F6D
BE48C619
3DFE56D3
3D90B0B5
3E7F46F0
BCD7F2D0
3D0679B2
BE05D38B
BD8EEC60
3E276810
3BB7411F
BDF6567C
BD907F58
3DD2223D
3DD8E320
BE26DBF9
BE427126
BD472E55
3E1357A0
3A83B7DB
BD4A0565
3DB7DF97
BE0DD919
BD5D0F04
3D626B5A
3DD770A4
BE002B9D
3E04F502
3B6A407B
3E378261
3E420398
3DEA97FD
BD9D4E34
BBEC36E0
3DF5262E
3D09E567
BDF7BC83
3CA2D1E2
BE087693
BDDFA623
3D7C40D1
BE21E94A
BE0179F6
BE22BAA3
3E19CDDF
3D1FBA73
3DEB8098
3E22085C
3E03EB61
BDF67411
BD186A55
3DDE881E
BE18E868
3C9BF25A
3E31171A
BD855A0F
BE21DA7C
BDD092FB
BC7D940A
BE130515
BD74673B
BD74B2A2
3DD91342
3D92E925
3CC504E7
3E06628D
BDBB5359
BE036A30
BDC56981
BDC65B85
3BC54442
3DB59639
3C2E5A86
3DD7BF9E
BCE1EEC3
3E193103
BD3DA923
3E2556F6
BE073A30
BDE5B42B
3E27C663
BE17DEE8
BDBD32D4
3D953592
3D761289
BD21929F
3CBA8E3C
BB0372BC
BDEE9459
3E059704
BD6876A7
BDA44189
3E1B2A44
BE14A3BF
BDE73442
BD4DBE3C
3DCF104A
BD872CA1
3E390125
BE2730F3
BE149FA2
BD2C19BF
3D48DF47
3E3D7335
3B988F2E
3E11862D
3D37FA68
3E0E5797
BDB3CFD3
BC747431
BD786D75
BDC3A720
3DDD964A
3DC18EF1
3DB4A6DD
BE01FD42
3D91C823
BDA320D2
3E875394
3DFDB4DE
BDAA9624
3D8E5ABD
BDC91188
BC25DDE0
3E039FC0
3E3242BE
3E3B555D
3D86EE00
BE0AF81A
BCF3DAC3
BCC677EF
BE0442FE
BDD8299A
BBE14CE2
BDE7E3EB
3DCCD039
BDFB0585
3DE146B8
3E547EAC
BE412314
3DB13218
3E5B804F
3D3BB8E6
3D0D00D2
BD32B9E1
BDAEF778
BC5EE9FB
BDC9C43F
BE31F96B
3D2E6C9D
3E2E6E11
BE2DE274
3C22407C
3D1121A1
3E16A7B2
3DABB223
BC98FA72
BE0E47A6
BDCF2AA1
3BE747A2
3DCF3671
BC5E4403
BD2E66A3
3DBBF84E
3E310C15
3D72EC49
BE4D7550
BDA82733
BDFE247A
3C4F14DB
3D57D7C5
3E36A2E7
BE65E4EC
3CBF8571
BC671F9F
3E008C1F
BDCDAF83
BD854DDD
3DBE4B42
BDFDC658
BE2E171A
BD064BFD
3DE582A5
3D6DE09B
3D66609F
3DAA0740
3E217C9E
3C7610E9
3D9C46E6
3E534058
BD41638A
BD94420D
3C2BBDA9
BD7B3E0F
3E3DBE62
3DE5E6F5
3D5306AB
BE05D43C
3E2B2556
3D2DDFB5
3E469123
3CA46F71
BC93B600
3B17B492
BD2EB67C
BB9569B4
BE2E3F48
BD911493
3E7ABD56
BE87EB3A
BE69610F
BDF6B888
3D020DA7
BE7EB347
3D6DF610
BD3535DF
3DD86937
3D413C6B
3D39B850
3E1CEE27
BE57ABB2
3E0A66E4
BE682B2B
BCBB0E03
BE1D2324
3CDFBC23
3D643AB5
3DF83C33
BDE5CCFC
3E32C621
3D5EA7C3
3E5E558E
3E59F104
3CA1BB11
3C55E708
BE2A28D1
3DA1736B
BB9E1641
BCD430CA
3CFBDD2B
3E4C758B
BDE68C58
BDC1B467
BE2C5F08
3E15049C
BE26E1EB
3ACAD729
3E7CDC54
3E167CC0
3DC33E59
BCD84643
3E165F4F
3E8F2FE7
BD9BEB9D
BE8CCF74
3D297FF4
3E62C1D1
BE47FE9F
BCD347D1
3E0B020D
3CBF0EA4
BE0C0737
3D72DF2B
BE4C2FB3
3DF4A9F7
BDCEC957
BE2D8226
BD8C4402
3C839917
BE330B52
3CF83B96
BE321A49
BE0476F7
BDC7B2FE
3C2A1857
3E10F05D
3DDC4432
BD5018B4
3D1B4E27
BDB542F0
3E1B6691
BC7244C1
BD4D989D
3CDC7978
BD937EBC
BD5BDEE1
BC9E88AC
BE069D7B
3D746C23
BE038126
BCDC07A8
3DB62923
3E31F728
BE1515A5
BDDA82F9
BD174E50
3E00A6E6
3E0183BF
3D90E37A
3C525C6E
BE1AB6E3
BDD99DCD
3DEF1D60
3DDB7F5A
3D9B72B6
BBA2D7C6
3E2991C7
BCECE20B
BE3250E5
3E2C287D
BE399292
BBDD0783
3D275874
BE4CD3D5
3E3833C6
BD8201F6
BD84FD57
BC55D0AD
3DA887B8
3E3133C7
BD0BD012
3E48311F
3D9EE5EB
BDBBC5F7
3E107C1B
BDD6C704
BD621917
BDA33326
BE083179
3E25C82D
BD320982
BD3187A7
3D33663C
BC845910
BD1ADAAD
BD17CCE3
3E2060D0
3DB00891
BD9FC4C5
3D2293F7
3D80C6C2
3DD45213
BDDA2E9D
BDFC0B52
BDF264FB
3DAD7909
3D0F9A9D
3CDC9176
BE26B994
3E1CB2A5
3BF201E6
BDE5E7BE
BD14607D
BE17A8B6
BE1AE035
BE17E37D
3DF7DB7E
3CC27596
BE0F9844
3DD1D57B
BD94F911
BCDD0DB2
3D60540B
BD08BED9
BE112DD1
3DA0E63A
BDEA4BE0
3DC1585A
BCBC6709
BE213237
BDD728CE
3E2261BA
3C033B69
BE1C09C0
BCD328BC
3D3D7D11
BE2D9480
3DBF422E
3E206E72
3E094405
BDA17954
3DEF9098
BD5E1C0D
BE096331
3D319952
BE01EB8A
3DF3D7F6
BDE612E6
3DC36703
3D56DD57
3DD68BE2
3D78379C
3E2ECB71
BD5BFC60
BDAA74E4
3DDE66E7
BC3F7E05
3D4E1EDF
3CCE0851
BDFBA131
BE2EC484
BE05570D
3E031B2D
BB768BB8
BCF55E00
3DE0D44F
3D027375
BD686E76
3B9B1052
3DCD14EE
BDE7DA33
BD8FCC6E
3DC36CDA
3C92FB90
BDC18044
BE22F3F3
BD8CD1F1
BE19ABA4
3E14B74E
3DCE11D1
BD9578EA
3E18F257
BA74ED27
BDE22EDF
3D482F67
BCEB371B
BE1E4D39
3E52EEA9
BA9E972F
BBDD5647
3E2CD4F4
3DE1C655
BD06DAA5
BBB728A1
3C8EC3FE
BD9F62DB
BD76C300
3E18F4FC
3DB51233
BDFD2D3F
BBEBFB26
3DFE711F
3DD88F18
BD8E46C6
3E127231
3DAFC5FD
3CDDF107
3DCE7B21
BD7EB37C
3D88F860
3DF41545
3E183C5C
3C33F36D
3E138F42
3CD7D4B3
3DC70BFB
BE3B27CC
BDC38AB8
3DF6565A
3D7966C9
3D8A693F
BD837812
3E265A2B
3B3A8EB2
BE0E9A7C
3CBD34DA
3E54999A
3D794937
BDA8D72A
3DCB2CFE
BD362F49
BE189DF3
BE05DFA4
BE18F47D
3DCBB5A5
BE1C8883
3C1DB548
BD76EB71
BE10DC9F
BE4BF4AC
BE1CB000
3DD89DB7
BD46F0FB
BD88FACC
BD25FF05
3DA54642
BD7F9168
3E02401D
BE0C4C09
BE0A5F2B
BD9BA1DB
BDC5BDD9
BD1EE107
3D55A1CD
3CAE360E
3DF4B517
3D6A0580
3E47B8F0
3C8EA179
3D8E4BEC
BE24F5F3
BDFD1F6B
BE0276D1
3CE68256
BD8EB944
BE30B198
3CDDF56F
BD103AD9
3D9FBDF3
3D97EA56
3D0908D3
BD4E6DC1
BD9232BC
3CF449B4
3DE2C73E
BDFED939
3D7C7948
3D99F065
BD7D9D34
BE05CCFC
3E25FED6
BD079AB4
BDD96BBA
BD86C967
3D9E4D1E
BCA161CF
3DE23EA9
BE192B94
BDD84463
BE1BE9A5
3DFE05EE
BD474FD0
BD6DCDDC
3E272264
3E15CAEC
BD902C5C
BC81CF43
3D01F64A
BD23043C
BDF4FCE7
BD365A17
BE06478E
3D0EA2D3
BD8C1208
3B36CB59
BD7C2A68
BD87FC38
3D9248BE
BC6D9361
BD9FED27
BD3FED33
3DA63F32
3DAD0AA2
3DA5F342
BE05F72C
BCDDB2F9
3E27BE0B
BE350D90
BC402B7F
BD30D931
3B92B006
3D9BC41A
3E30B8E9
BD335913
3CF9E031
3DDC1A97
BDFC1DB8
3DDB2AFF
BD79528A
3DC3F852
3D9A2AAC
BC4C7FAB
3CA800DB
3D19D432
3E0E6959
BDC57D5B
BE24985F
3D8C6AFC
3E3272D8
BD6D80D7
BDCA701F
BDBFF5DA
BC1F5708
BD74DFC9
3DA0B643
3D3EB4AC
3E2685D1
BE162857
BDC3CD40
3D653CEB
3D6881A1
BD9F2F7F
3D8DD0F4
3D359690
BCA8120D
BC03865D
BD9861FB
3E28E25A
BE6561F5
BE29013A
BE4B0A38
BDAA7CB6
3DB8BA25
BD021F7F
3E268A1C
BD2629B0
BE0F6099
3C9309FE
3CD9D1A3
BE3B7510
3CADC1A4
3D89A43E
BD2AB40E
BD06D0C7
BDA9B661
BC57F951
3E48BA49
3DBF9F21
BC27ED6F
3E3FF8D3
3D957A64
3E067494
3D379E85
BE4E78C3
3E581755
3B94897A
3E09DB69
BC033549
3D8F43B6
BE1870EC
BD8A4E8C
BE59383E
3D4D2D75
3D2B598D
3E4A54CA
BD9642C8
3D94A020
BD3E6C04
3D9DCB18
BDBD8828
BD85D0B1
BD9D78B5
BDFE8FBF
3E13A9FA
BDE0FA54
3CAFC423
BD48674A
3DD6389C
BD6E48A0
BE13E5EC
3DA8170F
3E174E94
3E177AD7
BBF2D408
3DA8593F
3E3CAB00
3DF951A2
3DEC7DD6
3D63D235
3D977A26
3E54DF91
BE207E2A
3DF89FF9
BE36500C
BDFDDFD3
BD207411
3D9FDA61
BCBBAE9D
3BC751B9
3D7FFC85
3B18DE89
BDAE562F
3E111E44
BB6C448C
BCFB5F62
BCA59FF8
3CEE05AD
BE732378
BE1A0942
3DBBAFF3
3E005207
3E00FD21
BCEEE30D
BDC9D5F1
3DAEBD1D
BC9BE915
3E0C0C58
BDBFB815
BDE84F4B
BD3AAB37
BE1852D5
BC475C35
BE34B997
BCB41B66
3DB31AA8
BE048B4C
BBCC7940
3DD5E79E
BE619CE6
3D918BE6
3E2F9C84
BC5A8DB5
BC9B7C17
BD2F1084
BDF3FC5C
3E1450F6
3E920A5F
BD9B374F
3DF79F5E
3DE90305
BDBA3016
BE799D38
3E5F4F0E
3E130728
3E736095
3E45395F
3E2815CF
3D80B4B3
BD1576FD
BCD4EDC8
3E739DA1
BD6849FE
BB8CED4E
BE0A4431
BD90C96C
3DCFD0C3
BD314207
BD8EB834
3C8BCF41
3E4DC8CE
BD71EDA9
3C4896C8
3C87A591
BE20C06B
3E4FEA16
3D0F40AB
3DC6660C
BD421533
3E59377D
3B03D3E0
BDD9C497
3E3DC090
3C010C6F
3B1B67FB
BCB267A7
3CF79A20
BCF657B6
BD809B2C
BE5A9CF9
BD92E7E6
3E3FC6F4
BE7EC250
BE1B3F67
3E310F92
BD4E257D
3D87EDE3
BE2D6AAF
BE0B8496
3E1F01EA
3DF81590
3E771AD1
3CC25306
BE270D44
3E7005FB
BD7A6B00
3D94B007
3E83B405
BD97510A
3E680EA4
BDCA55CA
BE36E16D
BD8DD3A3
3E0B24A7
BDE41B49
3DBD6F3D
3DEEDC2A
BD9AEB59
3E5151B2
3D4A47FD
BD7F0C3D
3E575FD6
3DB8BA71
3E6287C6
BE153202
3E5DB3C5
BDDBD152
3DA07000
BDCA84CA
3E097B87
3C6C7D97
3D3B8969
BE23CA09
BE142334
BE38A64A
3E30CCB9
BD2BC7F7
3D1EE380
BD566B74
BE2555BD
BDE962E1
BD58DEB4
BE144410
3C0257A9
BE169C28
BDF08D15
3DB70E1B
3DEB8E06
BDFC8457
3CFC91CC
BE398EB8
3E61E2E7
BD89DCEC
3D86FE59
3D154120
BE0BC680
3E1407B2
BE1A3B62
BDF5DB93
3E0FA90D
BE036DEA
3DAE68BA
BE1F1CD7
BE242B83
BDCD5D49
3C8AAE8A
BE2BF754
BC543B0B
3D8FD8E5
3D749E68
3D13FEE0
3C1E8E56
BE2B6A49
3C87D3EA
BE44784C
BE2AC291
BD129CD0
3D57912C
3D00A3C4
3D10D347
BD340B0F
3D6C1FE4
3E04632E
BC8D16A9
3D83F3F8
BD0D96DF
3D630050
3D958F35
BD2EF3D9
BE1321E8
BE7ACDC6
3D8BA32D
BE87ADBB
BE5CB1CD
3CE939A0
BD45C938
BD83E548
BC7846E4
BE5469B0
3D7BA5A0
3C19C9EB
3D871E3D
3DB75AA0
BDDA9750
3D2332E5
3DD98F76
BE8270E3
BE39E469
3E0A8C79
3D43D572
3D844B38
BE435A6C
3E360F5D
3D91AC13
BD71F560
BE20A6EE
3C13B7E3
3C968055
3D8469A6
BE940190
3D2A3335
BCA3278D
3E15184D
BE416ADD
3E74C7FF
3D6196D6
BEAE7770
3E78358E
3EA35311
BDFD90A2
3DA8DC4E
3DA82CE4
BD4ED8D9
BDF59A04
3E653465
BE7585F6
BC423133
BD4073F6
3D8874DA
3DB22D3C
BD1EE348
BD8F763E
BE48D9AB
3D3F3D42
3DAE83DB
3DDD164F
BB750E8A
BE2383BF
3DC0E820
3D2EB9A7
3CF7AAC7
BCC58DDE
3E3B0A2E
BDFBB448
BD06420C
BDA4C954
3DAD61EF
BE1318A5
3CA57484
3DAD2C7A
3EB2D7DB
3E00B47D
BCEEA5C0
BE6EC519
BE10E891
3E477F30
BDCC3C78
BE3BC78D
3E18BEC6
3E1D11AA
BDA37BE4
3DA3F356

