BD38D051
3C63D943
BD475554
BE2541BA
BD8ACAF3
BD710C2C
BE91934F
BCFF6E5A
BD823BA8
BD6261FD
BDAD20BE
BD745981
3D853B9E
BE2A7FD7
3A95C2F5
BB0C16FA
BD4FAA58
3CBFE482
3DA91E27
3DD098EA
BE292E81
3CC9EFAD
3DEE065C
BD6DED08
3D31B991
3C7AB1F8
BDC38B1A
3D17A972
3D5695DE
BC93FACF
39F7C1EE
3D8F1089
BD57D8AF
BC370134
BDF4275C
BC449551
BE1313A5
BD9845F1
BE084C71
BD90B643
3C252AD2
3D71216B
BE615698
BB50152C
3CC277E5
3D7C07AB
BAE371AA
3D294615
BDFD81D1
3CEE5C64
3DC5FC17
3CB3C2FB
BE4DA891
BE34F211
BDA5C852
3D7E329B
3E74A1BA
3DED5660
39E06E95
3DC4EEF2
3D232841
BE4B63E7
BC973AF5
BDF7ADEE
BE0D3DD8
3CC6ABF6
3D1FE395
3E03E4D2
BD97A0FE
BDC7DD6C
BDDB757F
3C068A53
3D266EDA
3DC87B9D
BDB3F75A
3DA32825
BD9E40CA
3DAE8FC1
3D0A451B
3D9E025A
3E2CC467
3CA03C10
BDF773E2
3CC27505
BD4A176B
3D571BC8
3E19C9AD
BE466FC0
BE5BDE9B
3DBF0BDC
BE415977
3D9D0271
3DA17DD7
3DC556D2
3C90CB4F
BD89DC6D
3D9576B7
BD9EE9D4
BE296A9F
BCB7EED4
3DECDC2C
3D376F86
BD714700
BD75B983
BE306B5A
3E10482C
BD9118BC
BE04DC82
BD86A39A
3D444E94
BBE3FE01
BE4B16A1
BD950793
BD6598DC
BD9FF021
3D43DE64
3C2D513C
BB903456
BCC126DC
3DCD4D13
3AE8B3DE
3D8C7B1F
3E09338B
BD84258C
BD32EC59
3D7B0EBF
3D8C3842
3C8CE29C
3DD7F0A7
3E0E36FA
BDDF8162
3DD25866
3CD4894F
BDCB87C0
3DB214B3
3D9B7DE3
BDACF04D
3D462231
3B897408
3DE7AFB9
BD91F253
BDA6B3EA
BC9F8B4B
BD2908D5
3DFFA5E3
BE7AD8D8
3C81DFD4
3BC85920
BE69C6D0
BE20CC5C
3DE75687
3E17CC54
3DA5E6C2
3E03761B
3E2A33FA
BC0FDBCB
3D1EC629
BDB43DB7
3E0E2D79
BD43735A
3AA96468
3DDA53AA
BD251818
3DE54050
BDBDBC91
BDDE533D
38C8777E
3DB4BC84
3CDE5692
BC8E99FC
3C3DF152
3D7F22B8
3CB0FE55
BBA603A0
3D8A968B
BD60829C
3E26A6F2
3E18DC6F
BCBC6F6D
BDC49DB9
BD9DA29B
3D822EE8
3DC335F1
3C60ADB5
3A2736BB
3911A5AF
3D009B33
3E02C3B8
BE4948D3
3C6E7FE5
3D1D02C5
BD5B6B23
BD86EFF1
3C4174D5
3DA15B43
3DC6D1F1
BDF35B40
3C23EDD1
BC461954
BE14A566
BD80AF4E
3E32E787
BE2A0073
3D918447
3DB33F51
BD54F116
3D6CCB65
3D03114A
BDB8B2B3
BDBE7275
BD836E3C
3DEE26E5
3CCBC560
BCDACDA7
3E5185FB
BD392F4E
BDA3B948
BCDC8D5A
3DB185EC
BDE923EE
BDC376B5
3DA56CE6
3D9D90AE
BD74F5CE
BDC24FC4
BDD3A321
3DE39A3C
BC00FF9A
BDBB0C17
BDB14993
BE0A206B
3CB3E611
3D9D934A
3D1390F4
3D859459
BB978502
3B39D579
BDEA6D9F
3D08EDB2
3DA7B0CD
3B25880F
BE13ACA1
BDA08CA1
3E499CEF
BE925ACB
BE87768F
3CC4E181
BCF28132
BDED14E8
BC4CE1DB
3C78F621
BDB45260
3E69B239
BE9A54F1
BCBA3642
3CA37DF4
BE1DDA41
3E0CD704
3DD5C3DA
3DFE5D29
BCEACD33
BC00E32A
BDA43984
3D81B31F
BD8A3F01
3DE00077
BD12B217
3D39415D
BE2E9A89
BCA4E293
BBA0D4B7
3BED2B11
3D2EC286
BC264996
3D67F0B8
BDE25729
3E02670A
3D994C26
BE044AC6
BC7048E8
3E2F45E4
3E30AF71
3E245447
3DA32148
BCFDED31
BDC821DE
3D8AF779
BDCBB560
BDCDFC41
3DD8F91B
3C80CF43
3D7AD94D
BE257C40
BCEDE6A3
BDA06DC7
3CAA7F8B
BC8131CF
3E275ADB
BD26CD41
3D827511
BE12BB46
BD4E5243
BCF585C9
3DB32C2D
BD0E8F1F
BD963F08
BDB83807
3E2F8863
3E0AB793
BE48062D
3E409F99
3C83D6FA
BE46DB97
BC27E948
BDB52256
BBAC71CE
3E1AABEA
3D9B5F64
3E0A3835
3D437B07
3D2CBC71
3DCA105E
BD917567
3D100648
BD2E4C2E
3D930D7E
BD7EDE12
3E072EF6
BD2B924A
3D94C3A4
BCBD2F20
BDEE394C
BD52C6EA
BD874EAC
3D69C602
BD94342D
BBB00150
BE2564F9
BE8DD581
3EA73F6E
BEC50C29
BE0E898E
3D43B3C7
3DA98403
BD641922
BD63361B
BD8DE6DB
BE8545AA
3DCA8006
BD1C8732
BE3DA921
BE87ABDF
BD88A36E
3DD63E70
3D2ACDF4
3E06BCBD
BD1B6714
BD8734DB
BE2AF988
3DCBC183
BD88E684
3D687AE9
BCA2269B
3E3308A3
BCC6E0FB
BE1526A4
BCDAF681
3C00E77C
3D880A3C
BE43D194
3E195905
BE6E00DD
BDBA79B0
3E81DD22
BE4757E6
BD8E8E48
3D0AD972
3E066673
3E0D9211
BE1302D2
BD294472
3DE5C5D6
3E02C5E0
3B871588
3D5BA095
3CF2542B
3E27EFFD
3E273CA3
BE03A788
BB262010
BCEF090D
3C651F7F
3DB153DB
3E321F13
3D2483DE
3A4571BA
BE1990DC
3C94A6A6
3DC50115
BE129E2E
BE4B6927
3D5A5B18
BE316B5F
3D9A5625
3E14B730
3D9CB534
3D393907
BB459BAB
3D38C5B1
3D5CDEE9
BCA03382
3E077D85
3D6F40FE
BC4B27BC
3E4EC08E
3E0B11FC
3D8446DE
3DC0BFC3
3D038BD3
3BABD383
BD0560A2
BBDE90DA
3C2BD53B
3D352985
BE44A01E
3D9B9D47
BDDBEA0C
3DED15A0
3DC72A08
BCC8D5D2
3BEB431A
BDA6D096
3DC18EE2
3D58C7D8
BE6885CD
3E5BBD17
BD7647EE
3E680AA0
3D0EDB8B
3D50607B
BE473186
BC38E5A5
BC6A22B4
3B99C7E8
3D932414
B95B49E8
BE257356
3B9DC004
BCE618B3
3C9F2BF0
BD85AF4E
BDAEA91A
BD90355A
BD8DC31A
BDB91366
3D9857F4
BCD07F7F
3CAE3D70
BCA78DA8
3E412BB4
3D9EE2CC
BDFD2052
3DF68EB5
3D9D986A
BAB2B620
BD0D6185
BD5C94FC
BE57748F
3D5D4E3A
3C8C8869
BDF8EBB6
3D75C333
BCC6728B
3DC66918
3CD04F79
3D520291
3CF3ECDC
BD207348
3D4E1F35
3D9BF745
BE222D9D
BDCC9463
3E0394CF
BC76B701
3D0BF6FC
3C38860E
BE193780
3DD20AC7
BCFE313E
3E0922C7
BE2A1EB6
BCC0DECD
BC4CB2EC
BE0BDEF8
BC1010EF
BDEBBFDF
3D953BA0
3DFDFC93
BCE7F1A1
BE22AB90
3D8F3918
3D2C6C45
3E095C9B
BD72DFF9
3D8422A8
BDAFAA16
3D21F9F5
BDE9FDF6
BDC40832
BE11CDAB
BD96277C
BDF06177
BCDD9323
BD2F26B1
BE583F63
BD22BF73
BDF554FF
BD1950E4
3D937D6F
BDBD5157
3E091588
3CD238F8
BD49E369
BA757CC4
BD9DBFA4
BAC6C54C
BD282617
3E0079C0
BDC40B09
3E06A622
3D3DB337
3D43636F
BE508A49
BDA9A736
3E8BFB5E
BE240269
3E18F81D
BDD18499
3CC345E0
3C28FFB3
3DCA3795
BDD824CA
3E42CF33
3E42739A
3C9EEEFE
BD1A5584
BD77177C
3D4EFA61
3DB27638
3D81B6C1
BD2A603E
BD1E0B36
BD833A2F
BC231D87
3B16117A
BD0E8E8E
BDB7CBA1
BD259B93
3DD297CE
BBE5ADEF
3DD5458A
BDCCE4C3
BC7B8B67
BE0F787E
3D3AB48F
BD7C2304
3DC23248
3CC293F4
3D43446E
3E2ED38B
BCD055F9
3C799F7E
BE55DE99
3E536E94
BDD6241B
BDD6AF76
3C093F39
BDE0940F
BE289CAC
3D98CF42
3B9B9532
3D45BF6F
3D53D76B
3D4E55B6
BD5D722C
3E077A9D
BD3FD44C
BE11A007
BDA9095C
BC7DE4B2
3D9E57A7
BDD974E5
3DE15417
BDC08D8F
BDD4226B
BE999354
3E3A1BCB
3D86A01C
3B4370AE
BD65D006
3DD35D19
3C38864F
3E5414F6
BE481E1D
3DA67F10
3CDBC7B7
BD11B57A
BD5C9770
3DA16C45
3E18AA12
3BDE73E9
3D0CE073
3D1D98A5
BDB7E096
3DA973E9
BD8DBCEB
BD802A9B
BD8E3F42
3E1D0AB0
3D046692
BD377B34
3DD4EF19
3E064FFC
3DC235F3
3E9EC51F
BD840873
BDA9ED19
3E414BA4
BDDC6ABF
BE939FB3
3DB59A4B
3D2D1128
3D11B5BD
BE655BF2
3D5DA16B
3D854929
BD8A43C5
3DFE62A4
3E1D6A16
BD7737C2
3B1CA512
3D2BE2DD
BE0DB126
3DBD998D
3E116077
3CD2B1A9
3D4CF29F
3BE68570
3C841229
3D829B68
3D9DB401
3D263610
BC6D078B
3D85630A
3E186AAC
BC46BD29
BD568F91
3D407B76
3E416DD4
BE3C67B4
3D917A4E
3CB06269
3DC2004E
BDF982CE
3C688052
3E43793C
3D44BA4F
3DE011C9
BC2C70CC
BE0ABBF0
BC012960
3DD42940
BCF1525D
3DEB65AB
3DD9B741
3DED6DD7
BE1A95A7
3D06E9A1
BD7BBC6C
BB8B62CA
BE075758
3D61E4EA
3DAAC34A
BCB99156
BDFAB9E8
BD524001
3DCC96D3
3E2BB67C
3CBB8DCB
BE0A5DD8
BDBA4671
BE4D2117
3DD821B2
3C703AE6
3C441A77
3C32083B
BDAF2BBD
BE7A3D21
3CFE7094
BE539EA2
3E02B6F0
3D96A6BC
3DAB435E
BD011008
BC8F69B0
3C9FCEFD
3C40317E
3DE4DE8D
3DF4D2D8
3D89AC4D
BDC05B74
3D1BCF0E
3DBBFE69
BBA1A2E8
3CFDF9F6
3D433737
BC1F46E2
3C6A867C
3E30B345
3D6556F5
3E4E138B
3C6D21A1
BE464FFD
3E41CE49
3DD8013B
3DBD93F6
BDF16CFA
3E2C3B84
BE99E319
BA246550
BC6CA092
3D6F9C1D
BE4F2F86
BDEF9D70
3DFD2BFB
BE40FA0C
BD7B531D
3CF8F108
3DB47709
BD9BE684
3E2A270C
3CC63D3C
3DC37068
3DE8FC0D
3E06DA3B
BE36F06C
3DBC88E4
3D849A83
3E190016
BCEC3B32
3E046999
3D5F073A
BC3D5EDB
3C7203D3
3E68603A
BCACE714
3D85E3CE
3D068647
3B787C28
BDC354C4
3DF8D69F
3D1A3395
3E25D69C
3BB6E402
3E11D753
BE40776D
3D9220E9
3E0725EA
BE3B3A37
3D94F94B
3DF9548E
BD62917A
BDDB6089
BE1C81EB
3D50BD42
399F6A3E
3D1B5E96
3E17140D
BC999639
3DBF0177
BCE75438
BE0F3469
3D16A1A2
3E1F3F9C
BD60CEAA
3DCC5831
BE83AB53
BC38F905
3DF26CB2
BDE299B0
3CB3FFCC
BA1F0DA2
BE09FAA7
BEAE94DF
3D4AD43C
BD6A85BD
3DB9D8A3
3E4DA3B0
3E1B1CCA
3D266E06
3D0EEF31
3DBE4C38
BDB07AB3
BD87EFE3
3E5C3256
3D09423C
3DB0F1DD
3E3875EA
BD48FF38
BDDC2E78
3D6012D5
3E278BB6
3D949EE7
BD3B46E6
3DF17942
BDFB169B
BE1D6A00
3D5A5FDB
BEC2C003
3D636EF8
3E371C0D
BD27376C
3E3D4DD2
3E9C3356
BD9D55B2
BD4F6C8A
BD959A7E
BD4BC26E
BDCE9CFA
BBF49162
3DFEA127
BE76C3DF
384272AC
3DFFB559
BDFF2F64
3BE1590B
3E030A24
BE22319C
3CCE5137
BC9CC59E
BD9983E6
BE69245C
3DB65FFD
3E26A47E
3D4C1F00
3D9224A3
3E42E321
3D9496EB
3E1C6660
BE818FD4
3DC826E3
BD2B6B1B
BDE952D0
3D19F1E7
BE93F258
BD89B88B
BCD5CE0D
BD87422C
BDA2DA7F
BE64BBCC
3D297C08
BCAE8036
3E004A7E
3C154231
BDB4223E
3D400CFB
3E0B6AF3
BD7091C1
BDAD7C84
BC800AE8
BDEDB5AE
BD885C7D
3CF129F4
3D8AD382
3DD51D2C
BD888B83
3D744BA7
BDDDFCAD
3E3296C4
3DF30F4F
BE62D46D
BC91996B
3D63C087
BD55D681
3D23D562
BE2A8C2D
3D9A5BB1
BDAE58AD
BD0DF1E3
BDD02FD1
BD1A8DCE
BDC58A46
BCB9952D
3DDC3B4A
3BF8A6B0
BE0101D2
BD8E1059
3D936CE0
BD251736
BDA4228C
3DC91E3E
BDA6C936
3CAC0319
3AD64E81
BCA14E7F
BDCF18BA
BDC359B5
3B409180
3D8A0C52
3D2C2A48
3E31C2D7
BE3AB1F2
3E23762A
3DD7D52E
BDE65DBC
BC5DDF8F
3E5336B1
3E96C717
3E8B2C0D
3E505B64
BE3684DC
BDDD4F06
BD97DC4A
3D372D61
BC8DD3D3
3C370687
3E111106
3D952B89
BE2BBE18
3C4258CB
3C61866D
3C7F1036
BD8BCD11
BD570C13
3D5F10FD
BCA117DD
BD86DE4D
BDA2DAA3
BD8F3496
3C29F96E
3E42A8A8
3DD752C5
3DA5D383
BDF07510
3E3A0D55
BE01E293
BDA50F93
BDFC646B
BE0849B9
BC1DE9F6
BDF47951
BDA8DCF5
3D274CBB
BD8D9139
3B22B9D4
3D88F444
BDEF1DD2
BE378BBA
BD075D21
BE2D3DC9
BD8E91FF
BCF22511
3D0932AC
BDFC2E2D
3D781494
BC636230
BDBCF4D2
BCB4D011
BDECAF8B
3D1CB171
BD5DE50B
3CE97F65
BE1C3C84
3DACC35C
BC910556
BD177C33
3C86E4AB
3C3D6958
3DA4BDD1
3D72B89A
BD5E8180
BD83946B
BDCD4BED
BD12BE94
BB33EC2B
3D834398
3E2EDA8C
BDBDC1E8
BC2D305A
BE571C71
BE04782D
3C1648AC
3DB384A9
3E21A22D
3C631C5A
BE0F8FB6
BD2457C1
3CBFF62F
BB7FEDE1
3D732A8F
BC0DABFB
3DD78ABC
3E47316A
3DAF5E1F
BD7285B9
BDA20E0B
BCF0CF1B
BCE9BD2E
BDD6C60D
3D25C2F8
BBDFF447
BE93E10A
3D114169
3E062027
3DD1FBEA
BE4A2C48
3C84B039
BE1A51F8
3D005C4C
3CEE5D20
BE3208E1
3DA07AFB
3E285AAC
3E2ED61E
3DA074A1
3C0B8BDA
BD90A453
BE3277BB
BD0E0C45
3DF02583
BD46338E
3DFBA8CA
3D9EEEEF
3DAAFAFB
BBD03AC0
BD1554D6
BD0A42CA
BCF7C9B6
BE0A984D
BD6B92E6
BE3015CC
BD892335
3BAB03E5
3D6E4FAF
3D1232AD
3D6F9498
3DBB4EDA
BC8115CF
3E0B2E14
3E256713
3DB9E7B9
BE2BDBED
3E00E216
3E28F08E
BE1A13F6
3CD42ADA
BD3A8984
3DD2021A
BE7CBC91
BDFC44A0
3DFAE435
BDBEA65A
BD8D989A
3D4D5E2D
3D3067CA
BC884C55
BD5CB9A7
BE1FDADF
BE2AC41C
3CAFE64D
3D99B245
3BF356CF
BD1D180C
3D8AC797
BDED23B7
3D6DC65F
BCE8E663
3BE5DEC2
BE5F5ED7
BD3F5A3B
3CA62C5F
BD59AF7C
BE026B4F
BE8916B0
3E3B03DB
BE74A939
BE06F696
BD0231C1
BD9ACD20
3D90E9CA
3C6CBFBC
BB6989C7
3D4DCD83
3E19DA9B
3DB9A38E
3DD6FBEF
BDA09280
3C1536BE
3DBE1C24
BC42C68F
BD6C9E94
3DA48675
3C83947A
3D88EBBC
3D0919ED
3E66B47B
BE02DBFD
BD8751E8
3E255BCD
3E39C1CF
BE1B4864
BD41330E
BE22F569
BE3BA12D
BE85652C
3CFE8445
BE3AE10F
3DE24EC7
3E698816
BD81FCC8
BD957997
3D71D99C
3DDB6E67
BCAB97B3
3B6303F1
3D9A0CC7
3DA13D2C
BD2EFFC5
3D929ACB
3CC49EEB
3E032F19
3DC24E7C
3E1678CD
3E0FACC5
BDA20623
3DDC2573
BD35C5F5
BD1AACB4
3E18A3B9
3C81EEEE
BDFB68C3
BC83E131
3DAA3AF6
BDD45D86
3C0EE79A
BD83E131
BCAC5B33
3E4CD708
3E062EEA
BDC8A771
BE518070
3E1ADE22
BDB3EA11
3B534389
3D673050
BDD702C5
3DA4BA5C
BDF056B6
3E0E6608
3CCF3100
3D9AEC3A
BD16FA80
3E24FA2C
BDF308F0
BD0C8EF7
3D23630C
BD5C2C81
3E53E0FD
BD181CE7
3D01D21D
BE442887
BD9AB4E7
BE49B68F
3E3928A7
BD60DFB7
BDAC9FAB
BE238CAE
BE55C20B
BD9B6F2B
BE15A1F2
3D38E3B4
BD5A021D
BDD6D60D
BE28B09D
3D233E26
3D73AAB7
BC854D31
3BB937F0
3D9A9C53
3D32535C
BDB0D7AE
3DF95E5E
3DFDA7A2
BE49864F
BE0C961B
3E25FDB7
3D873E71
3E0B5E23
39C5CDAA
3DC00625
3D8F9AFA
3E2691D7
BEB4BA5C
3BB6B305
3E9D4B05
3E45F1CF
BE80D25A
3D51BBD5
BD56D3E7
BE8A3CB6
BBAE039E
3E6C217A
BE0ABFEC
3E97CF5F
3EAD822E
BE13A8CD
3B47500B
BCD3D1FA
3D5A959B
3DD794E5
3C947121
3DA039FF
3CF0FEBB
3D6765C0
3DABEC72
BED33664
3B8B5B7E
BC62954C
3DC304A6
3E466BBD
BDDB4532
3D9034A7
BD3D2F96
BDA7BBE6
3E7036C0
3D00D909
BDD4020D
BE11D9B1
BD2C22F9
BE48862C
3E0797EB
BE42C347
BDA27215
BD091FE7
BDECA86F
BDDF5AD4
BDAF1906
3E2AEF9D
BBCC1B4C
BC4C5A77
3D9E35C0
3C1758F8
3D0780E0
BE5AB8FD
3D722C0F
3D518BA1
3D2A5E38
BE4A5E31
3D94664B
3D87EC76
3DF1AA89
3E14CEDB
3D552C01
3E009390
3D05C4FB
BBC80BF3
BE413204
BDEC3765
BDEB9804
3E42D2CA
BDA88BDB
BDE796E8
BE42D92F
3DDFA96A
BDF99748
3DB522AB
BDC745D3
3DE6E889
BEB8E5C6
BEA134FF
BD733915
3E60485C
3C56AC75
BDD2E76F
3E07F76E
3D858316
3D98FCCA
3DF84077
BD4D9694
BE0D7418
BD863C64
3E283AF6
3E07E8DC
3DB4242F
BC208DD5
BD225F13
BCDC4B1A
3E31E47D
BE0F6FE7
BDE74FB5
3E7B8B67
3E8D6D4E
3DA7C68B
3E6EF970
BE0126D8
BEF31FCD
3E2BB126
3E952E7D
3D5C20CD
3E1241DD
3E6062A0
BE5A0C01
3DA5AFD5
3E31EDAD
BDD47737
BD35D77D
3D3B8A4A
BD470DF1
3D9A6CBE
3D4F0BA9
3DB38AA5
BE333E22
BE353CCE
3DBD3FE8
3E1F0404
3D8DB121
BE60D657
BDFF50EF
3D2ADBEC
BE5E7596
3D22076C
BD94E363
BE25514A
BD36CADB
BE77B72D
BDE8F6A9
3DDDDBDB
3C7B050F
3DD5010D
BE83A278
BDA0532E
BDC4B539
BE181BC8
BDDB532A
BDC2B3CE
3DED5117
3DF64366
BD64049C
BDB75138
BE2103EC
BDC37834
BCB37D86
3D8C95EB
BE5FE148
BCFD1B8A
3E051AE9
3DB1ACF0
BD9D78C2
3E3BB76D
3D944696
BCBEDB3D
3DFE2748
BCC37FC7
BE31F709
BD78D696
3DE9693D
BB860C5F
BD24FCBC
3D92F634
3D7368C0
BE0401A0
3DBDFD3E
BDF9CEDB
3DE6FFBD
BEDCB0D1
3C821707
BBEC825F
3DDF4CE9
3CA4EC0E
3D79BAE7
3DE7465A
BCB0A081
3D727AFA
3C86A312
3D844858
BE004397
3DB2460C
3E0BC398
3DE4437A
BDA54E74
BD3CEF54
BE02C622
BE64F0DE
3E363FA9
3DC9BF70
BE236B91
3DEE9F11
BD4B6E6B
3E7D12B7
3E66EC30
BD5A917C
BE8E2905
BCCD6335
3DC7B181
3CC59525
BCDAE940
BCE82F74
3D36A896
BD79D45A
BDB861E2
3D0C3E07
3D344435
BDB329AC
3D37F537
3C32D7D9
3D8C3B06
3DF8BD14
BD3DED29
BE206266
3DC1B741
3CA2039B
3E269471
BE6AE9EC
BE790DE8
3E6B62FB
BE145CF2
BE10F5A9
3D740015
BE132125
BD262BF9
3DB6C248
BE673E64
BC06F842
BDA74CA0
3DE59E61
BE614AA8
BE605BA9
BDF508ED
BD9C584B
3E12405F
BDA56768
BB997319
3CC0FBB9
BE791CA4
BDB87A3C
3DAFF1BF
BE735FAA
3D29DD46
3D40DC71
3E190A23
BDAF1B1D
3D269832
BE0C0C56
BDD30B75
BD8F2CE1
3E0A221E
3DD5BBE1
BD9C08E2
BD5ED025
3D9309A2
BD7E2750
BD4B3436
BEBFFB02
3C51607B
3D379A71
BE20B5BB
BDA4C7EE
3DF7985C
3D04E440
BE626366
3E424EDF
3DD8E71D
3D02134B
3D89BB9A
BBB37CDA
BD14E194
3DC51F9A
BDB6D7A1
3DF7A752
3C8D4055
3C4C8AC8
BDE3BE2E
3C4B4E12
BCC7EEB7
BC03B831
3CBDB00F
BE0292A2
3D5CDF82
3E0FEAAE
3DA4AC2B
BD7CD1D8
BD7B03FD
3E0F813A
BE30FBD4
BE5CD117
BDB75506
BE0DD0C1
BDB72538
BDCFE259
3DAF1512
BD203156
BEBF7ADD
3E429B1B
BD9C834D
3D597EF5
BDB8063F
BDC1C0B4
3D09FE36
BE392C7B
3DF5C714
3BAF28F8
BE04F5EB
3DA1D284
BD9A8044
3E4493BC
BD8B06B3
3D92BA76
BE809310
BE786F0A
3DE62C8E
BE152F96
BDD65ED6
3DE6D149
3D827406
3CEF6BF9
BD1D2BF8
3DE64F37
3D9B8B6F
BCC9196F
BB9E40C8
3E2BBD66
BDE3D387
3E03AF2A
3E5259A6
BE72B69C
BD8BF67F
BD54AF4A
3C85E0E5
BD239279
BD3B35A6
BDFD7929
3D2D7178
BD01E3FE
3D9F9423
3C740A33
3D70E515
3E373A81
BDAA19E6
3E07349C
BCF4CAC3
BDA4292B
3DD8378E
3E267DC4
BD9F5398
BCBA9EF8
3CC6B6F9
3E08DB82
BD13DEDA
BED40C59
BDF50601
BE255EB9
BE07E6E3
BE527A2C
BE1398C0
BE321BDF
BE80FB83
3DEF2D80
BE1EB665
3E263470
BDB02C3F
BB6D1598
BD88C873
3DE4EBBE
3DD559FE
3E1DBDB5
3CE1F375
BDC12699
BE45997D
BE2C0DFB
3DCE1727
3DAD2862
3CA9D3AE
BE347FA3
3E08D57D
BDF474E0
3E311548
BDF1C1CB
3D572172
3E053105
3E2B8BF6
BE07CB74
3D9C7E5C
BD3D071F
BE2E4064
BDAE6CC4
3D367578
BC891522
BD9A0FEB
3CD45BC7
BE65C5CF
3A8C3FEA
BE0DC41F
BBCB1740
3E286BE7
BDBC4D8A
3E087232
3B41D19C
BE09D03A
BCE9C9BD
BE8B8078
3DA38EBB
BE1DA1CC
BD1E8356
BE2BC7F3
BE4C8A10
3DBB7A61
BD65C623
BE6B4DC5
3E4EA2E7
BDB8B104
BE3C15DC
BD41800A
3C957D3A
B8E3953B
BCE51E73
BE71B9EF
BC5BE4A3
3E05FA0C
BD91567B
BC79DB23
BE96F52D
3E213B85
3DE338AA
3CD442DD
BC09EC7D
3DC3E63F
BDEB448C
3DCF8362
3D503319
BDB769A8
BB89FE5C
BE11B912
BD4F3260
BD881890
3DD8680C
3CF88C1E
BD8E1B92
3E68FB03
3D23C18E
BCD40307
BD8219B6
BC1BFC2A
3C1A19FD
BDA4CB36
BE740235
3D533902
BE66D7E8
BD17094F
BE4D1C82
BE30E379
BE96973F
BE810E45
3DF1CF85
BE9FD8A4
BD72795A
3D799CFF
BD7827BA
3C40B4C6
3D392A00
3D59A939
3E0AB493
3AD22CDE
3D91EA1D
BE6426BA
BDA19994
BD364C1D
BCD0B0AD
3D9695C9
3A57C6A6
BB698392
BE0F951F
3D9E8D8F
BDF1EFDC
3DA77A4E
3E05E277
3ECCBAE7
BD754A47
3E10759F
BC2BD55B
BEE40FB0
BDB02F69
3DD06564
3D4A953D
3CE133FD
BEA453E9
3BC36860
3DC8EBF7
BDDD4E71
3C9263B0
3DAC80E7
3D739615
3DEE620C
3DB6B5F6
3BA64A2C
3DCB120F
BE2326F6
BE969CE2
BDB05D51
BD03B541
BDCF058E
BE81FB87
BE5296A2
3D33367E
BE2F7235
3E8F64F4
BD5F0884
BE2D0018
BE62C979
3C775D8F
3C984978
3E00B411
3D9C6C8A
BE667462
3D794475
BE5153F0
BDA5C93C
BE692B27
3DD3E9AA
3D590720
3D8DF72D
3E3412AD
3DF402C0
BE0719E8
BCA89082
3B52E845
BD104301
BD2BA100
BEAC7CED
BE41C8B9
3C122277
3DAE2782
3D4F7CFE
BDFCF233
3DE09088
BBEFADCD
BDE9837C
BD1AE2DD
3D0BF2A7
3D7705A0
3D8F7141
BDF74FBD
3CBAA7FC
BE0479BA
3E16A429
3D85A4F1
3D2EEBC6
BDC92F49
BE729E86
3E3EA5B3
BCDE6E40
3C93CA62
3DDEF38A
BD82FFFB
BDE157FE
3DE05366
3E311116
BD7CE6B3
3A89199A
3E021FFB
BCD3C8A5
BD26E5D0
3D62D39A
3C74392D
3E08B1C9
BDF0C0AE
3C1B9F8E
BD201A29
3E8402DA
3CB2EB6F
BD0E602D
3E106E40
3EF51531
BC43B8DD
3D6A6CB6
BD85852C
BE941350
3C387E0B
3ED5407B
3D217A39
3E4FD757
BEB08D7B
3DE6D3BC
3DBAB4BD
3D808C0A
BD8D8210
BD5D131B
BD044620
3DCC2AC2
3D85A353
3D1DFB86
3D6595D7
BC139741
BDE6E36D
3D038FED
BD208036
3D6BCDA1
BE1BB810
BCB86BDD
3D8CF79E
BE03DE5D
BD4703E5
3D87DA87
3CFB2D8E
BE90A84E
BE25960E
BC98D402
3DE139C3
3D3F0CDB
3E0019A6
BE3F0E85
BE7DC936
3D870CD3
BE141D15
BE8888F6
3C0054AF
BD25FD9B
3D318C67
BD900527
3D8F044B
3D6EF81B
BD43419E
3DD7E0A4
3D1B751C
BDC38D8D
3C901130
3E2EDCEF
BD492327
3CBC49CD
BEA900C8
BE664F63
BD09C8C4
BD1315DA
3DAC23AC
3BA911B2
3D639F44
3E1AD676
BD8B9A3E
BDC829E3
BE2880E6
3E49D199
3CF99A00
3E0E0CF7
3D2DF1FB
3D82BCA5
3E7B1095
3DD2AB49
3D20FBAB
BCC943E1
BD20F823
3D9D33A1
3D89B84D
3C1CAE8C
BD8AE5D3
BE001EAD
3D580674
3E076E3E
3DC76362
BD179F46
3DAEA874
3D265D07
BD726CF5
BDE0F707
BD3C1621
3EBE918C
3D30DAB6
BE29DBE8
3C096EB4
3E6717B7
BD062D56
3DB6D685
3CD2D2CB
3E4CBF22
3DA68602
3E6364B2
3CDC69FE
3DF8214C
BED3CD54
3E4205C6
3DD6BCE8
3D4C8DFE
3D78A78F
3DDD040F
3E10E579
3CB5C2B5
BC1EA654
3D842473
3C418444
BB038505
3AE743C6
3E0E05BF
BDAA6311
3CFF7373
BD394D56
BE48E6BE
3D891B22
BD6EBC79
BCB977F1
BE090D0E
3CA8776D
BE25663A
BD533361
BE5AA55C
3E03C993
BD9A5125
BD0C416A
BE9AEB04
3C350713
3DAD34E0
3D1F0843
BB6CB8A5
3DBED100
BE20CE05
BE0840C5
BDE38F36
BD134B3C
BE05B4F7
BDC53E2D
3CE5F74B
BC297F6B
3DBDFB07
3CDA487B
3DA268E3
3DAB3D86
3CD0B991
BDD5B13E
3C0587BF
BD0659FC
3DD40C47
3C142AD0
3DB419D0
BDBCFBAF
BD033C78
BE7C22A8
BD33D799
BE54E6D8
BC87EBA7
BE76070F
3E06C880
BD82AA68
BD887CF0
3E20636F
BE8A7F19
3E0EDA0D
3C7840CF
3D513F35
3DAF5D2B
BE0B5920
3CD2CDCD
3E149718
3CF9468E
BC916CF0
3C3E0757
BD12A77A
BD854F48
3D9CE112
BE268484
BDB36465
BCE375C6
3E1815D3
3E39B289
BE279145
3E36118C
3DBF46FD
BE3C633E
BE3706AA
3D1D749D
BDFFB5FC
BC5D55DC
BDC5DB58
3CB024D6
BCFFA07F
BEA51CDE
3D1D77D8
BDD4D6A9
3DC43B7C
BD60E5F4
3D8AA355
BC509869
3C11A834
BDB9212E
BDBCBFEE
BAA6F954
3D6A7F7B
BD3C7F98
3CCCA469
BDF0F56F
BDAFFBDD
BE0F2C28
BC9C5764
BDFA18F3
BE229AAC
BDCD8828
3E1B24DE
3D5385C9
BDE9F030
BD5FC00C
3E5E091C
BC6966AC
3C83D755
BC947283
3C35F83F
BDABBA28
BD809BD3
3D10CE57
BD8E52A6
3CAA601B
3E2463A3
BE00A7A6
3D69E2A7
BD73B16B
BE08DDE5
BDA062D9
3D7057AC
BDB90B7D
3D9753DB
BDD384C3
3D8CC00D
BE429FA9
3D7E1C7B
3BA28BB1
BE1B4E6A
3C18E29A
3D7A78BF
3DE546A1
BCEA013B
BD952C4B
3DA2FE05
BD48360F
BE9F39CF
BDA55F06
BE5C0E2F
BBC30030
BDD79422
BC94EE74
3DB14BDC
3DA3BE9A
3E6F7CCA
BDBDBCEA
3C4DA6C7
BC18457C
BDB12286
3DB81A99
3DD23ABD
3D123BBF
3D4E2E41
BCC71355
BC0C8219
BE4C388B
3DC0FC7A
BE183D2C
3C9CC77C
3C3AA085
BBA718B3
BC8E0B56
3E514679
3EA29B6E
BE88FFBA
BD0ACCD5
3DF8FAF5
BE12958C
BD0E0B79
3DDE99B6
3B3B19F2
BE729805
3E6EAB57
BE081893
3C535BF3
BE808436
3E292444
3DC6B76B
3E0E4530
BCD74B76
3D018CD3
BD025A80
3D342BB9
BD9FF2F1
3D8D09D6
3D841922
3C1181B3
BDDDBF07
BE24BEBF
BE5AA2D0
BDB5E251
BD79D902
BD9447D9
BE2E213A
3D3D85AD
BE2F0098
3D6ACCE0
3D6C7579
BDF94B74
3BA5B5DD
3E099A85
3CF3CA37
BD988422
BE284472
BE2DCFEB
BB9E1D77
BE2A43CD
3DA7DB31
BE6EF696
3E52D660
3E0BF32A
BE017636
3E0C0C84
3C170B1F
BDA6535E
BD44A3DE
3E2BD4A8
BD6A9CA4
BD6947ED
BE3ADFF6
3D67EF0D
BD65F6DD
BD3F129D
BD5D2555
BE0DFB66
BDD792FB
BDAEEC19
3DB07C46
3C5232B3
BDAAA431
3D6F890F
BE0CEA25
3C02FF6F
BDAAC515
BE75A3ED
BCBBC9F0
3DEB0780
BAE44915
3E3D1460
BDFAB888
3E42C988
3D205B2F
3DB36D57
BE632BB7
3C2F04E6
3D077D50
3D6826D3
3D96859A
BCB7A8DE
3DAF114B
3D153422
3BD6ED8D
BD1F2517
BD91AF12
3CF896E5
3D0A9C84
BDD7543C
3C4AEC37
3D8EE0D2
3DD97A10
BE39DB43
BE5A7A66
3CD71DD9
3DE939DD
3E4AA5C2
3D6FA12D
3DB6D21C
BEBD7C6E
3E441C3F
BD7065FF
3E3A0551
BE184CFF
BD1AD843
3DC2D333
3BB8C7F3
BE16C777
BC9B83BF
BB905751
3D5116B9
3D37AC3C
BD0CD177
3DB06F63
3D215743
3E009D3F
BBB11F32
BE3A7F8A
3DCA0EE3
BE0D8C5B
3D7A1A78
BBE1C603
BDE1A9D8
BE58BEB9
3DFA48C2
BBD49DE7
BE45E9B2
3C86474D
3E0017FB
3CAA6447
3C164D9F
3DF4FC80
BDBC5123
3D02CE39
BDC8EE85
3D92C654
BDBDA8E7
BD8F52F8
3DEF0683
BDCC3D8C
3DFD2A78
3D979C2C
3BCA61E3
3DD3E5C8
3DAC5DC4
3D6CFDFD
3D5E8877
BD446E8A
3CA07CE3
3C535100
BDC6C689
3D6CE978
BE4FC843
3C51CB19
BE67058B
3D53B8DD
3DD6D7CB
BD7A7923
BE345D63
BD869050
3DA862D5
BCABF180
BE8B3530
3C9EFE58
BD4F0B79
BE57C1F4
BD39461A
BD3DFE8E
3E1BCB76
3E38AD97
BE288377
BD3FFC5A
3E15C540
3E1245F7
3BACF1A6
3DF2B5D1
3DCE4656
3C8A098E
3CF78A50
BC850EF8
BDF2BC8C
3DD04D40
BCC6CEE7
3DB303CD
BD20AD1C
3C9393E1
BD802B05
BD959C21
3D24E22D
3CEECC56
BD434272
3E117704
BB1F06C1
BCCFD419
3DD979FC
3D5DE0F1
BDCAA9DC
BC33B361
3D90130D
BE111DFE
BE15387D
3E0EC34C
BD0C186D
BE2D67CF
BD43A07E
BD23E4CF
3DAE1D36
3D0BAAF4
BD1B2E37
3D9FC9BA
3D910A8C
3D8C8B71
BD85820D
BDBB20FC
3CE868D5
BDC5F309
3DE365B8
BDB3F7BD
3D60170A
3D52F515
BDE3EFE0
BDA815BB
3DC3517C
BD8B617F
BDC3ECBC
3DDC8D42
BD99AC9F
3D6AF531
3E175285
3DB3C595
BD1D3951
3CD8C615
3D46F169
BE3C0C51
3D906110
BDCDD93E
3BCE399F
3DA6AA7B
BCC4C9C9
3D7DDD20
BDBBF22C
BDD5D5C6
3DCD28E3
3B8686C2
BDD9930B
3DDE6275
3DA0B52A
3E1B9FE6
3AF87115
BD8E8ABA
BD519A95
3C67C89C
3DC71483
3D8B522B
BE6D14CC
3DAD5E95
BB8A24B2
BD3DCB90
BE669224
3E30C55F
BE417082
BDF46EFC
3D1D8C9B
3C117944
3E40B546
3DFA9EAF
BD77B340
BD2655C5
3C9B3840
3CBE0D62
BCA50573
BD444F42
3CBD0BF5
3C7EB278
3E0A51DD
BA5FDA46
BD251ACF
3C0F6C0E
BC46ADAF
BCCC32DE
BDCDEC66
BD87BDEE
BE0D1B65
BE18D488
3D857B8C
3E484AC0
3BA97A8D
3E259C44
BD462FC0
BD116F8C
BDB83F91
3E51FD8B
3E2BD73C
3E1413B6
BC150494
BDD98B4B
3DC1C565
3DA943A6
BDCB197D
BE03D632
3C874C50
3D29CCE0
3D78C023
BD2106FE
BD5B36DB
BC9E0509
3DA8B7A6
3CD237CB
BD02157C
BDB35681
3D010942
BCD895C9
3D9C3078
3CB81BAB
BE4C51C9
3C6BFD8A
BE339F6F
BDA810F6
3C64B7D0
3D2D46D8
3D96E44D
BCC90B0C
3E02E5DE
BD126B5D
3D9E5393
BE3B4023
BD9F595A
BC4C14A1
BD4A1B11
BC2D09B9

