BE9CC063
BD85E787
BDE9FBB6
3DA2238C
BE8A14C0
BDF50007
BC655CBC
3DA1F4F4
3E82ADFE
BE1FD9BE
BE80D745
BE521FDB
BE4B6E91
BE94A944
3E12F48C
BE57F20D
3E3056A8
BE620A5C
BD03736D
BE637984
3DA40ECB
3E897CD3
BED70673
BE174BD5
3E2F2BB2
3E966C8A
3E9A19E2
3DEAA1A4
3E0607D4
BD0BF0FF
3DD12187
BE763959
3E63A080
BE455A0A
3E8066AA
BE8CB21E
3E882881
3E3352F3
3DB0A62A
BDF4598A
BD51E5FC
BC33DD68
BDBD03FB
BD8094FF
3CF3AEC9
BD118025
3D720063
3DD69451
BE49F158
3DADEE3A
3D85B893
BDEA00AA
3DD786EE
BEC54E12
BD4539D9
BE1619F0
3E53B717
BE99AC56
BE977172
BE03B63B
3D1A7D11
3E499D8E
3EE5185B
BE845F22
3DA4C93B
3C8CA275
3D31CD2D
BDBE74C8
BD8145F5
BE9BE408
BE5CB8B8
3DA34BCB
BE83ED56
3E1D7033
BD9F6B86
3D5F916D
BE09FA5E
3E7E7DD0
3E06F451
BDB70784
BE4E2C77
BE4031F3
3EE41782
BBCCE0EF
3E63C17C
3DA79A1D
BE8A262F
3C8153DD
3C5E8F6D
3E6BEB69
3DED92EE
BE0FB95E
BE1AF434
BE9BA452
BEA805B6
3E93E5EE
3E8A4FD4
BE54ECE3
3D842C2B
3E633335
3E4FEBC9
3D19DB53
3D1140B2
3D97602A
BE80A1C0
BD8190BF
BEAA5867
BDB28A2D
3E5B6024
3C1C4C26
BE1936B8
BDC878B4
3EC64A0B
BD73BC4D
BE17F881
BD940191
3E8F4A82
3E4D6C5A
3DAECA24
3B1F68BC
3DC7A860
BE07DC55
3DBB374A
3E86638F
BEB1535B
BDDB31F1
BDCF37DD
BE998EBC
3C51382C
BE20B51A
3DFBDB62
3E60522E
BA991997
BDF30BA7
3E02FC3C
3BC974A9
BE1918A9
3C8A6B33
BDF79DAB
3DAADE14
BDA4B5A4
BE977050
BCB9BA31
BE44F1FB
3DA55C18
BE8D57D6
3E185F8F
BEA3AC45
BE45CCAB
3DEAB3E6
BC506FDA
BEA05EEF
BE65F3AC
3E1B8D24
BDFD74AB
BDB8058D
BEA5FB1A
3D811DCB
3EB10532
BE698FD3
3DDC2D38
BE42E3AE
3E068D77
BE17CD0C
3E8626C9
3E5D1DD9
BE8F618E
BC1ADC9A
BE145700
3E9BE8BE
3E2B02DB
3E74CD26
3E823833
BD81F7A3
3E7A8C2D
BD67C6D9
3DBAC563
3E0F87C4
BE4F0760
3E91A136
BEA31002
BE751ED7
BE08C054
BD2050AB
BE5574E8
3D63AEA6
3E4D71B5
3E352B23
BE46603E
BDED237B
3E83727D
3CF1C351
3C88CF9D
BCC342EB
BE2CC275
BE6A1ABC
3E42CE00
3E53BE81
3DD64ACF
3D8314BE
3E598536
BE447AFB
BD631FB2
3C652076
3DE13A3B
3D949736
BE8B301E
3DDDF0A6
BDBD0F03
3D0F45B8
BDBB5B12
BEA49FC6
3CF10785
BD2510F1
BE9C7867
BCDF02D0
3DF17373
3E207C77
BE817297
3E2AB4CD
3E8469D5
3DFA43C5
3E0FF271
BE97D70A
BD77D6E4
BE4377DC
3D1D363F
3DD7DC34
3E2B4CB5
3E0DD817
BD71370A
BDABA1F3
3C3FB0B0
BEC0800B
BE87EF82
3E05DF9B
3D9AB3F1
BE4AB5A9
BD727DCC
3DD2AE08
3E6FF8D9
BD626DFF
BE7F7FA0
3DB5D7AE
3E5ADA20
BD1E6A8C
3E11063E
3D045470
BE8C69B9
BBEA3E4D
BD8A6F02
3E350206

