BD2FB7E9
3CF41F21
3C809D49
3CFEC56D
3C35DCC6
3D3851EC
3BCB295F
BD7E5C92
BCA9930C
3BD844D0
3D0C154D
3CBD3C36
3D20902E
BDC9BA5E
BA902DE0
3C68A71E
BBEF34D7
3D6AB368
3CA2339C
3CA57A78
3D0E8A72
BB5844D0
BD15E9E2
BB7F9724
BCAC0831
3D9FF2E5
3C809D49
3D36AE7D
BD5844D0
BCC2F838
3BF27BB3
3B5ED289
3C8F5C29
3D4C63F1
BBDED289
3D93404F
3D1D4952
3C9930BE
3CB295EA
BB51B717
BC6F34D7
3D172474
3D514E3C
3D19999A
3D2161E5
3CB851EC
BBA0902E
BC8B4396
BCA8C155
3D04B5DD
3D4F41F2
3CCA57A8
BB449BA6
BCBD3C36
BD09374C
3CCF41F2
BA378034
3C102DE0
3D741F21
3B902DE0
BCCF41F2
BDD97F63
3C70D845
3DC2F838
3D656042
3D350B0F
BD89374C
BD229C78
BC463F14
3D75C28F
3D769446
BC3E0DED
3C04B5DD
3D628241
3D0C154D
3D95E9E2
BC9BA5E3
3D6CBFB1
3D919CE0
3D0B4396
3CA3D70A
3A03126F
3C8F5C29
BDD07C85
