BF00068E
BEBFBE77
3EBE1B09
3E83F141
3E197F63
3E29AD43
BE9205BC
3CB6AE7D
3CEF34D7
3E57C1BE
3DD2BD3C
3E5C91D1
BE3367A1
BEB47AE1
BE3D07C8
BD989375
3E56BB99
3DF34D6A
3E3765FE
BEDC91D1
3E23F141
3E161E4F
BE21CAC1
BC5D2F1B
BDFD566D
3E98A090
BC56A162
3DED5CFB
BE82D0E5
BED03AFB
3D80D1B7
BE12D773
3D8B7803
BE798C7E
3E8E6320
BE922D0E
BEA0D1B7
BE821965
3E4538EF
BE80DED3
BE369446
BD09A027
BE35C28F
3DC5A1CB
BD53C361
BE61B08A
BD3F4880
3E369446
3D3295EA
BE036113
3DAE7D56
3CF9DB23
3E72E48F
BD669AD4
BE4D1B71
BE71758E
3DF58E22
BDE45A1D
BE1F8A09
BE980347
BE34F0D8
3D6425AF
3D0FC505
BC2A64C3
BC70D845
3E87A0F9
BEA5C91D
3E9F62B7
BE4D013B
3E27BB30
3E9F1412
3D292A30
3E0B5DCC
BE42F838
3E6EB1C4
3E0A8C15
BDBDD97F
BE91F8A1
BDDF6FD2
BE5AEE63
BCA8C155
BE8A8C15
BC5ED289
BE2DE00D
BE629C78
3C3FB15B
BE541206
BDCDD2F2
3D521FF3
BD94E3BD
BD6DFA44
BDDA511A
BE00D1B7
BE3B15B5
BE6FEC57
BE8DAB9F
3E1E69AD
BE408312
3E20C49C
BE9CB924
BE50B0F2
BD88CE70
3E181062
3E49A027
3DBE76C9
BE5374BC
3E5B7176
BE3E0DED
3E39C0EC
BE9D07C8
3E0FC505
3D958106
BCA71DE7
BE373190
BE037B4A
BE07AE14
3D05F06F
3E87AE14
BCC3C9EF
BE17DBF5
BE9B645A
3D13DD98
3DF0D845
3DD42C3D
3D86F694
BE38D4FE
3E822681
3E797247
3CCA57A8
3CF837B5
3E8DAB9F
3DE11340
BE521FF3
BE883127
BE832CA5
3E48E8A7
3E72617C
3DFD566D
BE7C3611
BE114E3C
3E32FEC5
BC91D14E
BE2D0E56
BC271DE7
3D086595
BE53F7CF
3E7765FE
BBEBEDFA
3E93A92A
3DD460AA
3E72E48F
BE96A162
BC944674
BD94E3BD
BE230553
BD408312
3E333333
BE08E8A7
3BDB8BAC
BAEBEDFA
3E8C710D
BDF381D8
3E2B1C43
3E72CA58
BDC8E8A7
3E63D70A
BE82A993
3D40EBEE
BE18E219
3D1652BD
BD3B2FEC
3E3D3C36
BDE38866
3C9D4952
BC343958
3E194AF5
BC9C779A
BEAC2268
3E303AFB
3E450481
BDDF3B64
3E2CD9E8
BE8CE704
3C54FDF4
BC5013A9
BC016F00
3E8339C1
BE8DED29
3E694467
BEA8DB8C
3DE04189
3E647454
3E6C3C9F
3D1B3D08
BD883127
3DDC5D64
BE2E6320
3E142C3D
BD31C433
3E5374BC
BC28C155
3E20902E
3DF487FD
3E7FB15B
BE0D013B
BCCD9E84
BE8793DE
BD0E2196
BE55182B
3DA161E5
BE09374C
3D74F0D8
3E269AD4
3DC710CB
3E04D014
3E4E8A72
3E33B646
BE8E6320
BDF5C28F
3E4AC083
BE521FF3
3DA1CAC1
BE1AB9F5
3D257A78
BE98BAC7
BD67D567
3E13F7CF
BDCFDF3B
3C03126F
BE7B645A
BE275254
BDD63886
BE6E147B
3DA7EF9E
BEC1CAC1
3E1FF2E5
BEA76C8B
BE92A305
3E0A233A
3D827525
3E16F007
3E22B6AE
BE8AB368
BDFFCB92
BD5E00D2
BE0EBEE0
BD762B6B
3E1FD8AE
BE119CE0
BE997F63
BE6CA57A
BE81FF2E
