BDC1205C
BE055326
BDACA57A
3C9D4952
3DA2D0E5
BDA29C78
3C535A86
3D8D4FDF
BDAB367A
BD9C432D
3E1FD8AE
3D28C155
3DE4F766
3E09D495
BE0CCCCD
3DD9B3D0
3DB1F8A1
3DCCCCCD
BD98FC50
3DE8A71E
3D7C5048
BD3923A3
BDBC6A7F
3D81D7DC
BA83126F
BD6978D5
3DADAB9F
BD116873
BC2C0831
3D2E7D56
3C809D49
BD1B3D08
BDE4C2F8
BDC60AA6
3DB95810
3D8793DE
3CDAB9F5
BDE147AE
3CC63F14
BBA3D70A
BD6F9DB2
BD916873
3C741F21
3B378034
BB5ED289
BE2CA57A
BCC2F838
3D39F55A
3E0EF34D
3D944674
BD727BB3
3D989375
BDC1BDA5
3D264C30
BD84816F
BDCB295F
3C30F27C
BDCAC083
3DF80347
BC2F4F0E
3CD35A86
BD9374BC
BDA43FE6
3D3C01A3
BDC4D014
BC741F21
3E147AE1
3D7DF3B6
BD9A36E3
BDBC6A7F
3E178D50
BCA9930C
3E5844D0
BDE04189
BDF0D845
3DCA8C15
3D9E4F76
BDAFB7E9
BD0DB8BB
BDD38EF3
BCFB7E91
3CFD21FF
BE3DF3B6
3E17F62B
BD67D567
BD8D844D
BDD3F7CF
BDB9F55A
3CEE6320
BDB0BE0E
3CF4F0D8
BD123A2A
3B86594B
3D8DED29
BDFC5048
3CAC0831
BBFF9724
3E29AD43
3D95B574
3CBC6A7F
BC343958
3DC538EF
BDBDA512
BDB923A3
3C9A0275
BC2DAB9F
BCFAACDA
3D0ADABA
BDFC5048
3DED288D
3DDD2F1B
3D25119D
BCBEDFA4
3DF8A090
3D48B439
BD4C63F1
3D5D97F6
BD371759
3CACD9E8
3E2D7732
BBB0F27C
3C3FB15B
3D51B717
BC56A162
3D6978D5
3D79DB23
3DF0D845
3E238866
BD85BC02
BBA3D70A
3DCBFB16
BC8A71DE
BD1B3D08
BE173EAB
3D8B7803
3E09A027
BDD35A86
BD872B02
3D172474
BD271DE7
3DA2339C
3B96BB99
3E333333
BAC49BA6
3CF9DB23
BD7D21FF
BCF27BB3
BC84B5DD
3D6DFA44
BD84EA4B
3DA4A8C1
BC3FB15B
BDBB645A
3C70D845
3C79096C
3DA57A78
3D57DBF5
BD25E354
3D05F06F
BCDD2F1B
3D872B02
3E13C361
BDA5AEE6
3D71A9FC
BDC538EF
BDC5D639
3DAF1AA0
3DE56042
BE24A8C1
3DBB645A
3E15E9E2
BCBAC711
BD8D4FDF
BC858794
BDAB9F56
BD3851EC
BD4F41F2
BDF52546
3CEF34D7
BD1930BE
3D2786C2
BD535A86
3E04D014
BD0E2196
3D0EF34D
BD6075F7
3B7F9724
3D84EA4B
3D7765FE
BDC18937
BC809D49
3D96BB99
3E3765FE
3D6CBFB1
BD06594B
BB5844D0
3C978D50
3CC2F838
BD1DB22D
3D89374C
3D8EF34D
BC6D9168
3D8EF34D
3D8AA64C
3C621965
3BEF34D7
BD734D6A
BD3C6A7F
BD8FC505
BDA6B50B
3C4154CA
3E05F06F
3C8CE704
3D4F41F2
BE0ADABA
3D714120
3D8EF34D
BDB67A10
BDBC9EED
3B79096C
BDC9BA5E
BDE6CF42
3DAC0831
3D676C8B
3CA4A8C1
3D010625
3CC08312
BCDE00D2
BD0FC505
3D25119D
3DB18FC5
3D570A3D
3D2786C2
BE04D014
3DC3FE5D
BCE7D567
3D5288CE
BD94AF4F
3D401A37
BC4E703B
3DD77319
3E67EF9E
BE441893
BE191687
BE2D42C4
BD2F4F0E
3E31758E
3E3381D8
3D93A92A
BE5ED289
3D65C91D
BC87FCB9
3DA71DE7
BE295E9E
3DF765FE
3E1A8588
BD8E5604
BCE48E8A
BD75C28F
BAD1B717
3DD60419
BE0816F0
3D0240B8
3DF3EAB3
3E2F1AA0
3C07FCB9
BB09A027
BD9FBE77
3E439581
BDA786C2
BDAC0831
3C8DB8BB
3C8240B8
BCA2339C
3C978D50
3E53DD98
BB2A64C3
BD7CB924
3D6425AF
BD95B574
3DE631F9
3DBB645A
BDDE9E1B
3E808312
BD8B0F28
3E036113
3DA161E5
3D14AF4F
BC9EECC0
3D9D4952
BA1D4952
3DC56D5D
BE38A090
BD3923A3
3D6A4A8C
3D230553
3D40EBEE
3E06594B
BDF14120
BBBAC711
BE072B02
BD072B02
3CFDF3B6
BD4BFB16
BD116873
3D549518
BD6D9168
3DD119CE
BD60DED3
BDFF2E49
3E1B089A
3E113405
3E12BD3C
3EB02DE0
BD16BB99
BDC1205C
3D07FCB9
BE22D0E5
BE1BC01A
3E14C986
3E0AA64C
3E1A1CAC
3DAD7732
3D628241
3C95182B
BE8B4396
BC59E83E
3E6C710D
3C449BA6
BE2D7732
3D96F007
3D92D773
3B5844D0
3E6A161E
3D9758E2
39D1B717
3CE48E8A
BDAEE632
3C90FF97
BCDED289
BE9930BE
3D2ACD9F
BDCF0D84
3C816F00
3EA779A7
3D9E4F76
3CA2339C
3DAEE632
BDFC1BDA
BE144674
BD3A5E35
BC54FDF4
BDAFB7E9
3D0ADABA
BD60DED3
3D99999A
3D15182B
3CA71DE7
3D5E00D2
3DE11340
BD99CE07
3DE31F8A
BD09A027
BD4985F0
BD84EA4B
3D27EF9E
BDFFCB92
BB5ED289
BDDB22D1
BBF5C28F
3E05F06F
BCCB295F
3DD04817
BD8A3D71
3D450481
3D97C1BE
3CBC6A7F
BE020C4A
BCA57A78
BBB78034
BD9C432D
BC8C154D
3D3C01A3
3E2AE7D5
3DC91D15
BC4B295F
3C9AD42C
3C1D4952
3E4E8A72
BCF765FE
BD5D97F6
3D621965
3C8240B8
3D923A2A
BB16BB99
3E12A305
3CB851EC
BDF3EAB3
3DFDBF48
BE19999A
3C3E0DED
3DE8A71E
3B86594B
3E2C0831
BC4985F0
BD4710CB
3EA1205C
BCE8A71E
3D85F06F
BC741F21
BC9374BC
BE0D4FDF
3E4E8A72
3AB78034
3DB5A858
3D972474
BDDA511A
3E34538F
BD872B02
3E5119CE
BD65C91D
BCA3D70A
BD99999A
3D07FCB9
BDC3C9EF
3D5566CF
3E194AF5
3D6353F8
BC2F4F0E
3C35DCC6
3D7B15B5
3E5C432D
3D5013A9
3E2C8B44
BCD35A86
BDC3C9EF
BC6703B0
BCF0D845
3DB2CA58
3DE5FD8B
BD016F00
BE31A9FC
BDE7A0F9
3E14C986
3B83126F
BE4EA4A9
3E39F55A
3DFE2824
BE1DCC64
3C016F00
BD9BDA51
3D972474
3E0EF34D
3D94E3BD
BDF5F6FD
3C1374BC
3DDA511A
3D577319
3E92E48F
BDB6AE7D
3CE2EB1C
BC1374BC
BDFAE148
3AB78034
3D5BF488
3CF765FE
BC3C6A7F
BDDDCC64
3DCA57A8
BE3BCD36
3C4E703B
3E746DC6
3C9AD42C
3CA161E5
BE63A29C
3D683E42
3CD5CFAB
3C944674
3E4A0903
3E020C4A
3E38BAC7
3E495183
BD6B1C43
3D5BF488
3E3318FC
3E906F69
BD83E426
BE5FBE77
BDA9FBE7
BCF27BB3
BE292A30
BE8B4396
BD350B0F
3C04B5DD
3D8CE704
BD944674
BDA2D0E5
BEB54C98
3EA38866
BE3487FD
BD378034
3D926E98
BD086595
3E6E147B
BDBCD35B
3DEE2EB2
BE0A3D71
BD46A7F0
3E060AA6
3CA57A78
3EB05532
3D3D3C36
3E36AE7D
BE413A93
3DEBB98C
BD0DB8BB
BA9D4952
BDCA233A
3DC710CB
BD9FBE77
3DB15B57
3D0ADABA
BE6E6320
3E9C5048
3E0A8C15
3E2C710D
3D4B295F
3E022681
BE4624DD
BD5BF488
3D3923A3
3B86594B
BD9EB852
BE4816F0
3EC4F766
3E79A6B5
3DA7EF9E
BC463F14
BE788659
3E688CE7
BE0346DC
BCF34D6A
BE1AEE63
BE7089A0
3E315B57
3EB119CE
BD5F3B64
BDE0AA65
3E0F7660
BDDF3B64
BE217C1C
3E6C710D
BE83126F
3E8CD9E8
3EB318FC
3D5D2F1B
BEAA4A8C
3E896BBA
3DB573EB
3C8DB8BB
BD6A4A8C
3DDC91D1
3E84D014
BCC49BA6
3E1096BC
3D83AFB8
3E32617C
3CED9168
3D7487FD
3E2C0831
3E31F8A1
BE2F1AA0
BE840B78
3E3EDFA4
3CE48E8A
3DFE5C92
BEAA7EFA
BE13404F
BD8C49BA
3E58ADAC
3C88CE70
BE7F2E49
3E9EECC0
3E8F0069
3D84B5DD
BD1AD42C
3E4A57A8
3E34D6A1
3DAB6AE8
3CC154CA
BE58ADAC
BE3D07C8
BCBAC711
BD463F14
BDB61134
BDE703B0
3BDED289
BE3FE5C9
BEAD013B
BEB41206
3DDF06F7
BCA57A78
3DCF7660
BD6703B0
3BB78034
3D2F4F0E
BD978D50
3DE3BCD3
3C86594B
BD7E5C92
3C7765FE
BD6F34D7
3D20F909
3DEE2EB2
3D2B9F56
3DB5A858
BD178D50
3C90FF97
3CF41F21
BC902DE0
3DAF1AA0
BDC49BA6
3DCC2F83
BD03E426
BDAD42C4
BE3A29C7
BDBB645A
BC9FBE77
BC59E83E
3DEF34D7
3C47E282
3A51B717
BDEE2EB2
BC016F00
BDC50481
3C7AACDA
3CF9096C
3B23D70A
3D5BF488
3C902DE0
BDB43958
BD27EF9E
BCD77319
3E05D639
3D1C779A
BD913405
BD25119D
BD31C433
3D07FCB9
3C3295EA
3CDD2F1B
3DA3D70A
BD9758E2
BD89A027
BDAB367A
BD3EDFA4
BD20F909
BBA71DE7
3D56A162
3D8CB296
3E240B78
BD902DE0
3D84EA4B
3DF73190
3C16BB99
BCB851EC
3D68A71E
BD8FF972
3D4CCCCD
BE5288CE
3D95B574
BC5B8BAC
BD941206
3DD8ADAC
BDC3FE5D
BE0CB296
BDB81D7E
3D2C710D
3C83126F
BCC56D5D
3DB67A10
3CB1C433
BD1E83E4
3DC1205C
3DB61134
3D6978D5
BDFA0F91
3D42F838
BD8CE704
3D6B851F
3D982A99
BAD1B717
BDBF4880
3D5E00D2
3C9E1B09
BCB43958
3E39DB23
BB2A64C3
BD9FBE77
3D27EF9E
BE039581
BD2C710D
BC1BA5E3
3D47E282
3DAB9F56
3D7E5C92
BDD49518
3D2A64C3
BDB089A0
BAC49BA6
3DADAB9F
BD0C7E28
3D8B7803
3D350B0F
3B4B295F
BD3FB15B
3D315B57
BDCEA4A9
3E06594B
3DD70A3D
3D044D01
3E04B5DD
3D0E8A72
B951B717
BCD0E560
3DFCED91
3D8FC505
BDC3FE5D
3DD94AF5
3D16BB99
BDAACD9F
BD7F9724
BD521FF3
3D58ADAC
3D01D7DC
BD315B57
3DF8A090
BD734D6A
3DAE7D56
3CF69446
BCEB1C43
BBFF9724
3DA30553
3E01205C
BD84816F
BCF765FE
BD422681
3CC710CB
BCDC5D64
BE2B9F56
3DBD3C36
3D3EDFA4
3D18C7E3
3C8A71DE
3DBEAB36
BC0CE704
BBA0902E
3D868DB9
3E436113
3D3E0DED
3BADAB9F
BD322D0E
BD1B3D08
3E0E3BCD
3BEBEDFA
BD92A305
3CC49BA6
3DA1CAC1
BDDC28F6
BD75C28F
BD4C63F1
BD8A3D71
3DDBF488
BD5FA440
3D93404F
3D8B4396
3D9F8A09
3D6ECBFB
BC5013A9
3D257A78
BD051EB8
3DF1758E
BD810625
BD8346DC
3C51B717
BD3923A3
3C621965
BD1C0EBF
BD7B7E91
BE0902DE
BCF765FE
3DE978D5
BD25119D
3D797247
3D19999A
BCA161E5
BD55CFAB
BCE8A71E
3D96BB99
3CA71DE7
3D04B5DD
BD6D288D
BE089A02
BD3645A2
3DB43958
BCDE00D2
BDD04817
BB83126F
3E2E978D
3DB88659
BCF0D845
BDAE147B
3D17F62B
3DAEB1C4
BD12A305
3DC5D639
BD8F5C29
3DE353F8
3D5D2F1B
BD7559B4
BE4ADABA
3D8AA64C
BD714120
3E3318FC
3C816F00
3DBE0DED
3D514E3C
BC1D4952
3E29FBE7
3D2DAB9F
3DEF6944
BCF9096C
3CA8C155
3E06C227
3BE21965
BCE2EB1C
BDDCFAAD
BE29930C
BB79096C
3D947AE1
BDE703B0
3BB78034
BB9374BC
3CB43958
BDD63886
3E0D844D
BD889A02
3D63BCD3
3DA71DE7
BDF80347
BE141206
BE15B574
BDEC2268
BDC39581
3CD288CE
3D8D4FDF
3BCE703B
BC343958
3C9BA5E3
3CBEDFA4
BD4FAACE
BD7B15B5
3DE1B08A
BC0B4396
3A83126F
BD06594B
BC1EECC0
3D491D15
BD41BDA5
BE4A3D71
3E20C49C
BC42F838
3BA71DE7
3D03126F
3DAE48E9
BC68A71E
3DDF06F7
3CA30553
3DBA29C7
3D923A2A
BCCF41F2
3DF559B4
BDF0D845
BC35DCC6
BD8CB296
3D507C85
3E0D6A16
3D1A0275
BDEA161E
BDC985F0
BD0B4396
BCF0D845
BC016F00
BD5288CE
3D902DE0
3E130BE1
3C23D70A
3D8A0903
3CFEC56D
BCC2F838
BC621965
BAC49BA6
3DCED917
BD851EB8
BA51B717
3C3923A3
3D4BFB16
BC9374BC
3D80346E
3E004EA5
BDF487FD
3DA64C30
BDB3D07D
3D816F00
3DD04817
3DC91D15
BDCFAACE
3E0068DC
3E3B2FEC
3E17C1BE
3DBC6A7F
3DB7B4A2
3D3367A1
3D3B98C8
BD08CE70
3D7B7E91
3DA88CE7
BD800000
3E2EB1C4
3C8F5C29
BC1D4952
BD591687
BBE56042
3DCEA4A9
BDE56042
BD178D50
BD9FF2E5
BE060AA6
BE0F9097
3DF03AFB
3D0ADABA
3BE56042
BC07FCB9
BD1AD42C
3D47E282
BE1096BC
BD8C7E28
3DF62B6B
3DD6D5D0
3D9BA5E3
BD1FBE77
3DCC2F83
BC68A71E
BDF3B646
BDBC01A3
BDA19653
BD8C154D
BE1096BC
3C5013A9
3D48B439
BDD97F63
BE0EF34D
3D1E83E4
3D930BE1
3D62EB1C
3DACA57A
3D8068DC
BD6C56D6
3B378034
3D3E76C9
BCD844D0
3D92D773
3D9D7DBF
3D3C6A7F
BC1A0275
3CC985F0
3DC39581
3CD5CFAB
3E07FCB9
BCA2339C
3D507C85
3DA36E2F
3D8902DE
3DE3F141
BCEF34D7
BDE2B6AE
3D46A7F0
3CD844D0
BDECBFB1
3DEB851F
3CF1A9FC
BE2978D5
3DC9BA5E
3D83126F
BCB1C433
3D9096BC
3B7F9724
BD09A027
BD80346E
3DB74BC7
3C84B5DD
3BF27BB3
3D285879
3E0E703B
3D6C56D6
3C09A027
BCF5C28F
3DBAC711
3CEF34D7
BD9B089A
3DFE5C92
3D4D9E84
3D4985F0
BC3C6A7F
BCD1B717
3CA3D70A
BE067382
BD52F1AA
BC68A71E
BC1374BC
3DF03AFB
3DA9930C
BB86594B
3DD2F1AA
BD76FD22
BD8C49BA
3DBC6A7F
BD855326
BDB53F7D
BC257A78
3DF9096C
BDCAF4F1
BD456D5D
BD185F07
BD5A511A
3CEB1C43
BBC154CA
BD16BB99
3DF318FC
BD50E560
3E1E4F76
BD16BB99
BCE7D567
3E0AC083
3B8CE704
3DF7CED9
BD371759
3C30F27C
BE0CB296
3D816F00
BC22339C
3DADAB9F
3DB8EF35
3DBD3C36
BD84816F
3B449BA6
3D926E98
3D99999A
3AD1B717
BD25E354
BCAB367A
BDA36E2F
BCB367A1
3DF03AFB
3D50E560
BDA161E5
3D9FBE77
3D4D9E84
3C343958
BD4BFB16
BD229C78
3DBAFB7F
3E001A37
BCE2EB1C
BDA12D77
BD5B8BAC
3CF9DB23
3C23D70A
3D8B4396
BDBC01A3
BBC7E282
BE1C779A
BDE075F7
BD65C91D
3D63BCD3
BCD844D0
BCD013A9
3D2C0831
BD0CE704
BC22339C
BD82A993
BCB295EA
BE055326
BDCAC083
BD810625
3BDB8BAC
3D90FF97
BD31C433
BBAA64C3
BD62EB1C
3D5844D0
BC2C0831
BD1652BD
BE2E7D56
BD8C49BA
BD9B7176
BDEE978D
BD41BDA5
3D7D8ADB
BE238866
3E04EA4B
BD7B15B5
3DB39C0F
3D9205BC
3E4D4FDF
3C9EECC0
3CB43958
3D7D21FF
3D6425AF
3D3EDFA4
3D15E9E2
3DA6B50B
BD2B367A
BC6D9168
3D600D1B
BB9A0275
BD9F8A09
BC5844D0
BDD60419
BD0C7E28
BD8F5C29
3DA36E2F
BD8B0F28
BBA0902E
3CF5C28F
3D6978D5
BD185F07
BDE48E8A
BB2A64C3
BB30F27C
3DA339C1
3CF0068E
3D8AA64C
BD570A3D
BDDE9E1B
BDD2BD3C
BDEBB98C
3E10624E
3C621965
BE460AA6
3C16BB99
BD0CE704
BE1C779A
3E0E5604
3DB98C7E
3DDAEE63
BDE56042
BDA6E979
3DACD9E8
BCE8A71E
BD9B3D08
BD285879
3DBF7CEE
BD27EF9E
BC3FB15B
3E004EA5
3CD844D0
BD0A0903
3DB923A3
BBA3D70A
BDF487FD
3D058794
BDB851EC
BD22339C
BD42F838
BD69E1B1
BDF73190
3C5013A9
3D916873
3C3C6A7F
BE2CA57A
BD5844D0
BD6D288D
3E166CF4
BC3295EA
3E01D7DC
BE001A37
3BB0F27C
BDE353F8
BBBE0DED
BD961E4F
BC8B4396
BC102DE0
3D8A0903
BC1374BC
3951B717
BD8C49BA
BDE38866
BD24A8C1
BD535A86
BC463F14
BDF27BB3
3CAC0831
3D5C5D64
3DA0F909
3DF1DE6A
3C378034
3DC8B439
BDFAE148
3DB923A3
3DAB367A
3BC49BA6
BD97F62B
BD0F5C29
3CD4FDF4
3D1E1B09
BD343958
BC944674
BDF86C22
BE00EBEE
BE020C4A
3D456D5D
3D15E9E2
3D2A64C3
BCDAB9F5
BE0AF4F1
3D25E354
BD8D844D
3E2BEDFA
3CD42C3D
3C68A71E
BD597F63
3D9CE076
3C0CE704
3E57A787
BDCED917
3D401A37
3C3C6A7F
BC89A027
3E1F8A09
BDC5D639
BDF5F6FD
BD398C7E
BD7837B5
BD37E910
BDAA3055
3E22D0E5
3D2E7D56
BDD53261
3DAB9F56
3D837B4A
3D985F07
3DE83E42
BC51B717
BDDE353F
3D93A92A
BE02C3CA
BD99CE07
3E1013A9
BD9AD42C
3D9758E2
3D68A71E
BE2F34D7
3E23A29C
BDC7AE14
3D6B851F
BE16872B
BDAD42C4
3DDC28F6
BDF93DD9
3DE075F7
3CB6AE7D
BD31C433
BCD844D0
3DE69AD4
3E367A10
BD29930C
BA378034
3D236E2F
BD4B295F
3D4F41F2
BDAB020C
3CB43958
BD11D14E
3D8F27BB
BD549518
BE144674
BDD73EAB
3CCD9E84
BDB43958
BE11B717
BE1C28F6
3DAE147B
3B6BEDFA
3C30F27C
3D9E83E4
3D9C779A
3B656042
3D8FC505
BE221965
3D9AD42C
BDFA0F91
BBBAC711
3CE2EB1C
BD90624E
3A51B717
BD3851EC
3C9BA5E3
3C70D845
3E1E353F
BDBFB15B
3D68A71E
3E3573EB
BE096BBA
BBC7E282
BE03C9EF
3D6D9168
3D89D495
3D67D567
BD1C779A
3C6BEDFA
3D3CD35B
3D48B439
BC1A0275
BCCBFB16
BD6F9DB2
3E2A7EFA
3E2703B0
3C257A78
BCBB98C8
3D542C3D
BDA5E354
BD9B3D08
BD4ED917
3DB74BC7
3E1758E2
3D13DD98
3E0B923A
3D84B5DD
3CEE6320
3D8F27BB
BC185F07
3DDE69AD
BD514E3C
3DE38866
3D93DD98
BD7765FE
3BAA64C3
3CEA4A8C
BDBEAB36
3D972474
3D6D9168
BB51B717
BDB98C7E
BDB53F7D
BD06594B
BDCAF4F1
3CAC0831
3CFDF3B6
BD1096BC
3C016F00
BDF1A9FC
3CE978D5
3DDE69AD
3DA6809D
3DE0DED3
B99D4952
3E022681
BBCE703B
3CF9DB23
3D8A71DE
3E371759
BD96872B
BBF27BB3
3DA95E9E
BDD9B3D0
3C944674
3B9374BC
3D7AACDA
3CB5DCC6
BD8BAC71
BD81A36E
3D27EF9E
3D600D1B
3DAD7732
3D172474
3CE7D567
3D577319
BC56A162
BD6425AF
BD8624DD
3D010625
BD158106
3D5B8BAC
BD9C0EBF
BD84EA4B
3DF0068E
BD15182B
3C858794
3D8E8A72
BD872B02
3DC63F14
BDA5E354
3DD6D5D0
3E1F3B64
BDAB6AE8
BDAC0831
BA51B717
BD9FBE77
3D83AFB8
3DA0902E
3DC9EECC
3BA3D70A
3E0FF972
BCAA64C3
3DF318FC
BDA12D77
3DEFD220
BDE978D5
BE18ADAC
BE0A57A8
3D985F07
3D84816F
BCA30553
3D0CE704
BD2CD9E8
BDBDD97F
3D68A71E
BD7C5048
BC9374BC
BD889A02
BCDFA440
3BB43958
3DE04189
3E03126F
3D0A0903
BBD844D0
BD2A64C3
3CB295EA
3D010625
BD9AD42C
BD8F9097
3DA9C77A
3C727BB3
BBC154CA
3D3923A3
BD97C1BE
3DF69446
BD0FC505
BD80D1B7
3D800000
BDD59B3D
BD044D01
3D84B5DD
3D58ADAC
BD83AFB8
3DB645A2
3DAFEC57
3CB1C433
BC1374BC
BC91D14E
3CC985F0
3DEBEDFA
3C4CCCCD
3DAFEC57
BB656042
BCE7D567
BA1D4952
3DAD7732
BCD5CFAB
BDCAF4F1
3D93DD98
BCC2F838
BDA57A78
3CF41F21
BCB6AE7D
BD9EB852
BD83126F
3C9C779A
BD422681
BD2DAB9F
BCA161E5
3D09A027
3DD53261
BD54FDF4
BCB1C433
3DC4D014
3C7C5048
BDA05BC0
3B09A027
3DA71DE7
3D8A71DE
3DCB5DCC
3DEA7EFA
3D6631F9
3D3B98C8
3CE48E8A
BD322D0E
BD4D9E84
3B03126F
3DD1EB85
3D5013A9
BCC22681
BD9C779A
BD9FBE77
BCE703B0
3D9D4952
3D521FF3
BDBDD97F
BDE631F9
3D450481
BDA4DD2F
3D11D14E
3C4154CA
3C11D14E
BCD4FDF4
BDA1FF2E
BB96BB99
3DA0902E
BE1460AA
3D6631F9
3DAD42C4
BD8CB296
BD656042
BD9DB22D
BD841893
BC83E426
BD8A71DE
BCCCCCCD
3D4FAACE
BD989375
BBA0902E
3C95182B
BD1A0275
BE0D844D
3D83AFB8
3DFAACDA
3D714120
BDE8A71E
BDD66CF4
BD4154CA
BCDED289
3DA92A30
3D271DE7
3BDED289
BDAC3C9F
3DD844D0
3D8CB296
BD086595
BCDED289
BC902DE0
BDADAB9F
BDA339C1
BD521FF3
3D3FB15B
BD5ED289
3D99999A
3D4710CB
BCA9930C
BBCB295F
BD044D01
3A378034
3E0EBEE0
BCFB7E91
3DA1CAC1
3D762B6B
3D4B295F
BC79096C
BDC3FE5D
3DB71759
BDFA43FE
BCEB1C43
3C656042
BE114E3C
BDC50481
BDC6DC5D
BD9BDA51
3D9E1B09
3DC3C9EF
3D7D8ADB
3D81A36E
BB7F9724
3D102DE0
3C87FCB9
3D037B4A
3DCC63F1
BD9CAC08
3D1652BD
BC54FDF4
BDD460AA
3DFBB2FF
BC6F34D7
BD9E4F76
3E01D7DC
3E0816F0
BDB7E910
3D5E69AD
BE0C63F1
3DB4D6A1
3DF69446
BC91D14E
3CFC5048
3CCF41F2
3DF62B6B
3E0DB8BB
3CDB8BAC
3DA1CAC1
3D1E1B09
BDA2680A
3D01D7DC
3DEFD220
3C185F07
3CD77319
3E086595
3C06594B
3DCF0D84
3D4BFB16
3D95E9E2
3DA5119D
3D3089A0
BD5AB9F5
BD95E9E2
BD9C0EBF
BDA4A8C1
BDA85879
BD82A993
3BA71DE7
BD83126F
3D1FBE77
3D12A305
BB8CE704
BDA43FE6
BD628241
BD3DA512
3D1930BE
3C9A0275
3DA786C2
BD9A36E3
BD3E76C9
38D1B717
3D841893
BD8624DD
3DE5FD8B
BDAB9F56
3D158106
3E4068DC
3CE2EB1C
BB2A64C3
3CA8C155
BDD04817
3D73B646
BD3F4880
BC3AC711
BE161E4F
BC9930BE
BAEBEDFA
3CBEDFA4
BC535A86
BE1A36E3
BC3C6A7F
BD0C154D
BDAA64C3
3D3295EA
BD01D7DC
3CDB8BAC
BC28C155
3CE48E8A
3D3DA512
3D14AF4F
BB5844D0
3D78A090
BBA3D70A
3C5844D0
BE01205C
3D20F909
3C0CE704
3D13DD98
BDDA1CAC
BD45D639
BE0E3BCD
3E01BDA5
3CEE6320
BE4985F0
BD1DB22D
BDC25AEE
3C1BA5E3
3DBCD35B
3E2703B0
BD8F5C29
BE141206
3DD21FF3
BE0E5604
3C3E0DED
BD7B15B5
3D83AFB8
3E20DED3
BDA75254
BD727BB3
BE084B5E
3D7765FE
3DB020C5
BE621965
3EC5C91D
3CDAB9F5
3E32CA58
3C4154CA
3D39F55A
BD9F212D
3E6A161E
BD0F5C29
BDE24DD3
BDCA8C15
3BEF34D7
BD7EC56D
BD463F14
3D449BA6
3E573EAB
BE1CFAAD
3D0E8A72
BC5D2F1B
BDE7381D
BC5013A9
BE33EAB3
3E5205BC
3B4B295F
3DFAACDA
3E028F5C
BCBE0DED
3D4D35A8
3C9C779A
3BF27BB3
3E72B021
3C872B02
3DDED289
3B83126F
3C09A027
3DBDA512
BDBF7CEE
3D8A71DE
BDED9168
BB902DE0
3C1BA5E3
3E1BC01A
3C09A027
BC35DCC6
3DB0F27C
BDEF0069
3E640B78
3DC74539
BEB93DD9
3DF86C22
3E4624DD
3D9C0EBF
3E980347
BE36FD22
BD0C7E28
BD600D1B
3CCCCCCD
BE3D21FF
3DCA233A
3E314120
BDA5119D
3DF03AFB
3DEC8B44
BE058794
BD9FF2E5
3E458794
3E1C28F6
BC902DE0
3D85BC02
3CE8A71E
3E41205C
BD858794
3E1E83E4
BE41A36E
BC47E282
3E3765FE
BE4538EF
3E2B020C
3D6BEDFA
BE68DB8C
BE21FF2E
BDE69AD4
BD97F62B
3DAA64C3
BCBEDFA4
BDBD3C36
3D02A993
BE2E2EB2
BBE21965
BD00346E
BB96BB99
3D70068E
BDD9B3D0
BD844D01
3E68A71E
3DA2680A
3E371759
3DBB98C8
3DAE7D56
BC23D70A
3E460AA6
BD8240B8
BE48CE70
BCA4A8C1
3E1119CE
3D6B1C43
BBDED289
3C656042
BDC95183
BDB53F7D
BDF487FD
BD2E147B
BD8624DD
3DEECBFB
3E1096BC
3D48B439
BE2ACD9F
3AD1B717
3DE075F7
3DFEC56D
3D7DF3B6
BCAB367A
BC9EECC0
3CACD9E8
BD20902E
3C96BB99
BDC3FE5D
3CFDF3B6
BDA19653
3DC04EA5
3D57DBF5
BCB43958
3B3E0DED
3DC710CB
BDD04817
BC96BB99
BD378034
3E1E83E4
BE2D42C4
3E219653
3E2B020C
3C343958
3E027525
BBC7E282
3DBC6A7F
3D9FBE77
3CCD9E84
BE07FCB9
BD7B7E91
BDAFB7E9
3B4B295F
3DE8DB8C
BD8AA64C
3E5B573F
BC3923A3
3CC63F14
3C8E8A72
BE01205C
3E3126E9
BE2161E5
3C3AC711
3C51B717
3AD1B717
3D1E83E4
BC343958
BD23D70A
BD285879
BDBA92A3
BE6BEDFA
BDA786C2
3E2A7EFA
3E095183
3E62D0E5
3C8A71DE
BE163886
BD0240B8
BC63BCD3
3DAFEC57
3DF14120
3D1A0275
3D81D7DC
BD48B439
3D2E7D56
3E2D288D
BD48B439
3DF10CB3
3D1FBE77
3E804EA5
3D96BB99
3D7C5048
BC83126F
BC8CE704
3E5FD8AE
BDFE5C92
3DBFB15B
3DDED289
BDB295EA
3B09A027
3E01205C
BEA36113
3D4154CA
BD4ED917
3E07AE14
3DAB367A
BDCA57A8
3D507C85
3CD4FDF4
3DAF837B
3DC538EF
3E1A8588
3D202752
3D172474
3C6D9168
BD185F07
3D86F694
3DEBB98C
BE161E4F
BCCBFB16
3DCED917
BDBFE5C9
BD8B0F28
BC3923A3
BC978D50
BD947AE1
BBCB295F
3CCD9E84
3C35DCC6
BDB98C7E
3E0AA64C
BD5C5D64
3C8A71DE
BD3020C5
BC8C154D
BE0779A7
3D116873
3DE04189
BD8AA64C
BE172474
BDA36E2F
BDE594AF
3D8EF34D
BD591687
BDC432CA
BD820C4A
BD8E5604
3D71A9FC
3D7487FD
BE15CFAB
3D98C7E3
3C621965
3DA2339C
BCA8C155
3DF0068E
BD1652BD
3C88CE70
BD14AF4F
3D449BA6
BD428F5C
3BADAB9F
3BE8A71E
BD08CE70
3E27EF9E
BE1F212D
BDC49BA6
BD9C432D
3DCB5DCC
BD93A92A
3D1A6B51
3D5566CF
BCAA64C3
3D875F70
3D401A37
3D9F212D
3C22339C
3D2D42C4
3CBFB15B
3DA6E979
3E1C779A
BDF10CB3
3DCBC6A8
3E010625
BE2809D5
3AEBEDFA
BC5844D0
BE016F00
3CD6A162
3DF8A090
BD4FAACE
BC8B4396
3D8DB8BB
BD2B367A
BD8ADABA
BD144674
3CF4F0D8
3E474539
BCF27BB3
BDCB923A
BDBC6A7F
BD99999A
BD5A511A
BDC18937
3D4BFB16
3D886595
BD6C56D6
BD7AACDA
3D2A64C3
BE3E2824
BDFF9724
BD8068DC
3D7E5C92
3B9D4952
3DCA8C15
BDA4A8C1
3D93404F
BB449BA6
3DE3F141
BDD77319
3DF03AFB
3DB404EA
3B8CE704
BD1AD42C
3C1BA5E3
BC07FCB9
BD3AC711
3DDF6FD2
BD5E00D2
BCDFA440
3DA9930C
BE18ADAC
3DAC0831
3C2C0831
BD00346E
3CCCCCCD
3D6075F7
BCBAC711
BDED5CFB
3C9EECC0
3CA8C155
BD22339C
BD4154CA
3BF27BB3
BD1A6B51
BDE978D5
3D54FDF4
3DD460AA
BDAACD9F
3D9DB22D
BDDD2F1B
3D4ED917
BC463F14
BD94E3BD
3D0B4396
BDB9C0EC
BDD38EF3
BD844D01
3D51B717
BE404EA5
3D896BBA
BE06A7F0
BE05A1CB
3D6BEDFA
3C89A027
3DB50B0F
BDBFB15B
BDADAB9F
BB727BB3
BDC49BA6
BD7E5C92
3D570A3D
3E1C779A
3D81D7DC
3BC7E282
3DBC6A7F
3D06594B
3D8EF34D
3D60DED3
3C727BB3
3CC710CB
BD5B22D1
BD5E69AD
BCF9096C
3D0BAC71
BDF487FD
BD6631F9
BE27EF9E
3CFC5048
BCCB295F
BDA9930C
3DC3C9EF
BDAD42C4
3DE7D567
BDE11340
BDAEE632
3D39F55A
3DFF62B7
3B23D70A
3CDD2F1B
BDC63F14
3D851EB8
BC1D4952
3C0E8A72
BDED9168
3B3E0DED
3CFDF3B6
3CD1B717
BE09374C
BDA786C2
3DB6AE7D
3C83126F
BD896BBA
BDDAB9F5
3DB67A10
BD93404F
3E141206
3D01D7DC
BE5758E2
3CD288CE
BD43C9EF
BDAB367A
BD8C7E28
BD343958
3CED9168
3D591687
3D058794
BD8DED29
BCDED289
3D5E00D2
3B8CE704
3CF0068E
BE230553
BDD8793E
3D0C154D
3E01BDA5
3CF5C28F
3D2E147B
3A902DE0
3D12A305
3D3923A3
3D542C3D
3C9FBE77
3AAA64C3
BC1D4952
BDD4C986
BC4985F0
3D3B98C8
3DA2680A
3B03126F
3E283E42
3D68A71E
BE43AFB8
3D5844D0
BD037B4A
BDFAACDA
BD53C361
BE0346DC
3D6978D5
3D2E147B
BD656042
BDD14E3C
3D20F909
BCA3D70A
BDB81D7E
BE6617C2
BD3D3C36
BE4A233A
3DAC3C9F
3E0CCCCD
BD3367A1
BDD0B0F2
3DAC0831
3DA9930C
3D1B3D08
BDD4C986
3D80346E
3E318FC5
BDEB50B1
3DA88CE7
B9D1B717
3E71A9FC
3D32FEC5
BE000000
3C7AACDA
3E4B0F28
3BD4FDF4
BDA1FF2E
3D8F5C29
BDF212D7
3C89A027
BE1B22D1
BE1A6B51
3D4154CA
BCF34D6A
BE2A3055
BDCF41F2
3D1C779A
BD92A305
BCD77319
3C86594B
3D130BE1
BD058794
3D9D14E4
BB727BB3
3E0ADABA
BE050481
3D79096C
3E5B8BAC
3DECF41F
BDEC8B44
3D83AFB8
3DDFA440
3E85C91D
BD60DED3
3D872B02
3DFE9100
BE2425AF
BD178D50
BD428F5C
3D6ECBFB
BD3367A1
3D0FC505
BE0F9097
BBFF9724
3D9AD42C
3E083127
3D9652BD
BE4D1B71
3CF4F0D8
BDF1DE6A
BE303AFB
BA902DE0
3D3851EC
3DE0AA65
3CD35A86
BE643FE6
BD65C91D
3DE8DB8C
3CFF9724
BE15E9E2
BCDAB9F5
3C9EECC0
3C102DE0
3B89A027
3D29930C
3E185F07
BD32FEC5
BCD0E560
3CAF4F0E
3D62EB1C
BCD6A162
BDDE00D2
BB83126F
3CA30553
3D683E42
BDC08312
BCF4F0D8
3E428F5C
3E3765FE
39D1B717
BD9652BD
BE2D5CFB
BD0E8A72
BD89D495
BE460AA6
3E45BC02
BD03E426
BD810625
3CCE703B
BE3C9EED
3DE7D567
BD1B3D08
BDC8E8A7
3B9A0275
3D6353F8
BD3573EB
3E089A02
3E3FCB92
3DAFB7E9
3E2339C1
3E27BB30
BD93DD98
3D73B646
3DAE48E9
BD8B7803
BDE83E42
BE058794
BDA92A30
3BCE703B
BE43AFB8
3DE11340
3E77E910
BC16BB99
3DF0A3D7
BDA30553
BD92A305
3DCAF4F1
3D27EF9E
3D8B4396
BD944674
3D8793DE
3D12A305
BCEA4A8C
3DCC985F
BD09A027
3E05BC02
BDC1BDA5
3E27D567
3DDE69AD
BD4ED917
BD72E48F
BDB15B57
3CD35A86
BDCC2F83
3BD1B717
BD902DE0
3D95B574
3DE90FF9
BC9C779A
BD3FB15B
BDDF3B64
BD31C433
BC3AC711
BCE075F7
BD6D9168
BD322D0E
3C1D4952
3E23D70A
BDA339C1
3E7BCD36
3DB95810
BD6F9DB2
3CBEDFA4
3E400000
3E16D5D0
BDA1FF2E
BC7765FE
BD930BE1
3DE0AA65
3E21E4F7
3D4D35A8
3D872B02
BD9F8A09
3D6353F8
3D916873
BBFC5048
BDD81062
3CCCCCCD
3D6703B0
BD016F00
BD086595
3DF03AFB
3C07FCB9
3E523A2A
BD4D9E84
BE160419
BE00EBEE
3DCED917
BCC154CA
BE228241
BD30F27C
3D9374BC
3C04B5DD
3DC87FCC
3E3765FE
BD7F9724
BE0902DE
3AB78034
3CE147AE
BE404EA5
3DAA64C3
BD0B4396
399D4952
3E056D5D
BD30F27C
BCC49BA6
BD902DE0
3E7F7CEE
3C4985F0
3D99CE07
BD6978D5
3B4B295F
BC6D9168
BD0C154D
BD563886
3E01D7DC
3CD288CE
BCDD2F1B
BD4AC083
3D37E910
BE0B5DCC
BBBAC711
BBB0F27C
BE041893
3B86594B
BC5ED289
3E450481
3D85BC02
3DA30553
3E6D0E56
BCF5C28F
BD9E4F76
BDA57A78
3D83126F
3DDFD8AE
3E3126E9
3E62D0E5
BD4ED917
BE605BC0
3DBD70A4
BC84B5DD
BE710CB3
BE33D07D
BE2CA57A
3D322D0E
3D77CED9
BD0F5C29
3D1D4952
BE7BCD36
3E8816F0
BDA88CE7
3DAD42C4
3E49374C
3C8240B8
BDBDD97F
3C816F00
3DA9FBE7
BE144674
BD378034
3D19999A
BDC538EF
3EB1758E
3DEC56D6
3E72B021
BD4C63F1
3E7EAB36
BE51EB85
3B51B717
3CF0068E
3DA19653
3CBB98C8
BBBE0DED
3D285879
BDAC3C9F
3D60DED3
BC9E1B09
3E03FE5D
3DC7AE14
3E4346DC
BE6F1AA0
BC91D14E
BBB0F27C
BD4CCCCD
3DBD3C36
BCAF4F0E
3D4E703B
3D54FDF4
3DA29C78
3C54FDF4
BE34A234
3D144674
BD2A64C3
3E0779A7
BDA29C78
BD74F0D8
BD401A37
BC35DCC6
3DB22D0E
BE001A37
3E63D70A
3CA3D70A
BC741F21
BD769446
BDA0902E
3E219653
3E8F4F0E
3E75C28F
BE7381D8
3E523A2A
3E79096C
3D961E4F
BDEA161E
3E217C1C
3E154C98
BD8B0F28
3D1374BC
3DC8B439
3D491D15
BDC2C3CA
3DCCCCCD
3E067382
BE3DA512
BE123A2A
BE28A71E
3DF14120
3C3AC711
3D236E2F
BDB3D07D
BE4A8C15
BCA30553
3C3295EA
BB5844D0
BDF24745
3DCEA4A9
3E395810
3DD3F7CF
BDB7B4A2
3E535A86
3C91D14E
3E50624E
BD0ADABA
BBF9096C
80000000
3D20F909
BDE1B08A
3DDC28F6
BE36AE7D
BD3573EB
BE221965
BE410625
BD90624E
BCB43958
BCE075F7
3D95182B
BD93DD98
BD902DE0
3C1D4952
3C84B5DD
3E2E147B
BD5F3B64
BCFEC56D
BD3AC711
3D3851EC
3D315B57
BD4AC083
3E18E219
3DC91D15
BCA9930C
BD343958
BC92A305
3D36AE7D
BDE9AD43
3CE3BCD3
3D3AC711
BD86594B
3D8E8A72
BDA71DE7
BDD35A86
3D1930BE
3CBAC711
BE1A9FBE
BD978D50
3C3295EA
BCCB295F
BDA161E5
3BCB295F
BD4FAACE
BD84EA4B
BD89D495
3B5844D0
3DC84B5E
3DE0DED3
3D16BB99
BD7212D7
BBCE703B
BD7559B4
3DA8F5C3
3D886595
BC3FB15B
BD31C433
3DE17C1C
3DC7E282
BCC63F14
BCB851EC
3CEB1C43
3CF0068E
BE1DCC64
3C9D4952
BD05F06F
3CA8C155
BC04B5DD
3DE6CF42
3D83E426
3D926E98
3DE7D567
BD2161E5
3D31C433
BD8EBEE0
BC03126F
BE058794
3DB2617C
BB4B295F
3DC1205C
3D9B089A
BD9A0275
BD87C84B
BE135A86
3CC49BA6
3E0ED917
BD40EBEE
3DF58E22
3DF8A090
3A83126F
BE05F06F
3C79096C
BD243FE6
BD23D70A
BD875F70
3DBBCD36
3C3923A3
BCD6A162
BC9374BC
3D74F0D8
3CC08312
BD95E9E2
BE5FA440
3DA0902E
3E202752
3DDAEE63
BDA85879
3E0C2F83
3D93A92A
BC809D49
BDB6E2EB
3D264C30
BCE48E8A
BD5288CE
BD6631F9
BBEF34D7
BDDCFAAD
3DC25AEE
3DBD70A4
BDBC01A3
3CFB7E91
BD9E83E4
3D71A9FC
3DF2B021
3D18C7E3
BE23F141
BC809D49
3DE48E8A
3DA43FE6
BB3E0DED
3DB851EC
B9D1B717
3D2B367A
3D449BA6
3DA0F909
BD985F07
BDC0EBEE
3DC50481
3C2A64C3
BD3089A0
3DBCD35B
3D896BBA
3D257A78
3DF03AFB
BD5B8BAC
3E00346E
BD47E282
3DDFA440
BCCB295F
3DB4D6A1
3D81D7DC
B99D4952
3D875F70
BD9F212D
3DDCC63F
3E2425AF
3D2DAB9F
BDBDD97F
3DB8BAC7
BDF03AFB
BDAF4F0E
3C816F00
BDD32618
3DF9096C
BD5B8BAC
BD6D9168
BD7E5C92
3D5F3B64
BD1BA5E3
BDA7BB30
BDF3EAB3
BCC154CA
BE314120
BC9374BC
BC0CE704
BDB05532
BD0ADABA
BD53C361
BD6B1C43
3D7D21FF
BD98FC50
BD172474
3D9BDA51
BD8F9097
BE334D6A
BE001A37
BB2A64C3
3DA7EF9E
BD8E8A72
BCEB1C43
3E051EB8
3DE00D1B
BD17F62B
3D69E1B1
BCAA64C3
BD343958
BD1D4952
BD371759
BC2DAB9F
3DBE76C9
BA6BEDFA
3C741F21
BD5B8BAC
BDDC28F6
BCDB8BAC
BA51B717
BE1DB22D
3DCA57A8
BDCAF4F1
3C9A0275
BD20F909
3D55CFAB
3D5E69AD
BCE703B0
BC96BB99
3D978D50
BCDFA440
BCA8C155
3E14AF4F
BDB0F27C
3D982A99
BDBFE5C9
3D34A234
BC741F21
3E154C98
3D81A36E
3D1E1B09
BDBFB15B
BD0FC505
BC7C5048
3D230553
BC56A162
3D3DA512
BDC9BA5E
80000000
3D463F14
BD4AC083
3D1652BD
BCEBEDFA
BDD460AA
BCDD2F1B
BD26B50B
3C7AACDA
3CD9E83E
3D1BA5E3
BDBB645A
3DA64C30
3D343958
BCD9E83E
BD6F9DB2
3D8BE0DF
3E0D844D
BC9FBE77
3D2FB7E9
BDE631F9
BDE94467
BC4CCCCD
3CA0902E
BE01D7DC
BDD2BD3C
BD84EA4B
3D5B8BAC
BD22339C
BDD42C3D
BCEBEDFA
BD96F007
BE020C4A
BBAA64C3
BD06C227
3C11D14E
BD37E910
BE2DE00D
BDCD013B
3D7F2E49
BE32617C
BD89A027
3D2E147B
3DC7E282
3DE2EB1C
3E1BC01A
BD398C7E
BCCA57A8
3D5C5D64
BCEE6320
3D2E147B
3D25E354
3D202752
3E2ECBFB
3D0C7E28
BBEBEDFA
BDA30553
3E02C3CA
3D229C78
3D1652BD
3C15182B
3E063F14
BE49BA5E
BD1FBE77
BD9096BC
3D5F3B64
3D7BE76D
3BEBEDFA
BD78A090
3CE3BCD3
3C1374BC
3DBC01A3
BD9DE69B
BD3E76C9
BC6D9168
3D591687
3C8DB8BB
BE159B3D
3D48B439
3CF765FE
3D292A30
BDAF4F0E
BDB851EC
3D3923A3
BE0E2196
BE367A10
BDB2FEC5
BC4985F0
3E121FF3
3DF6C8B4
3D0C7E28
BD1C0EBF
3D7D21FF
BDDE69AD
3C816F00
3DA2339C
3CF0D845
BB3E0DED
3D3089A0
3E5182AA
BD972474
3A6BEDFA
3E34538F
BC4CCCCD
3BA71DE7
B9D1B717
BDE9AD43
3BAA64C3
3DD2F1AA
3D88CE70
BDD119CE
BD591687
BDBA29C7
3D844D01
3C9930BE
BE044D01
3D8D844D
3E26E979
B8D1B717
3CF34D6A
BC809D49
3E0816F0
3D55CFAB
BDBC3611
3BCB295F
3D172474
BC621965
BE15182B
3E1CC63F
BE48E8A7
BD1E1B09
BE28DB8C
BDA9C77A
BD64F766
BDF318FC
BBE8A71E
BD59E83E
BDDC5D64
BE0068DC
3D514E3C
3DF9A6B5
3E0CCCCD
BD621965
3DAE48E9
BB5ED289
3D978D50
BD29FBE7
BD9930BE
BD90FF97
3C3923A3
3DAC3C9F
BD9FBE77
BDBC3611
3D82DE01
3D24A8C1
3DC0EBEE
BD2C710D
BDE3F141
BA1D4952
BD7F2E49
3D25119D
3DDBF488
3C88CE70
3C9D4952
BD47E282
BD5F3B64
3CE3BCD3
3D982A99
3D844D01
3CB851EC
3D8A3D71
BD93404F
BD855326
3DC5A1CB
BCB5DCC6
BCCA57A8
BD84EA4B
3CFB7E91
BCD013A9
BDACA57A
3D00346E
BDB7E910
BD37E910
BCD5CFAB
BDCB5DCC
3DA0C49C
3DC01A37
3DC01A37
BE373190
BD53C361
3D4D35A8
3C9374BC
BC6F34D7
3DDD6388
3D0CE704
BD271DE7
BD8ADABA
3DEC56D6
BD3B98C8
BDB923A3
BDE353F8
BD941206
BD38BAC7
3D0A0903
3DB43958
BCEB1C43
3E083127
BC04B5DD
3D827525
3BB78034
3DC3C9EF
BC9E1B09
3D0FC505
BD12A305
3E0CB296
BDE8A71E
3CACD9E8
3C9EECC0
3DB295EA
BD82DE01
BDA43FE6
BDE00D1B
3DA4A8C1
BCF9096C
3D958106
BC88CE70
BD3EDFA4
BE049BA6
BD7C5048
BDCDD2F2
BDA30553
3DB0F27C
3C6D9168
BD9C432D
3E294467
3DCFDF3B
BDEAB368
3DD9E83E
3BE56042
BDA617C2
BC463F14
BD762B6B
BDB15B57
BC51B717
3D79DB23
3D816F00
BD3EDFA4
3DC87FCC
3D11D14E
BCD1B717
BD577319
3D9930BE
BCBC6A7F
38D1B717
3CF765FE
3D4F41F2
BD70D845
BDC22681
3D1CE076
3C42F838
3DFE9100
3CD35A86
3DB1C433
BDD7DBF5
3D257A78
3DBF4880
BD8E5604
3C727BB3
3D4BFB16
BD158106
BE06594B
3CADAB9F
BDA6E979
BD9E1B09
3CA30553
BE0710CB
3D96F007
BDBF4880
BD9B3D08
BDDD2F1B
3DB0BE0E
BDD9B3D0
3DA8240B
BDD7A787
3D5E69AD
BD3020C5
3D930BE1
BDBAC711
BCC08312
3DBC3611
3C4154CA
BD8CE704
BDA7EF9E
BC6A4A8C
BCE3BCD3
BCFDF3B6
3D85F06F
BDBB98C8
3D3089A0
BDA40B78
3D7CB924
3E1D6388
BC16BB99
3E14C986
3D6BEDFA
3D401A37
BD837B4A
BD889A02
3D5E69AD
BD886595
3CC63F14
3D48B439
3CEE6320
BD3295EA
BAB78034
BC1D4952
BD1096BC
3DAD0E56
3BEF34D7
BDD60419
BB6BEDFA
3E0E703B
BDD288CE
BDB67A10
3C257A78
3D99652C
3D42F838
3E19E83E
BDDD97F6
BD3A5E35
BDEA7EFA
3C51B717
3CD288CE
3DC22681
3DB50B0F
3C06594B
3D1D4952
3D889A02
3D7C5048
3DAB6AE8
BC86594B
3DBEDFA4
3C8DB8BB
3DCAC083
BD4BFB16
3CE8A71E
3C741F21
3C271DE7
3D577319
BAEBEDFA
3DBF4880
3D5566CF
BCFAACDA
3D762B6B
BE10CB29
BD5ED289
BCD1B717
BD844D01
3DDAB9F5
3E072B02
3D9BA5E3
3D9AD42C
BD858794
BD67D567
3CECBFB1
3D9EB852
3DB5A858
3CD013A9
BDA5460B
3D83AFB8
3D6AB368
BC1A0275
3CA8C155
3DA92A30
3D9205BC
BE02C3CA
BC16BB99
BD1652BD
BCA7EF9E
BCE21965
3E1013A9
3CAF4F0E
3B902DE0
BDFC1BDA
3DD4FDF4
BD2E147B
BCFAACDA
BE0F9097
BA83126F
3D844D01
BE29FBE7
BD0D4FDF
BE06C227
3D6ECBFB
BD89D495
BE39DB23
3B6BEDFA
BDC67382
BE1013A9
BDF58E22
BD2786C2
BD83AFB8
3E266666
3CEB1C43
BD16BB99
3CB50B0F
BD7AACDA
3D257A78
3D1E1B09
BD09A027
BCD77319
BDB39C0F
BE153261
BCCD9E84
BDC0EBEE
3CF837B5
BCEB1C43
BBEF34D7
BDE075F7
BC75C28F
3D21CAC1
3DEF6944
BE010625
3C91D14E
BD292A30
3E3089A0
3D809D49
3D428F5C
BDC60AA6
BDBA5E35
3D3B2FEC
3D809D49
3CD1B717
BC8A71DE
BD10FF97
BD010625
3CD42C3D
BDD1EB85
BDA7EF9E
BDA161E5
BE2FD220
3CDFA440
BD05F06F
BE1AD42C
3D3573EB
BDA02752
3DFCED91
3DB6AE7D
3D55CFAB
3BA0902E
BCD42C3D
BE04816F
BDE7D567
BD3B98C8
3E35F6FD
3D816F00
3DEAB368
BE256042
BD896BBA
3D9D4952
BD07FCB9
BD741F21
BC5B8BAC
BDEB851F
3D8BAC71
3CF837B5
BD92D773
BD3851EC
3BC49BA6
BD49EECC
3E455326
BDF27BB3
3B5ED289
BE0ADABA
BD40EBEE
3DB61134
3C7F9724
3D0D4FDF
3C30F27C
BC9E1B09
3CCF41F2
3DB88659
BDD8ADAC
3E0FC505
3D3089A0
3E0D013B
3DC95183
BBAA64C3
3DB7E910
BD42F838
3DEB50B1
BC816F00
3DC50481
BCEBEDFA
BB8CE704
3DBC9EED
3DD14E3C
BD563886
BC0B4396
3C22339C
3D3C6A7F
3CDC5D64
BC8C154D
BDAE48E9
3E2B367A
3D84EA4B
3B102DE0
3DB2CA58
BD6425AF
3D436113
3D463F14
3E1E00D2
3D2C0831
3D08CE70
3DC1BDA5
3D058794
3E03126F
3DD59B3D
3D3B2FEC
BC985F07
BBE56042
BDA05BC0
BD28C155
BDE1B08A
BDAA9931
BD9E83E4
3CBB98C8
BDDB22D1
BDB53F7D
3DAF4F0E
3D8D1B71
BE025AEE
BCD1B717
3D97F62B
3C6BEDFA
3D1374BC
3DABD3C3
3D1BA5E3
3D3B98C8
3CB50B0F
3D47E282
3D89D495
3D1652BD
BDAEE632
3A378034
3DB39C0F
3A03126F
3C04B5DD
BDC3C9EF
BDD2F1AA
BDADAB9F
BE3559B4
3C3E0DED
3C54FDF4
3E04B5DD
BCE56042
3DA6B50B
BCDFA440
3CB0F27C
3DBF4880
BDA0F909
BC7C5048
BC185F07
BE0BAC71
3C621965
3DA02752
3CBD3C36
BDBEAB36
BE0902DE
BE3B15B5
BD086595
BD044D01
BDA40B78
3C1374BC
3DD0E560
3D42F838
BCC710CB
3BD1B717
BD9205BC
3D7CB924
BE1566CF
BD9205BC
BD83126F
BCDD2F1B
BCAE7D56
BD78A090
BD9205BC
BD086595
BE228241
3E2ECBFB
3E62EB1C
3CC56D5D
BD82A993
BCD1B717
BD4CCCCD
3D570A3D
3D93A92A
BD5013A9
3D436113
3D507C85
3C944674
BCC08312
BDF9096C
BCEF34D7
3D683E42
3CDAB9F5
BDC22681
3D450481
3DEDC5D6
3DE9AD43
BB86594B
BCD6A162
3E1ED289
3E17DBF5
3CBFB15B
BDC154CA
3BADAB9F
BD985F07
BC20902E
3D130BE1
3D9D7DBF
BDB6E2EB
3DDA511A
BD2161E5
BDEBEDFA
BBE8A71E
3D22339C
BD0793DE
BCC3C9EF
BE18793E
BD05F06F
BDB7B4A2
3CFAACDA
BD844D01
BDCED917
3C463F14
BDCAC083
BCE3BCD3
BE001A37
3D690FF9
BE087FCC
3CAC0831
3B30F27C
3E025AEE
BCA57A78
3C23D70A
3DD49518
3C5844D0
3D06C227
3D3DA512
3DB95810
BC2C0831
BD6DFA44
3B83126F
3DC538EF
BDCE703B
BC09A027
3DDF3B64
3D2B367A
3DC32CA5
BE25E354
3DA2680A
3BB78034
BDC432CA
3D436113
3DE52BD4
BD1374BC
3E1182AA
3D8F27BB
BCC3C9EF
BD0E2196
BDC154CA
BE177319
3D9A6B51
BD5A511A
3D0B4396
BDA9C77A
3C0E8A72
BCB020C5
3DA161E5
3D4A57A8
BC816F00
3D25E354
BC7F9724
BC271DE7
B9D1B717
BD40EBEE
BDE9AD43
3E0624DD
BD9FBE77
3B89A027
3D20F909
BD343958
3D8E5604
BD1374BC
3D80346E
BD25E354
3D809D49
3D95182B
BD8346DC
BDAEB1C4
BC11D14E
BDAFB7E9
3C16BB99
3D5E00D2
BDF4F0D8
3DAF4F0E
BD11D14E
3E4BAC71
BDD14E3C
BD43C9EF
3D016F00
BD1C0EBF
3C51B717
3DD66CF4
3CD5CFAB
BD2E7D56
3D8EF34D
3CA7EF9E
3D010625
3DA47454
BDFCED91
BA51B717
3DC63F14
BC54FDF4
3BA71DE7
3CA71DE7
BE046738
3D84EA4B
3D9E4F76
BD944674
BE1C0EBF
BDFFCB92
BCF1A9FC
BDD4C986
BE159B3D
3DBE76C9
3D9AD42C
BBE56042
3DA8C155
BDB8EF35
BDBAC711
3D690FF9
BDF9DB23
BCED9168
3C1A0275
3C1EECC0
3D5E69AD
BE2D5CFB
BDBCD35B
3DD70A3D
BC378034
3D88CE70
BD86F694
3D5F3B64
3D923A2A
BE1C5D64
BDB71759
3C378034
3C978D50
BB30F27C
3D26B50B
BBE21965
3D7A43FE
3E4FC505
3E072B02
BC5B8BAC
3E264C30
BD086595
BC8F5C29
BE041893
BBC7E282
3D9D7DBF
3DBAFB7F
BD3D3C36
3DD6A162
BD06C227
BD5E69AD
BD4710CB
BD7F9724
BE8ACD9F
3E34BC6A
BD8EBEE0
3D4B923A
3DBE425B
BE2CA57A
BDC01A37
3C902DE0
3D116873
BD690FF9
BD6978D5
3CAB367A
BD85BC02
3D9B7176
BC03126F
3D15182B
BD7765FE
BD243FE6
3DB78034
BC9C779A
BCF41F21
3CA30553
3E114E3C
3E4A8C15
BE288CE7
BBADAB9F
BE3EDFA4
BD947AE1
3E135A86
3D797247
BDB81D7E
BC3E0DED
3DD7A787
BD1A6B51
BE06A7F0
BD4FAACE
BD1FBE77
3CD35A86
BD6631F9
3E6BB98C
BDA12D77
BE11EB85
3DA8C155
BDC18937
3CFC5048
BDA5119D
BD29930C
BC1A0275
3DDD2F1B
BD7F2E49
BE2CD9E8
3D91D14E
BD8E2196
BDF24745
3E4E703B
BE0C7E28
3DA3D70A
3E0BFB16
BD0C154D
BD96872B
3D009D49
3D398C7E
3DB8BAC7
3DB7E910
3D343958
3C68A71E
3D491D15
BDCB295F
3CD013A9
BE016F00
3DD91687
BD94E3BD
3BC49BA6
BD8A71DE
3DAB6AE8
BB09A027
BCC985F0
3D8E8A72
BE3A5E35
3E01D7DC
3D2A64C3
3D9930BE
BD6353F8
BE25119D
3CC2F838
BD99999A
BE200D1B
3D1A0275
3E18C7E3
3DEB851F
3CA30553
BC90FF97
BE5A36E3
BD762B6B
BDEA7EFA
BDB9C0EC
3DF318FC
BC90FF97
BC378034
3DE978D5
3DC5D639
BE3C9EED
3E19999A
BCFEC56D
BE4C154D
BDCBFB16
BDB2CA58
3DA5E354
3D3C6A7F
BD941206
3D9C0EBF
3CD35A86
BE1FF2E5
3DD460AA
BE2C3C9F
BD0FC505
BC1BA5E3
3D83AFB8
BC87FCB9
BB51B717
3D3DA512
3DD182AA
BD7E5C92
BD3E0DED
3DAD0E56
3E36FD22
BD7AACDA
3E170A3D
3E141206
3D1AD42C
3E275254
3C9C779A
BC6D9168
BDE8A71E
3C7DF3B6
BDEC8B44
3E0F9097
3C89A027
3C59E83E
3D46A7F0
BDB33333
3DB020C5
BD7CB924
BE82339C
3E3A786C
BDD9B3D0
3D4C63F1
3DC39581
3D1D4952
BDDCC63F
3D8D4FDF
3D144674
BDBFB15B
BD14AF4F
3E743958
3D982A99
3E27D567
BDB0F27C
BD230553
BA6BEDFA
3DECBFB1
BD086595
3CB5DCC6
3C2C0831
BD902DE0
3DE9AD43
3CD6A162
3D42F838
BE07C84B
3D4AC083
3E71758E
BDFF9724
3CD77319
3DDA8588
BE66E979
3DEBB98C
BC741F21
BC06594B
3D5AB9F5
BCA9930C
3D051EB8
3D4985F0
BE52F1AA
BDB0F27C
3CBC6A7F
BDBCD35B
BD1096BC
BC6BEDFA
3D9A36E3
BD0E2196
BBFF9724
3C63BCD3
3D985F07
3D8CB296
3E0BFB16
3E091D15
BD11D14E
3D15E9E2
BDFE9100
BD1CE076
3DB1C433
BD37E910
3C0B4396
BCEA4A8C
BC3C6A7F
BDCE3BCD
3D9FBE77
3C9D4952
3C5013A9
3D3295EA
BD484B5E
3D769446
3DDE9E1B
3C3E0DED
3C2DAB9F
BE2B020C
3E0BAC71
BD20902E
3CD013A9
BD9EECC0
3DBD3C36
3C741F21
3DE45A1D
3D98C7E3
BDE7381D
3C2A64C3
BD80346E
BD3EDFA4
BCCA57A8
3DC04EA5
3D6075F7
BDEE2EB2
BC2A64C3
BD172474
3DA19653
BDE809D5
BC621965
3E55CFAB
BD99CE07
3D83E426
3E4D013B
BDF8D4FE
BD10FF97
BD06594B
BDC5D639
3E1B573F
BD2EE632
3C9E1B09
3E361134
3CBAC711
3D0A71DE
3DA0C49C
BD6978D5
BDF381D8
BD15E9E2
BE10624E
3E095183
3DB98C7E
3DF06F69
3DD53261
BDB5A858
BD3EDFA4
BD315B57
BDF1DE6A
3DD91687
BCFD21FF
BC42F838
3CE2EB1C
BE022681
BE0ADABA
BDAFB7E9
BDE3F141
BE367A10
3A378034
3DAF4F0E
BC9374BC
3D92A305
3D8BAC71
3D9E4F76
3D0D4FDF
3D6BEDFA
3E2B9F56
3DF69446
3D2B367A
3D3E0DED
3D3FB15B
BD90FF97
3DD35A86
3C9D4952
BDDAB9F5
3E26CF42
3D77CED9
BE367A10
BD837B4A
BE890FF9
3CD0E560
BD98FC50
BD8902DE
3DE8A71E
3D8C49BA
3C1A0275
BD2161E5
3D0F5C29
BD2D42C4
BD16BB99
3C28C155
BD7212D7
3D29FBE7
3E06A7F0
3D79DB23
BC1EECC0
BDF1758E
BAEBEDFA
3D8C7E28
3D37E910
BD48B439
3E18793E
3DEECBFB
3E484B5E
3E0E3BCD
BC51B717
BD9FBE77
3B6BEDFA
3D858794
3D06C227
BC87FCB9
BCEB1C43
3D1DB22D
BD3645A2
BE1CAC08
3CA161E5
3DF62B6B
BD2B367A
BD130BE1
BDD9B3D0
BD15E9E2
BE28F5C3
3E292A30
BDF58E22
BC8E8A72
3C63BCD3
3D7E5C92
BE5FD8AE
3E577319
3C51B717
BD3E76C9
3D8AA64C
BD11D14E
3CEF34D7
BCD42C3D
3CF1A9FC
BD1FBE77
BE24A8C1
3E4BAC71
BE40EBEE
BE07AE14
3D058794
BDE5FD8B
BDB39C0F
BE229C78
BD591687
BE46F694
BD62EB1C
3C11D14E
3D1E1B09
BB96BB99
BD5AB9F5
3BFC5048
3D628241
3DAB367A
3D5D97F6
3CCB295F
3DCE703B
BDB3D07D
3D30F27C
BD989375
BE88F5C3
BDCBC6A8
BDE3BCD3
3D7765FE
3E36E2EB
BCA9930C
3E572474
BD3851EC
BDDC5D64
BDD013A9
BCE2EB1C
BE3295EA
3CF765FE
3E3AFB7F
BE7D566D
3DD3F7CF
BE01BDA5
3CC2F838
BE24C2F8
3D06C227
3DCB5DCC
3D9F212D
BE113405
BD84B5DD
BD178D50
BDE94467
BE10B0F2
3D84EA4B
BD97F62B
BE67BB30
3E084B5E
BDFCB924
3BF5C28F
BE636E2F
BE0ED917
BD0793DE
BDBEDFA4
BCA0902E
3C54FDF4
BDE21965
3CB78034
BDD6D5D0
BE06DC5D
3BCB295F
3D5FA440
3D6AB368
3D923A2A
BC28C155
BDC2F838
3C5D2F1B
BCEA4A8C
3CAC0831
3E009D49
BE797247
BDEECBFB
3DEDC5D6
BB1D4952
BDA0C49C
BE056D5D
BD6CBFB1
BD7AACDA
3BA3D70A
3E437B4A
3D9B3D08
BE9096BC
BE656042
BD507C85
BB23D70A
BE856D5D
BDF559B4
3D577319
BD8902DE
BDEF34D7
3DCB5DCC
3E896BBA
BE866666
3E2B367A
BE21FF2E
3E126E98
3E88DB8C
BDC779A7
BD9B089A
BE425AEE
BDEA161E
3D22339C
3DAEE632
BDCF7660
BCCBFB16
3E4240B8
3CC710CB
3D65C91D
3E2CD9E8
3D913405
BE4DED29
3D0E2196
3DED288D
3E577319
BCBD3C36
3E2D9168
3E09A027
3DD04817
3DD182AA
BD1096BC
BDC28F5C
BBBE0DED
BCE8A71E
BC96BB99
3D958106
BE2C710D
BE90624E
BC621965
BD2DAB9F
3D20F909
3DF8D4FE
BDAA3055
BD422681
BE1182AA
3E577319
BE25460B
3E774BC7
BE00346E
BB727BB3
BE7CD35B
BE09374C
3DA617C2
BE6A9931
3E15E9E2
BD95E9E2
BD401A37
BCB851EC
3C92A305
BAB78034
3E80EBEE
3E425AEE
BE8CF41F
BC727BB3
3E91B717
3E3F62B7
BDD91687
3A83126F
3DFB15B5
BD3C6A7F
3DDD2F1B
3E2617C2
3DCB923A
BD8A3D71
3D648E8A
3D941206
BE7A0F91
BDEBEDFA
3D837B4A
BCE147AE
3E0ED917
BDCEA4A9
BE10CB29
3D15182B
3B23D70A
BDC1F213
BD8A3D71
BE474539
BDA43FE6
3E1B22D1
BC90FF97
BD7559B4
BBB43958
3DD38EF3
3E821965
BD855326
BD656042
3E30F27C
3C0B4396
BDE2EB1C
3CDED289
BEAD42C4
BDC56D5D
3D95E9E2
3D343958
BDA9FBE7
3D9B089A
3CD844D0
3DE8DB8C
BD9E83E4
3D87FCB9
BD926E98
3D0E8A72
3C7AACDA
3CB0F27C
BDA5460B
3D257A78
3D25E354
3DEF9DB2
BCC154CA
3CF765FE
3D514E3C
BDE28241
3D80346E
BE051EB8
3DA1CAC1
BDB089A0
BE5D97F6
3E144674
3D30F27C
BD6DFA44
BE044D01
3DB2617C
BDDBF488
3C9FBE77
3DCE075F
BECC3C9F
3CBC6A7F
BCAA64C3
BE1E4F76
BCF9DB23
3CEB1C43
3DB2FEC5
BD7DF3B6
BE0ED917
3E000000
3C6703B0
3CAE7D56
BBC49BA6
BDAFEC57
3D463F14
3D2CD9E8
3DBDA512
3D072B02
3CA7EF9E
3DB5A858
3DEF6944
3E889A02
BD5013A9
BCB295EA
3BA3D70A
BDE353F8
BC102DE0
3DCEA4A9
3DBDD97F
BE475F70
BC0CE704
3B1D4952
3D7E5C92
3E2CBFB1
BD57DBF5
B9D1B717
BE410625
3DF765FE
BDD94AF5
BE0154CA
BDC816F0
3D463F14
BC03126F
3D9C432D
BE34BC6A
3CA3D70A
3E1EECC0
3DE11340
BE563886
3DAD0E56
3DCC63F1
3DF65FD9
BD820C4A
3DB18FC5
3DD013A9
BD80346E
BD7BE76D
3B378034
BD15E9E2
BD1374BC
3D1652BD
3D14AF4F
3D5288CE
3E013A93
BE0ED917
3AC49BA6
3E71DE6A
BC30F27C
3C88CE70
BCF0D845
BE7EF9DB
3D102DE0
BE087FCC
BDAD42C4
3DA2680A
BDB50B0F
BE087FCC
BD3851EC
BDBE0DED
3D6D288D
BC463F14
3D29930C
BD5566CF
BDA40B78
3DEC56D6
3D6AB368
3E075F70
BD6D9168
3D727BB3
3D621965
BE1A1CAC
BD15E9E2
BD0B4396
3C9C779A
3DAA9931
3CD844D0
3D800000
3D8EBEE0
BE4AF4F1
3E0B4396
3E0F41F2
BC7F9724
3D6AB368
BDB9C0EC
3D83126F
BBC49BA6
BD5E69AD
BC7AACDA
3D4ED917
BBE8A71E
BDBB2FEC
3D8B0F28
3E352546
3BA3D70A
3DB851EC
3C872B02
3E6C8B44
3DAB367A
3D9D7DBF
3DF4F0D8
BE1930BE
BD10FF97
BCF0068E
BDC36113
3E0D013B
BCF9096C
3E640B78
BE185F07
BE039581
BD57DBF5
3E13F7CF
BD7BE76D
3D648E8A
3D8346DC
3CB5DCC6
BDF79A6B
3E572474
BE50FF97
3E1E353F
3E119CE0
BDD97F63
BE032CA5
3E194AF5
BDF24745
BDDA511A
3E008312
BE03E426
3E1C0EBF
3DDFD8AE
3D820C4A
BDCE703B
BD83AFB8
3D0793DE
3E8CBFB1
BCD844D0
3D93404F
3DEF34D7
BD570A3D
3CD91687
BD1652BD
3C0B4396
3D809D49
3DD5CFAB
BDC32CA5
BE310CB3
3D82A993
3CBFB15B
3DCC63F1
3D8E8A72
BDE5FD8B
3D3D3C36
BE12A305
3D7D8ADB
3C88CE70
3D1652BD
BDC0EBEE
3DC63F14
BCF41F21
BD02A993
3D285879
BD84816F
3D93DD98
3E228241
BD2EE632
BD813A93
3D8346DC
3E449BA6
BDBDA512
3E0B7803
3DD9B3D0
BC83126F
3D9B3D08
BD837B4A
BE2D288D
3E290FF9
BE0E8A72
3D0E8A72
3DC779A7
3DB0BE0E
BDEF34D7
3D9930BE
3E00346E
3DD5CFAB
3D5C5D64
BD889A02
3CAE7D56
BD456D5D
BC9FBE77
3E67BB30
BDD1B717
BD9096BC
3A378034
BE01205C
3E3FE5C9
3C07FCB9
BD8B4396
3DF0D845
BD90CB29
3D5BF488
BE10CB29
BE00EBEE
BDD60419
BE591687
3E17C1BE
3C102DE0
BD563886
BD96872B
BE1460AA
3E5B3D08
BE046738
BE365FD9
3DC22681
3C30F27C
BE2C2268
BD058794
3DDD2F1B
BE4BFB16
3D872B02
BDCCCCCD
BD178D50
3B96BB99
3DA2680A
3DABD3C3
3D8AA64C
BCF27BB3
3D600D1B
BCFB7E91
3DF24745
BD010625
3BAA64C3
3D04B5DD
3D9FBE77
BDD9B3D0
3E4B4396
3E20C49C
3DFF9724
BBAA64C3
3DCBC6A8
BE271DE7
BE275254
BD051EB8
3DD63886
3C9BA5E3
3D38BAC7
3E04B5DD
3BAA64C3
3D989375
3D71A9FC
BE36C8B4
3DA64C30
3B51B717
BBF27BB3
BD0EF34D
BD8CE704
3E374BC7
3E42C3CA
3DA47454
3D8F9097
BB30F27C
3D86C227
BC42F838
BE4902DE
BE0779A7
3D2161E5
3E733333
BC5844D0
BE0C7E28
BCCA57A8
3E21E4F7
BC23D70A
BDB1C433
3DCE075F
3D116873
BE3EAB36
3D86F694
3D6ECBFB
3E2D288D
BDE8DB8C
3E22D0E5
BCADAB9F
BC84B5DD
3D941206
BE0CB296
BD9F559B
3E2DC5D6
3D185F07
BD9CE076
BD820C4A
3E204189
3B89A027
3CE21965
BC4B295F
3CD6A162
3DF8A090
3C47E282
BE0E5604
3E00B780
3DFE2824
3D9B7176
BD97C1BE
3CE56042
3D8793DE
BE333333
BDD7A787
BE10B0F2
BCE48E8A
BE1A511A
BE892A30
BDB6E2EB
BE3559B4
BBA3D70A
BCDB8BAC
3CBFB15B
BCB295EA
BCBB98C8
BCE147AE
BC63BCD3
3D5CC63F
BDE76C8B
3D958106
3E1652BD
BCC154CA
BD401A37
3D1D4952
3D727BB3
3CFB7E91
3D2FB7E9
3DEF9DB2
BDB53F7D
3E01205C
BC3AC711
3DCC63F1
BD961E4F
BD30F27C
3C741F21
BDE76C8B
BC4B295F
BD6B1C43
3D6703B0
3CDB8BAC
BDD1B717
BDE04189
BDAD42C4
BD80D1B7
BDF3EAB3
3DDA511A
3D8D844D
3C978D50
3D600D1B
3C15182B
3B1D4952
BDA30553
BCF0068E
BDD6A162
BD8D844D
BDA4DD2F
BCC63F14
BDA9930C
BC7F9724
3D844D01
3CCF41F2
3D591687
BDB1C433
3D8FC505
3D0A71DE
3B727BB3
BC20902E
3D56A162
BD25E354
BC03126F
3C0E8A72
39D1B717
3E0CCCCD
BD4B923A
3E01205C
3CD9E83E
3C185F07
BD086595
3BDB8BAC
3CDAB9F5
BD285879
3D648E8A
BD82A993
3CFEC56D
BCED9168
BD7F2E49
BD03E426
3B9D4952
BDC6A7F0
BDE353F8
3DBDD97F
3A03126F
3CDAB9F5
3DF0D845
BDD25461
BD52F1AA
3D8C49BA
3DCAF4F1
BD450481
BD676C8B
3C09A027
3CED9168
BA378034
BD76FD22
BCAF4F0E
3D6DFA44
3DE76C8B
3CDED289
3C8A71DE
BCB5DCC6
BBBAC711
BD600D1B
3C9930BE
BDCD35A8
BD82A993
BCACD9E8
BBA71DE7
BDFF2E49
3CE978D5
3D72E48F
3DC32CA5
BD810625
BE1288CE
3D5C5D64
BDB851EC
BD123A2A
BDA786C2
3CFDF3B6
3D63BCD3
3D85F06F
BD90624E
3D820C4A
BDC779A7
BE096BBA
BDDD2F1B
3B9374BC
3D4E703B
3E212D77
BD7C5048
BD7837B5
3C102DE0
BDAA3055
3E1B089A
3DB5A858
BCE3BCD3
BA1D4952
BD271DE7
3DA57A78
3D257A78
BC75C28F
3DE83E42
3D21CAC1
3E0EA4A9
3E17A787
3DC1BDA5
BD10FF97
3DAFEC57
BC816F00
3DBC9EED
3DB404EA
3D978D50
3C42F838
BE1F6FD2
BD872B02
BD841893
BD87C84B
3D15E9E2
BDC2F838
3D8ADABA
3C4154CA
3DCE075F
BD98C7E3
3DD49518
BD102DE0
BE16872B
BCE48E8A
BC28C155
3C8C154D
3E25C91D
3D41BDA5
3D0EF34D
3D2D42C4
BD14AF4F
BDCC985F
BE0CCCCD
BDF10CB3
BE236E2F
BD56A162
3CBB98C8
3E47AE14
BD401A37
3D83126F
BC741F21
3CD42C3D
BC621965
BD06594B
3AB78034
BD7F2E49
BD378034
3DD460AA
3DB9C0EC
3D941206
3E1BA5E3
B951B717
BDB39C0F
BE22339C
3E058794
BBA0902E
3B89A027
BE119CE0
3DA2339C
BD97F62B
BDA2D0E5
3DA8F5C3
3CBFB15B
BD17F62B
BD343958
BD15182B
BDE7A0F9
BCA9930C
3D6DFA44
3C42F838
BA378034
BC70D845
BE06F694
3C4154CA
3E06594B
3C535A86
3D6BEDFA
3C1A0275
BD4BFB16
3C03126F
BE1FF2E5
BDA5AEE6
3C5844D0
3DA29C78
BD3645A2
BD8AA64C
BDF4BC6A
3E141206
BC3E0DED
BC257A78
BC8E8A72
3E01205C
BD010625
3E0D9E84
3DF487FD
3C87FCB9
3D3573EB
3DD21FF3
3D0A0903
3DEFD220
BDABD3C3
3D4D35A8
3CD35A86
3DA6E979
3CE978D5
BDFCED91
3951B717
BD98FC50
BDB67A10
3CA3D70A
BE2F837B
3D5566CF
BC102DE0
BDF9096C
BC1A0275
BDAEE632
BE0240B8
BDD9E83E
3C6D9168
3C6A4A8C
BDE8A71E
3DE594AF
3C20902E
3DCA233A
BE37B4A2
3D3573EB
3AEBEDFA
BD6075F7
BD3F4880
3E13404F
BD02A993
3DF52546
BD837B4A
3E39F55A
3D64F766
3D8E2196
3C9AD42C
3C1EECC0
3C4985F0
BC07FCB9
BCD013A9
3DA57A78
3CE21965
3DF52546
BDBDD97F
BE09A027
3D7F9724
3E049BA6
BDDFD8AE
BD34A234
3DBA29C7
3CDD2F1B
3E0E703B
3E010625
3DDED289
3D9758E2
BBB0F27C
3DA3D70A
BDE7A0F9
BD99CE07
BDEFD220
BBE8A71E
3DD6D5D0
BD61B08A
BDB126E9
3D378034
3DE76C8B
3DEA161E
BC9A0275
3D7D8ADB
BD6DFA44
BD1FBE77
BD4710CB
BD17F62B
BE0779A7
BD17F62B
3D32FEC5
3DD7A787
BC985F07
BD872B02
3E275254
3D9F212D
3D2ACD9F
BDA617C2
3BBAC711
3DBC01A3
BA378034
3CADAB9F
3C2F4F0E
3E1930BE
3C3FB15B
BC872B02
3D27EF9E
BDEDFA44
BDF62B6B
BD8A0903
3DB39C0F
3B902DE0
3D1DB22D
3D06C227
3DCD35A8
3B86594B
3BE56042
BDF41F21
BC7C5048
3C22339C
3CCB295F
3C978D50
BAF9096C
BDC50481
BC88CE70
BCEBEDFA
BDEC8B44
3C7C5048
BB5ED289
BC2F4F0E
BE039581
BDA4DD2F
3CD9E83E
3DE0DED3
BCD42C3D
3E01A36E
3CB367A1
BDB2FEC5
BD6DFA44
BDC5D639
3D292A30
3C2A64C3
3CDC5D64
BBF5C28F
BCB0F27C
BBD844D0
3D797247
3CECBFB1
BDAA3055
3CC710CB
BD727BB3
BDA43FE6
BD10FF97
BD06C227
BDC0B780
BD37E910
3D1374BC
BD90FF97
3D01D7DC
3DF62B6B
BCF4F0D8
3DBD70A4
3CAB367A
BD22339C
3A6BEDFA
3B656042
BE166CF4
3BE56042
BDF10CB3
BD3645A2
3DA7EF9E
BDF8D4FE
3D77CED9
3D8BE0DF
BD6AB368
BD1F559B
3D8240B8
BCEF34D7
3D292A30
BCB020C5
3C741F21
3D9E83E4
3B16BB99
BDCC63F1
3C0E8A72
3E0B0F28
3C5D2F1B
3D45D639
BE01F213
BD3AC711
3D4CCCCD
3DB81D7E
BDAD42C4
BD8A71DE
3CCCCCCD
3C656042
3DB61134
3DF318FC
3CEE6320
BD2161E5
3DBEAB36
3DFD8ADB
3DEC8B44
3D8D1B71
3D4D9E84
BD5566CF
3D797247
BBAA64C3
3CED9168
3DCDD2F2
BCCB295F
3D8C49BA
3C9D4952
3D2C0831
BE025AEE
3DB089A0
3DBEAB36
3D56A162
BD1B3D08
3E1182AA
BDCE3BCD
BBAA64C3
3E1C779A
BD0B4396
3C8DB8BB
3D8A0903
3DB1C433
3D6D288D
BDF212D7
BCF41F21
3E06A7F0
BC902DE0
3C1A0275
3D79096C
BDFA0F91
BD837B4A
3D7C5048
3C7C5048
3D8D1B71
BD7559B4
BDA3A29C
BDB9F55A
3DE94467
BE095183
BDAE48E9
BC6D9168
BBF5C28F
3D3B2FEC
3D762B6B
3CFF9724
BDA3D70A
BBF5C28F
3DCE075F
3DE11340
BDBC9EED
BD84816F
BDA47454
BDD94AF5
3D53C361
3CFDF3B6
3E01BDA5
3DAFEC57
BDAB6AE8
3D913405
3D53C361
BD714120
BC858794
3D813A93
BDDF3B64
3D96F007
3D3D3C36
3DBF4880
3DB7B4A2
3CAF4F0E
3D9E4F76
BB449BA6
3DAE7D56
3D0C7E28
BCB78034
3D4154CA
BDDD2F1B
BCF41F21
3CFD21FF
3D55CFAB
BDBC01A3
3D50E560
BDF4538F
3DA9930C
BC6BEDFA
3D0E2196
3A83126F
3DA47454
3DEC56D6
BD8A3D71
BD570A3D
3D76FD22
BD7B15B5
BC3C6A7F
3D8C49BA
3D6978D5
BCE2EB1C
BD9CE076
3D491D15
3D98C7E3
3E161E4F
3D514E3C
3D25E354
3CA9930C
BBAA64C3
BD883127
BDC60AA6
BC23D70A
BC6F34D7
BD1BA5E3
BAF9096C
3D813A93
3DE48E8A
3E025AEE
39D1B717
3CFB7E91
3CD6A162
3DAB6AE8
BDB78034
3D2CD9E8
BC03126F
BB3E0DED
3A83126F
BDA0C49C
BCF9096C
3DCC63F1
BDC7E282
BC3295EA
3CDE00D2
3CAB367A
3BC7E282
3D371759
3E06A7F0
BBE8A71E
3D3C01A3
3DAD7732
3D8B0F28
BDC7AE14
3DCE075F
3DF6C8B4
BD837B4A
BD4C63F1
3B2A64C3
BD8EF34D
BCC08312
BBC49BA6
BE06DC5D
3DFA43FE
BD40EBEE
BB4B295F
3D38BAC7
BD2C0831
BC5ED289
BDF4538F
BE0A233A
BDBB645A
BDD94AF5
BCB6AE7D
3D34A234
BCFF9724
BD436113
BDA88CE7
3D8CE704
BD1E83E4
3DB2CA58
BDFB15B5
BD06C227
3C449BA6
BD408312
BDC9EECC
3D4D9E84
3E346DC6
BC86594B
BD741F21
BD1E83E4
BD54FDF4
3C7AACDA
3E18E219
3D0CE704
BD706F69
BDC49BA6
BE1F212D
BD978D50
BE303AFB
BE2353F8
3D9A36E3
BC0CE704
3C944674
3D116873
BD837B4A
3E5ED289
BD398C7E
BCF4F0D8
3D436113
3CC710CB
3DF9DB23
BCECBFB1
3E4538EF
BD6147AE
BCFB7E91
BD322D0E
3D8068DC
BCBEDFA4
3B51B717
3D4F41F2
BDBE76C9
BD8793DE
3D6C56D6
3CD844D0
3CDFA440
3DEE2EB2
3C68A71E
BD35DCC6
BC8DB8BB
3BB43958
BE1EECC0
BD4154CA
BCDC5D64
3D89374C
3DA6809D
3E271DE7
3D4985F0
BCC2F838
3DA1FF2E
BDB089A0
3B9374BC
BC5844D0
BC83126F
BC6D9168
BD82A993
3D3B98C8
3DF8D4FE
3DA9C77A
BD8BE0DF
BD79096C
BD4CCCCD
BDC432CA
3D25119D
BE1F8A09
BD56A162
B8D1B717
BD70D845
BD919CE0
BC8C154D
3E1E83E4
BB656042
BD741F21
BD9A0275
BD961E4F
BE16BB99
BD889A02
BD521FF3
BDADE00D
BD52F1AA
BDD60419
BD9096BC
3D55CFAB
BB30F27C
3C4985F0
3E01F213
3DD60419
BDABD3C3
BDB1C433
3C87FCB9
3DD59B3D
BD8A71DE
3B902DE0
BCACD9E8
3E1E69AD
3CDAB9F5
3E1182AA
BD6703B0
3CF34D6A
BDAC0831
3D800000
BD8E5604
BD2C710D
BDC01A37
3CB9F55A
3DFE9100
BDF4538F
BDD91687
BBA71DE7
3D85F06F
3E010625
BD8E5604
3DBB645A
BCF9096C
BD800000
BD243FE6
3DC56D5D
3D3295EA
3C6D9168
3D449BA6
BB83126F
3D989375
BC87FCB9
BD116873
3E08E8A7
BD26B50B
BDA43FE6
3CE48E8A
3DC32CA5
3C42F838
3C1A0275
3DF1DE6A
3B86594B
3E07AE14
3D343958
3C4E703B
3DC36113
3D29930C
BD87FCB9
BE114E3C
3D38BAC7
BE23F141
BD6D288D
3DB126E9
BE06F694
BDAB9F56
BD2CD9E8
BDD81062
3D656042
3C7DF3B6
3D63BCD3
BADED289
BE236E2F
3DA6B50B
BDD59B3D
BDC67382
3D2ACD9F
BDE4C2F8
BC271DE7
BD6F34D7
BDE5C91D
3BFF9724
3D2786C2
BD5C5D64
BCDFA440
3B83126F
BE3A786C
3DA8C155
3B656042
3CD9E83E
BD9BA5E3
3D5C5D64
3D669AD4
3CB923A3
3DF3B646
BCC7E282
3DD5CFAB
3CDB8BAC
3C09A027
3DD14E3C
3B449BA6
3E063F14
BE0240B8
BDC4D014
3D8FC505
BDF212D7
BD0FC505
3D3089A0
BE0D1B71
3D514E3C
3CFDF3B6
BC89A027
3D855326
BE36C8B4
BD3020C5
3D816F00
BCC3C9EF
3CC08312
BDC18937
3D3D3C36
BDCFDF3B
BC7C5048
3B2A64C3
BDB43958
3C343958
BCB851EC
BD99999A
3C92A305
BCEBEDFA
3D8A0903
3E025AEE
BD65C91D
BD7D8ADB
BBDB8BAC
3DEB50B1
3DCD35A8
3D3A5E35
BD74F0D8
BC2DAB9F
3D8E5604
BDA12D77
3C9BA5E3
3B79096C
BD3367A1
3BDB8BAC
BD6425AF
3DF1DE6A
BD96872B
BD8AA64C
3E0BAC71
3DF5C28F
3DC7AE14
3DBB2FEC
3CE8A71E
3D74F0D8
3D4D9E84
3B902DE0
BCE56042
3D7C5048
3DC87FCC
3D87FCB9
3D2A64C3
3D958106
3C8B4396
BE1288CE
3D98FC50
BE163886
3DADE00D
BD28C155
BD0BAC71
3E0DD2F2
BDBAFB7F
3DCC2F83
3CC08312
3D7F2E49
3D1FBE77
3CE147AE
BD20F909
00000000
3DB05532
BDECF41F
BE2703B0
3DA7EF9E
3C3C6A7F
3D59E83E
BD05F06F
3D70068E
BDD8793E
3D6B1C43
3DB6E2EB
BBA71DE7
BCC154CA
3DA4A8C1
BC8E8A72
3D8624DD
3DF559B4
3CD0E560
3D450481
BE132618
BCBEDFA4
BE2425AF
3A83126F
BDAA64C3
BDBB98C8
3D9AD42C
3D669AD4
BD5B22D1
3D8F27BB
3BDB8BAC
3DD59B3D
BDC2C3CA
3A378034
3D449BA6
BDD97F63
3C88CE70
3C3AC711
BE063F14
BE3FCB92
BD371759
3D92D773
3DEC8B44
3D2E7D56
BC35DCC6
BE1A6B51
3AAA64C3
BB4B295F
BB86594B
BD85F06F
3C95E9E2
3D4BFB16
3D051EB8
BCD1B717
3BA3D70A
3D6D288D
BDD07C85
BC6075F7
BD706F69
BDA4A8C1
3BBE0DED
3D820C4A
BDE2EB1C
3DB50B0F
3CB43958
BCEB1C43
BD4710CB
BD71A9FC
3DCFDF3B
3E0154CA
3D130BE1
3CBD3C36
BDB81D7E
BD92D773
3951B717
BE276C8B
BC83126F
BDDBC01A
3CD4FDF4
BC28C155
BCF4F0D8
3D99999A
BD577319
BD3573EB
BCEF34D7
3D1FBE77
BDE17C1C
BDAC710D
3D5ED289
BDDCFAAD
3D343958
BE05A1CB
BD4B295F
3D762B6B
3DE21965
3DE4C2F8
BD449BA6
3D7CB924
BE3381D8
3D1A6B51
BDCF0D84
3DC01A37
BD8E2196
BDF03AFB
BC9D4952
3D972474
BDB88659
3E25FD8B
BDD2BD3C
3D7B15B5
BCA8C155
BD9FF2E5
3E5AD42C
BDD5CFAB
3E288CE7
3DAB9F56
3E055326
BB656042
BDAC0831
3E59652C
3E2147AE
3C4B295F
3C3923A3
3DB39C0F
BD46A7F0
3D2B367A
3E821965
BD3A5E35
3D1A6B51
BC1D4952
BD9205BC
BDAD7732
BC95E9E2
BDB7B4A2
3E5AEE63
3B03126F
3E3295EA
3E45BC02
3DDC5D64
3E3E0DED
3D83AFB8
BA9D4952
BE3B98C8
3DF3EAB3
3C4154CA
BC185F07
3CD9E83E
BD31C433
BDA75254
BD79DB23
BC8B4396
3C0E8A72
BD158106
BD450481
BD428F5C
3DB81D7E
BDBEAB36
BD923A2A
3CDED289
BDB6E2EB
BD88CE70
3B727BB3
BDFDBF48
BE01F213
3DC22681
3D072B02
3D0BAC71
BCC63F14
3DBA29C7
BD6A4A8C
BB378034
BD8F5C29
BCBE0DED
3C8240B8
3E3DD97F
3D3E0DED
BDF1A9FC
3C9E1B09
BE380347
3C185F07
3DE48E8A
3E2D42C4
3E305532
3D0EF34D
BD810625
3D81A36E
BE03126F
3D178D50
3D3367A1
3D4E075F
3CC49BA6
3DDE9E1B
BE591687
3E35A858
3CF34D6A
3D913405
3CB6AE7D
BB96BB99
3B5ED289
3E28DB8C
BD33D07D
3D25E354
3DCAF4F1
BCC2F838
3DF9A6B5
BD95E9E2
BD6147AE
BDFE5C92
BDE425AF
3D65C91D
BC4E703B
BD3851EC
3BA71DE7
3C9D4952
3D3020C5
3DF7CED9
BE142C3D
BD6D9168
3D2C710D
3E8C63F1
3DE4F766
BD10FF97
BD75C28F
BD0D4FDF
3C3295EA
3DFE5C92
3D872B02
3E161E4F
BDE4F766
BD916873
3D9FBE77
BDBF7CEE
BCB851EC
3DC1BDA5
3CCBFB16
BD82DE01
BE3089A0
BE18C7E3
3D8E8A72
BE067382
BD5C5D64
BCF41F21
BAF9096C
3E1CFAAD
BDE00D1B
3E5A36E3
BE5A36E3
BB03126F
BD0DB8BB
BDA57A78
3D0D4FDF
BDB0BE0E
3C8240B8
3DFE2824
BE863F14
3E1B22D1
BE33EAB3
BD1E83E4
BDA3D70A
3D0F5C29
3DC7AE14
BDA57A78
3E450481
BCE631F9
3BE56042
3C656042
3D5ED289
3DE9E1B1
3E5E69AD
3C5013A9
3D10FF97
3E42F838
3DD53261
3DEF6944
3D32FEC5
BE01BDA5
BDBCD35B
BD78A090
3DD77319
3D88CE70
3DAACD9F
BBE21965
BCF1A9FC
3DD49518
BDA4DD2F
BE1288CE
3D9D7DBF
B99D4952
BC83126F
BD690FF9
3B656042
BCB43958
BDC74539
BDE17C1C
3D7DF3B6
BD3E0DED
3D8AA64C
BE408312
3DBEAB36
BE004EA5
BE13DD98
BC11D14E
3CD844D0
BBC7E282
BD542C3D
BCF27BB3
BD8CE704
3C4985F0
3D813A93
BDF34D6A
BC8E8A72
3D9652BD
3E5EB852
3D343958
3DC08312
3D972474
BD1D4952
BE0D35A8
3E5D97F6
3D7EC56D
3E0B4396
BD07FCB9
3E0068DC
3E4D013B
3D99CE07
3AB78034
3C92A305
3DAEE632
BDFA786C
BDF80347
3D9F559B
BE1E83E4
BD6B1C43
3C978D50
BD051EB8
BDE3BCD3
3D450481
BD3E76C9
3E468DB9
BD2EE632
BE1E1B09
3CA64C30
3E0AC083
3D9CE076
BDD4C986
3DC1205C
3D80D1B7
3D41BDA5
BD8B4396
BDEC8B44
3DE075F7
BD22339C
BE114E3C
3E2F837B
BE074539
3D883127
3D507C85
BE2F837B
3E1C0EBF
3D89374C
3C68A71E
BDA9FBE7
BDC9EECC
BDEA161E
3E4B5DCC
BD044D01
BE2872B0
BDF381D8
BE087FCC
3C7C5048
BDB05532
3B378034
3D87FCB9
BDA0902E
BE42DE01
3CBD3C36
BD810625
BD229C78
BDFAACDA
BD9DB22D
BCD0E560
3CD91687
3E3F62B7
3D628241
BE1B573F
BCCD9E84
3E037B4A
3E9765FE
BDCF7660
BC6F34D7
3D55CFAB
BD5E00D2
3D6425AF
3B449BA6
3DBEDFA4
BE3F1412
BC8240B8
BD3FB15B
3D868DB9
BDC8B439
BC47E282
3BDED289
BD11D14E
3E31758E
BDB0BE0E
BDA8F5C3
3D01D7DC
BC4985F0
3E39DB23
BCEBEDFA
3D45D639
BDD04817
3CB923A3
3D563886
BE640B78
BD79096C
3E1EECC0
BC8A71DE
3D5E69AD
BC79096C
3D3851EC
BE001A37
BD0EF34D
BCBE0DED
3DB39C0F
BD1FBE77
BD7837B5
BCF0068E
BD6C56D6
BD0ADABA
BDF10CB3
BDA43FE6
3E487FCC
BE063F14
BD858794
BD8068DC
BE645A1D
3CF9096C
BE0432CA
BE30BE0E
3E177319
BB2A64C3
BD8902DE
3DA617C2
BBDED289
3D3EDFA4
3CBD3C36
BD9BA5E3
3E0F5C29
BBF27BB3
3E439581
3D08CE70
3CE147AE
3C70D845
BCF34D6A
3D7E5C92
BD6F9DB2
3BA0902E
3D5CC63F
3E85460B
3E7DA512
3E597F63
BDE425AF
BEA75F70
BDEB50B1
3CD4FDF4
BD037B4A
BE346DC6
BE20C49C
3D75C28F
3D6ECBFB
BE4985F0
BD4432CA
BE786C22
3E381D7E
BE0538EF
3E6AE7D5
3E037B4A
BDB6AE7D
3D5AB9F5
BE7DD97F
BD9F8A09
3E58ADAC
3E761134
BE547AE1
BC09A027
3D3AC711
3D4432CA
3E2A4A8C
BE142C3D
3E0068DC
BE8816F0
3E5C91D1
BD54FDF4
3E4CCCCD
BDB295EA
BD7F2E49
3DA617C2
BDA40B78
3E24F766
3A51B717
3DB2617C
3E6BD3C3
BD20F909
3D0A0903
BDA7EF9E
BDD21FF3
BCE3BCD3
3EA63F14
BD9BDA51
3EA75F70
3E850481
3E8B5DCC
3E1E00D2
3DB9C0EC
3E4C154D
3D8EBEE0
3E18ADAC
BE79C0EC
3DBE76C9
BE314120
3CE8A71E
BD1A0275
BE7DD97F
BCA4A8C1
3DC9EECC
BD6F34D7
3D9E4F76
BCA30553
3E05BC02
3E04B5DD
3E7C3611
BE5D97F6
3E04EA4B
3DDF3B64
3E8E5604
BE160419
3D8F9097
3E8154CA
BE41BDA5
3DA9C77A
3B5844D0
3E4EF34D
BDB4D6A1
3CF27BB3
3E942C3D
BD3C6A7F
BDA36E2F
BD0240B8
BE6425AF
3E54FDF4
BE3E2824
BE6617C2
BE7B7E91
BD1AD42C
3E4C985F
BDD6A162
BE34D6A1
3E96FD22
3D0240B8
BD4B295F
BE49BA5E
3E74D6A1
3D889A02
3DF318FC
BBD844D0
3D7E5C92
BC6D9168
BCD5CFAB
BDA02752
3D8B7803
BEB60419
3D896BBA
3B449BA6
BDE0DED3
BE5F3B64
BDACD9E8
BD9652BD
BD36AE7D
BDCBFB16
BBC7E282
BE0D35A8
BDAE7D56
BDA43FE6
3D0A0903
3E2FEC57
BE33D07D
BC185F07
BC4B295F
BD8BE0DF
BDCD6A16
BCE703B0
BD19999A
BD8D4FDF
3E483127
3CF27BB3
3E2BEDFA
3CB5DCC6
BDF2B021
BE09EECC
BD1930BE
BE49BA5E
BDA0F909
3DF487FD
BDD42C3D
3D87FCB9
3D2B9F56
3CC985F0
BC09A027
BCC2F838
BE211340
BD0E8A72
3B102DE0
BC0CE704
3DCC985F
BC86594B
3D9E1B09
3D6C56D6
3DC1BDA5
3D1096BC
BCB295EA
BCB923A3
3C0E8A72
3D35DCC6
BD70D845
BE2C56D6
BE67381D
BDF97247
3E3295EA
BDCF0D84
3E1F06F7
BDAC0831
BD5FA440
3D4C63F1
BE09BA5E
3DB05532
BDB1F8A1
3E172474
BDCD6A16
3E0F9097
BDA19653
BC9AD42C
BC95E9E2
BD84EA4B
3DCD35A8
BDB6AE7D
3D5844D0
BE15B574
3DE94467
3CAA64C3
3E4779A7
BDE04189
BDBA92A3
BD0240B8
3E0D4FDF
3E6EB1C4
BE856D5D
3E52A305
BDDD2F1B
BCD77319
3DAFEC57
3C28C155
BB86594B
3D65C91D
3E4D844D
3CE7D567
BD8F27BB
BE113405
3CFDF3B6
BE788659
3E918FC5
BD4CCCCD
BDECBFB1
BCC2F838
BCB923A3
3DA29C78
BD8DED29
3D19999A
3DDBF488
3E30068E
3D43C9EF
BDF0D845
3C5B8BAC
BBFF9724
3DC1205C
3D2E147B
3D9A6B51
BBB0F27C
BDA2D0E5
BD03126F
3D322D0E
BE3DA512
3B79096C
BE0D6A16
BCD844D0
3D6978D5
3D5E00D2
BD46A7F0
3DC779A7
3CA9930C
3E221965
BD9A36E3
BDB53F7D
3D741F21
BD6147AE
3CE978D5
BD1B3D08
3C3E0DED
BDC39581
BD535A86
3D714120
BD7765FE
3DB4A234
BDED9168
3D5F3B64
BDB22D0E
BE34D6A1
BDAE48E9
3DE00D1B
BD9D7DBF
BDD91687
3DBFB15B
BD813A93
3BA3D70A
3CD013A9
3D35DCC6
BD810625
3E0D4FDF
3E4B7803
BD93A92A
3D63BCD3
BCDAB9F5
3D769446
BDECF41F
BDCA8C15
3E0AC083
BC75C28F
3D53C361
BDF3B646
BE393DD9
3D78A090
3C56A162
BD27EF9E
3DEDC5D6
BDBA5E35
3DD7A787
3D813A93
3E734D6A
3D09A027
3CC985F0
3E895E9E
3DA3A29C
BD9096BC
BCB6AE7D
BC63BCD3
BDF4BC6A
3CB6AE7D
BDB6E2EB
BDBFB15B
B951B717
BDB1C433
BE020C4A
BDA3A29C
BD8E2196
3D844D01
BE3C6A7F
BC83E426
3C06594B
BE02F838
BBBE0DED
3E3212D7
3E2BEDFA
BE1844D0
3E85C91D
BD28C155
BDBB2FEC
3DFA0F91
BBD4FDF4
3E037B4A
3C0B4396
BDA71DE7
3D570A3D
BD123A2A
BE19999A
3D923A2A
3C902DE0
BE894467
BCA9930C
BD3D3C36
3D47E282
3BFF9724
3D4FAACE
3D06C227
BC9FBE77
3CDE00D2
3AAA64C3
BDA29C78
BE4B0F28
3E49D495
3D61B08A
3E21B08A
3CE2EB1C
3CE147AE
3D90624E
3E1EECC0
3DC779A7
BE6F837B
BD257A78
3D9652BD
BE70F27C
BCD844D0
BE6872B0
3C16BB99
3C656042
BDC95183
BE8F7660
BDB98C7E
BDB7E910
3D11D14E
3D96872B
3D58ADAC
3DF79A6B
BDAE48E9
BDC0EBEE
BD9EECC0
BD809D49
3D31C433
3DB089A0
3D74F0D8
3D4ED917
BB656042
BDE9AD43
3E3E76C9
3DB98C7E
BBC154CA
BC7F9724
3B656042
3E4E3BCD
BD36AE7D
BDBA5E35
BDE45A1D
BD456D5D
3D727BB3
3D116873
BCC63F14
BCACD9E8
BA6BEDFA
BD20F909
BE1B3D08
BE07E282
3DD2BD3C
BD81A36E
3D1374BC
BE0A8C15
BDD6A162
BD3367A1
3D8ADABA
3CCE703B
BDB8EF35
BC95182B
3D58ADAC
3C8CE704
3B9A0275
3BB78034
3DA2339C
3DD566CF
BDDC5D64
BD0B4396
3D378034
BD398C7E
BD436113
3D07FCB9
3D5D97F6
3CFDF3B6
BD8CE704
3D769446
BBA71DE7
3C7C5048
BB09A027
3C63BCD3
BD902DE0
3DEC2268
3CCA57A8
3E123A2A
3C42F838
3D86594B
BD851EB8
3D463F14
BD2D42C4
B951B717
3DB3D07D
3D9D14E4
BE67381D
BD2F4F0E
3D1EECC0
3D875F70
BD98FC50
BD6A4A8C
3E2075F7
3D3295EA
BDE5FD8B
3D1C0EBF
3D00346E
3D85F06F
BDD38EF3
3D1EECC0
3DA7BB30
BA83126F
3D47E282
BBCB295F
BD6147AE
3D9E4F76
3CA2339C
BC42F838
BB23D70A
BC0CE704
BCD5CFAB
BDE9AD43
3D94AF4F
3CD35A86
BD978D50
BC6D9168
BD11D14E
3CF41F21
3E142C3D
3DFCED91
BCED9168
3D7487FD
BD97F62B
BD24A8C1
BE12D773
3B9D4952
3DC87FCC
3D1652BD
3DB2617C
BDBAFB7F
BC016F00
3E41205C
BDBAFB7F
3DDD2F1B
3D2E147B
BD8F27BB
BD178D50
BD4BFB16
3D7B7E91
3D0E8A72
3C2A64C3
3D4779A7
BD6ECBFB
3DD288CE
BDA9FBE7
3E1BDA51
3DEDFA44
BE2F6944
3E3C9EED
BDD07C85
BD5FA440
BC22339C
BDFE9100
BDAFEC57
3AAA64C3
3E027525
BD8C7E28
BB102DE0
3D1CE076
BE08E8A7
3DFCED91
3E2B9F56
3D8D1B71
3DAE48E9
BE0C985F
3A51B717
3D9DB22D
3E102DE0
3E135A86
BE091D15
3E4AA64C
BD7AACDA
3D26B50B
3E40EBEE
3CD6A162
3E204189
BDD66CF4
BDCC2F83
3CC710CB
BE089A02
BDAE7D56
BDDFD8AE
3DAE7D56
3D202752
3E114E3C
3E025AEE
3BCB295F
BD3C01A3
BE425AEE
3DE17C1C
BE4D4FDF
BD4B923A
3ADED289
BDCEA4A9
BC59E83E
3E0CE704
BCDAB9F5
3D19999A
3E121FF3
3DA9FBE7
3D55CFAB
BCCF41F2
BD6147AE
3E204189
3CAF4F0E
BE25FD8B
BDF1758E
BC741F21
3CFDF3B6
3D3EDFA4
BD9C432D
3C102DE0
3D4154CA
3D401A37
3E0A8C15
BB9D4952
3E16A162
3E3CD35B
3D48B439
3E2E2EB2
3DF3EAB3
3DAA9931
BD4779A7
BDD9B3D0
BD36AE7D
3E142C3D
3A9D4952
3DFE2824
3D1930BE
3DD8ADAC
3CF837B5
3E06A7F0
BD3CD35B
3DDDCC64
3DB3D07D
BB9D4952
BDBC3611
BD87FCB9
BD52F1AA
BC378034
3E3C5048
BCF9096C
BC9A0275
3DDA511A
BD9BA5E3
3D3E76C9
BDD844D0
BD7EC56D
BDFBE76D
38D1B717
BC6D9168
BAEBEDFA
39D1B717
3CD6A162
3D90624E
BD4BFB16
3DDD97F6
3D6AB368
3D669AD4
3D6425AF
3D855326
BD9758E2
BCBFB15B
3CCE703B
3CEB1C43
3D87FCB9
BDA36E2F
BB378034
3D05F06F
3D841893
BD62EB1C
3D7AACDA
BD6CBFB1
BCE21965
3DCB923A
3CCD9E84
3D02A993
BCB020C5
BDB8EF35
3DB5DCC6
BD762B6B
BDCB295F
BCD6A162
3D3573EB
BE1096BC
BBCE703B
3D9F212D
BD06C227
BD947AE1
3D9D4952
BCA0902E
BC3C6A7F
BD549518
BCD844D0
3CD1B717
3D0793DE
BDBA5E35
BD436113
BC727BB3
BDC36113
BDAB367A
3D7A43FE
3D8F9097
3D8B4396
BC59E83E
3D8CB296
BD96F007
BE1AD42C
BCFD21FF
BD33D07D
3CF9DB23
BE049BA6
BD91D14E
3D34A234
BD0B4396
3DFD566D
3D57DBF5
BD54FDF4
3DC67382
3D449BA6
BD48B439
BDAF1AA0
BD6B1C43
BDB33333
3CFDF3B6
BDE83E42
BD7B7E91
BD8240B8
BD398C7E
3C63BCD3
BD8DED29
BD90624E
3C8CE704
3DC22681
BCC3C9EF
BD99CE07
3D06594B
3D563886
BDE8DB8C
BCD4FDF4
BBBAC711
3B30F27C
3DC50481
BDA5E354
BDA786C2
BD2A64C3
BC102DE0
3D5E00D2
3C30F27C
BDC8B439
3D9B089A
BC257A78
3C91D14E
3DA339C1
BCDD2F1B
BD322D0E
3CEB1C43
3D902DE0
3C449BA6
3CE978D5
3DF8D4FE
BD6631F9
BD4710CB
BD4710CB
3C8C154D
BC15182B
BDC6A7F0
BDCAC083
BD401A37
3D9096BC
3D549518
3CA0902E
BA902DE0
BCCBFB16
3D77CED9
3C07FCB9
3DA02752
3DAC0831
BD7BE76D
3E30D845
3D600D1B
3D3CD35B
3E266666
BE2A161E
BDEF9DB2
BDDC5D64
3D102DE0
3AEBEDFA
BCD5CFAB
3D7AACDA
BD25E354
BCDAB9F5
BC7DF3B6
3E010625
BD769446
BE1F212D
BCE147AE
3DC538EF
BD800000
3E4ADABA
BDC0B780
BD5844D0
3D813A93
BE2FEC57
BD9930BE
3D8DED29
3B102DE0
BDBB2FEC
BC28C155
3D55CFAB
3E25FD8B
BDB22D0E
BCE56042
3CB367A1
BC84B5DD
BD5E00D2
BC902DE0
BD563886
BDB81D7E
BD597F63
3D6DFA44
BDF1758E
BB86594B
BE138EF3
BDDF6FD2
3CE21965
BD5A511A
3DDBC01A
BD2C710D
3DBB98C8
3DDCFAAD
3DDBC01A
3C6BEDFA
3DFD8ADB
BDC01A37
BD3F4880
3E1FBE77
BE0B7803
BD15182B
BE07C84B
BD037B4A
BC102DE0
3E1758E2
BC8C154D
BA9D4952
BD7EC56D
3DFA0F91
BE09D495
BDA1CAC1
BD8DED29
3D0ADABA
BB4B295F
BC51B717
3E3D21FF
3D051EB8
BD4F41F2
BDF765FE
3DE2EB1C
BDD63886
BDBFE5C9
BDECBFB1
BE1BF488
BD1930BE
BDA0C49C
BD944674
3A83126F
3E4D013B
BCE2EB1C
BE1B22D1
BE0710CB
3DE5C91D
BCA57A78
3D16BB99
BE800D1B
3CB0F27C
3DEE6320
3E1E1B09
BC9AD42C
BD0A0903
3CB923A3
BD5CC63F
BC56A162
3D947AE1
3CF41F21
BDB9C0EC
3DE7D567
BC7AACDA
BD61B08A
3E01D7DC
BDAE48E9
BDDE9E1B
BBB0F27C
BB96BB99
3D769446
3E036113
BE1460AA
BE072B02
BE44D014
3D8FC505
3C3923A3
BDF0068E
BB09A027
BD428F5C
BDB78034
BDA1CAC1
BD30F27C
BBFF9724
BE149518
3D656042
BE0D4FDF
3E2F34D7
3DA12D77
BDA40B78
BE202752
BC4985F0
BE06C227
BE219653
3DA57A78
BD827525
3D9FBE77
3D85F06F
3C0CE704
BD0DB8BB
BD8BAC71
3B8CE704
BDBC9EED
3BA71DE7
BDEF34D7
3DB46DC6
3DAFEC57
3E05F06F
3E3EC56D
BD25E354
3DA4DD2F
3DB4D6A1
3DBA92A3
BD02A993
BD7EC56D
BD36AE7D
3D71A9FC
BDE04189
BDD0B0F2
3D95B574
BE0D013B
3DC8E8A7
3D80346E
3DCB923A
BDD8793E
BDA6B50B
BD65C91D
BCF837B5
3DC22681
BE577319
3DEFD220
BDCD013B
3CC710CB
3E09EECC
BE1CE076
BC6A4A8C
3D3D3C36
BD91D14E
BD4D9E84
BCA30553
3D1096BC
3E73D07D
BDDED289
BDE1B08A
BD7BE76D
3E2CF41F
3DC538EF
BE189375
BDCCCCCD
3D45D639
BDAE147B
3D185F07
3D99652C
3E41A36E
3D1F559B
3E086595
BD2B367A
BC83126F
BE2B367A
BE0BFB16
BD456D5D
3E315B57
BD0A71DE
BD6BEDFA
BD0E2196
BC47E282
3C8DB8BB
BC96BB99
BDA4A8C1
3D3EDFA4
3E240B78
3D1C779A
BD4FAACE
3A6BEDFA
3DDE69AD
3E10B0F2
BDB78034
3D09A027
BC28C155
BE06C227
BDFCED91
BDA2D0E5
BE4D9E84
BD4B295F
BDEDFA44
BC656042
BE0DB8BB
BDACA57A
3DD460AA
BE65119D
BC8B4396
BCB295EA
BD961E4F
3D9B089A
3CE2EB1C
3D2E7D56
BBAA64C3
BD29930C
BD9D14E4
3E1A6B51
BD8BAC71
3D883127
3D8A71DE
3E135A86
BE3EAB36
3E3BB2FF
BDE147AE
3E135A86
3DD07C85
BC1D4952
BC2C0831
3DBD07C8
3DEF0069
BDE8DB8C
3E03AFB8
BC91D14E
BD8F27BB
BB8CE704
3E16BB99
BCCCCCCD
BCAC0831
BE393DD9
3E16BB99
3DF8D4FE
3D9758E2
3DEB1C43
BDFD566D
3E322D0E
3D0C7E28
BE353F7D
3DADAB9F
3D61B08A
3C09A027
3DCDD2F2
BD97F62B
3D408312
BD926E98
BDDBC01A
3C8240B8
3D1BA5E3
3C4CCCCD
BB9D4952
BD844D01
BD73B646
BD669AD4
BE1B573F
BD648E8A
BDBF4880
BDA05BC0
BC727BB3
BD916873
3CC49BA6
3E1F06F7
3D883127
3DA5119D
3DF559B4
3DD53261
BD84EA4B
BC9D4952
3E0ADABA
3D4BFB16
BD2A64C3
BDCE075F
BD9CE076
BCAF4F0E
3E3295EA
3E0DD2F2
3D5BF488
BDA786C2
BB449BA6
3E072B02
BD3B2FEC
BDB33333
3E32CA58
3E1FD8AE
3D4779A7
BDB9F55A
3D6425AF
3CFD21FF
BDF4538F
3E1288CE
3DD70A3D
3E27EF9E
BCBEDFA4
BDB4A234
3CDC5D64
3E27BB30
3D436113
3DC432CA
3C23D70A
3D6C56D6
3C3FB15B
3C23D70A
BD844D01
3C621965
3E028F5C
BE1566CF
3CBFB15B
BD2B9F56
BD7F9724
3DF1DE6A
BE694467
3D5BF488
BD8346DC
3C4154CA
BCE631F9
3DA29C78
3C07FCB9
BCBB98C8
BD549518
3D1C779A
BD8346DC
3C816F00
3DD63886
BD8DED29
3E0B923A
BD051EB8
BC985F07
BD96BB99
BD4AC083
BD69E1B1
3B449BA6
BDA6B50B
BD858794
3DA1FF2E
BD2E7D56
3E50FF97
BD75C28F
BD3089A0
3CE3BCD3
3DB71759
3D044D01
BC6D9168
BE1E1B09
BCF5C28F
BD70068E
BDB05532
3B30F27C
BDC50481
BDE83E42
BD978D50
BDFF62B7
BD1E1B09
BE341F21
BD0C7E28
BDAE48E9
3DC36113
BC9A0275
BE0FC505
BDF9096C
BDCCCCCD
3CEB1C43
3DB67A10
BDDAEE63
BC343958
BBFC5048
BDDED289
3D0C154D
3DD53261
3DB923A3
3D4C63F1
3CDB8BAC
BC7C5048
3C535A86
BE2D42C4
BCD9E83E
3C9AD42C
3DE1B08A
BD549518
3DF765FE
3D7D21FF
3C1BA5E3
3DFEF9DB
BDA5119D
3D57DBF5
BD449BA6
BD00346E
BD1A0275
BDE76C8B
BDBAC711
BD229C78
BD0C7E28
3D65C91D
BD25119D
3DE147AE
BD8BAC71
3DBEAB36
BD22339C
3E450481
BDA9FBE7
3D690FF9
3E542C3D
3D8F5C29
BD628241
3E1C0EBF
3E0BFB16
3E09374C
3E0068DC
3A902DE0
BE0A233A
3C9C779A
BD8E5604
3D4E703B
3D4BFB16
BBB78034
BD96F007
3C016F00
BD9D7DBF
3DA88CE7
3D19999A
3E0DB8BB
3D0E8A72
3B16BB99
BCC7E282
BC4CCCCD
3D229C78
3DCE075F
BC95182B
BD741F21
3DED288D
BD96BB99
3D8C154D
3E004EA5
3DA9930C
BE16A162
BE2AB368
BCF27BB3
3D8793DE
BB09A027
BC88CE70
3DFB7E91
BDF06F69
3DD9B3D0
3D68A71E
BDA9C77A
BB5844D0
3DFF9724
BD5844D0
3DFA786C
3D04B5DD
3D8DED29
BD7C5048
3D93404F
3DF9DB23
BD401A37
BD22339C
3D8A3D71
BD507C85
BD9F212D
3AB78034
BD12A305
3D450481
3D5A511A
BDBF7CEE
3CF0068E
BCFAACDA
BDBA5E35
BD628241
3CB9F55A
BD8DED29
3B1D4952
BD7AACDA
3DA40B78
3DA617C2
BD96F007
3DF9DB23
3D3EDFA4
3D4779A7
3DC46738
3D7E5C92
3C51B717
BDE90FF9
BD8F5C29
3CD5CFAB
BDEF6944
BD11D14E
3D9D14E4
BD690FF9
BD6B851F
3C9AD42C
BDAE7D56
BD0CE704
3C7AACDA
BD809D49
BD5AB9F5
BD8240B8
3E051EB8
BC902DE0
3DD73EAB
3D93A92A
3D6C56D6
BD972474
BD61B08A
BB378034
BD408312
3C07FCB9
3D15E9E2
3D83126F
BE0D4FDF
3D172474
BC7F9724
3D3851EC
BDD94AF5
3C2A64C3
BBEF34D7
3E0DD2F2
3D09374C
BDFB7E91
3CEF34D7
BCF0D845
3DC91D15
BD051EB8
3D809D49
3CF4F0D8
BA03126F
BD15182B
3C20902E
BD89D495
BDE703B0
3D116873
3D9B7176
BD8B0F28
3DA6E979
BD84816F
3D507C85
3CF9DB23
3B3E0DED
3E0FC505
3D4154CA
3D03126F
BD4ED917
BDD5CFAB
3CB78034
BDA3D70A
BDB98C7E
3D8E8A72
BD70D845
3D5E00D2
BE0A233A
BD1930BE
BCBC6A7F
BD02A993
BDBBCD36
3D20902E
BE008312
BD058794
3D875F70
BD1652BD
3DED5CFB
3E086595
BE0A71DE
BDC63F14
BD8240B8
3E19652C
3E25119D
3D378034
3B6BEDFA
3C84B5DD
BD3DA512
3D9205BC
BD3367A1
BD15182B
3D9FBE77
BD7A43FE
3CB367A1
BDADE00D
3DE353F8
BCFD21FF
BDAD42C4
3D9EB852
BDE703B0
BD734D6A
BBE8A71E
3D9FF2E5
BDEF34D7
3DA4DD2F
3D868DB9
3D1D4952
3C1D4952
3D563886
BDA40B78
BDEA7EFA
BD29930C
BDBA92A3
3CC985F0
3C35DCC6
3D7212D7
3C89A027
BDEC2268
BDE0AA65
BDCA233A
BDB573EB
BD7D21FF
BD5D2F1B
BE19CE07
BCCB295F
3C20902E
3C656042
3E1D97F6
BD28C155
3DD0B0F2
3BB43958
BE09374C
3DAC710D
BDE3F141
BC8B4396
3D2CD9E8
BD41BDA5
3D123A2A
3C271DE7
BCC56D5D
3C2DAB9F
3DF2E48F
3CC2F838
3E1FF2E5
BCCE703B
BDA36E2F
3D26B50B
3C3923A3
3D23D70A
3D0A71DE
3D36AE7D
3D72E48F
BC4985F0
BBDED289
BE06594B
BCACD9E8
3DFE5C92
3CB367A1
BD9CE076
BB51B717
3DEECBFB
BDC22681
3D0DB8BB
3D29930C
BD3573EB
BA9D4952
BD9E4F76
3D35DCC6
3D484B5E
3C016F00
BD872B02
3DA161E5
3DF559B4
3C2A64C3
BCED9168
3C656042
BD8CB296
3D5D97F6
BE0A3D71
BE1B22D1
3DC5A1CB
3D8B4396
BDD38EF3
BD683E42
3C20902E
3DD0E560
399D4952
BDD9B3D0
3C95E9E2
BB9A0275
3CF5C28F
3DE703B0
BDA3D70A
BD809D49
3D4710CB
3C16BB99
BA902DE0
3CB851EC
BD03E426
BDE809D5
3E18FC50
BBA0902E
BBD1B717
3D762B6B
3E01BDA5
3C51B717
3C9D4952
3DBBCD36
3DA0F909
3D9D4952
BDD97F63
BCE147AE
3D83E426
BDB39C0F
3DE7381D
BC9BA5E3
BD8624DD
3D41BDA5
3D1930BE
BC56A162
3D1374BC
BB9A0275
BCBC6A7F
3DFDF3B6
BCDFA440
3DD73EAB
3D73B646
BD858794
3DC32CA5
3CEE6320
3CFDF3B6
BD5AB9F5
BDE8A71E
3D230553
BD7C5048
BDDBC01A
3DE31F8A
BE0985F0
3CDB8BAC
BD2C0831
3D450481
3DC4D014
3C5D2F1B
3D8A0903
3D8EBEE0
BC5D2F1B
3CD6A162
BC20902E
3D813A93
3D39F55A
3C51B717
3D90624E
3D89A027
BB23D70A
BE24A8C1
3D3DA512
BDE2EB1C
3DA339C1
3D50E560
BDFBB2FF
BDC63F14
3D9CAC08
3D398C7E
BCD77319
3E06DC5D
BDFD566D
BBB0F27C
BC3AC711
BD858794
3C944674
BDAA64C3
BD58ADAC
3DCA8C15
3C16BB99
3D86594B
BCC7E282
3D09A027
3E26B50B
BC56A162
3D656042
BD3089A0
BC54FDF4
BDB15B57
BD0ADABA
3DA64C30
3DDC5D64
BDA8C155
BBF27BB3
3D972474
3E04B5DD
3E230553
BD26B50B
BCA30553
BDA0F909
BE0CB296
BD83126F
3B1D4952
3D8DB8BB
BCAB367A
3DCF0D84
BD5B8BAC
BC271DE7
3D2D42C4
3CC2F838
3D08CE70
BA83126F
BDCBC6A8
3DBB645A
BDF0A3D7
3C2DAB9F
3CC56D5D
3DBEAB36
3D5BF488
3D7DF3B6
3DE48E8A
BD15E9E2
BB83126F
3D2E147B
BE318FC5
3D8346DC
BD8D844D
BE724745
3D7837B5
3E0D1B71
BD2E7D56
BDDD2F1B
3E7A786C
3E305532
3B727BB3
BDF9A6B5
3D8C49BA
3D7837B5
3DF4F0D8
BD04B5DD
3E12F1AA
BDA0C49C
3CA8C155
3C79096C
3CAF4F0E
3BFC5048
3E8353F8
3D68A71E
BBF9096C
BDCEA4A9
BD09374C
BDE594AF
3D889A02
3E3CD35B
3D80346E
BDAD42C4
BE8E2EB2
3E3126E9
3D230553
3D6AB368
BD4CCCCD
BE934D6A
3DF9A6B5
3CCBFB16
BC1EECC0
3CA161E5
BB102DE0
3D4B923A
3A51B717
3D6D288D
BD058794
BE10624E
BE3E0DED
3BBE0DED
BD4B295F
3DDED289
3CBD3C36
BD90FF97
BE52F1AA
3D941206
BDA7EF9E
BCB43958
BE99652C
BD1E1B09
3DB367A1
BD4CCCCD
3D542C3D
3D50E560
3DAD7732
BD1C0EBF
3D89374C
3D46A7F0
3D99999A
3DE83E42
BD9B3D08
3D4B295F
BE365FD9
BE3A5E35
3DD3C361
80000000
BC6BEDFA
BD6E6320
3D3F4880
BD62EB1C
BE3C6A7F
3E496BBA
BD8D844D
BDE76C8B
BD83E426
3E97DBF5
BD6E6320
BDE872B0
3E68C155
3E119CE0
BD9374BC
3E181062
3D8ADABA
3E2161E5
BE3089A0
3D535A86
3D3851EC
BD72E48F
BD1DB22D
BC0B4396
BD813A93
BD837B4A
3D9B7176
BD8DB8BB
3D926E98
BDFE9100
BC5B8BAC
BDF381D8
BD27EF9E
3DBDA512
BE98BAC7
3C978D50
BE887FCC
3E32FEC5
BDB61134
3E15B574
3E475F70
3E52D773
BE0ADABA
BE0BFB16
3D9C432D
3E401A37
3E0EF34D
3DECF41F
BE130BE1
BDF69446
3C8F5C29
3E3AE148
BE27A0F9
BDB95810
BE81D7DC
BCD42C3D
3B5ED289
BE1A8588
BDAC3C9F
3C2DAB9F
3D9A0275
3B30F27C
3D2161E5
BDBFE5C9
3E2C8B44
3E07FCB9
BE7EAB36
BD52F1AA
3D2DAB9F
3D4D9E84
BDB7E910
3DEC56D6
3DB95810
BE09374C
3D841893
BDCB5DCC
3E114E3C
BDC46738
3CD844D0
3DA8240B
BE5D14E4
3D82DE01
BE205BC0
3DBB98C8
3C1374BC
3D21CAC1
3E6353F8
3D8346DC
3B9D4952
BE0793DE
BDC25AEE
BC1EECC0
3D5D2F1B
3D51B717
3CBB98C8
BE2C0831
3E31DE6A
3DD6A162
3CEA4A8C
3CD1B717
BE0CCCCD
3C0E8A72
3DE3BCD3
3E51D14E
BD72E48F
BD58ADAC
3D92A305
3D34A234
BCC710CB
3D53C361
BDA0C49C
3C5D2F1B
BD621965
BE6DC5D6
3C1374BC
3CDB8BAC
3E705532
3D79096C
BEA9A027
BDCEA4A9
3BD4FDF4
3D797247
BD4B295F
3D844D01
3EA08312
BD61B08A
3D9A9FBE
3DB1C433
BD944674
BCE075F7
3DCAF4F1
BBCB295F
3CEF34D7
BE8985F0
BDF34D6A
3D42F838
3C35DCC6
3D549518
3D5288CE
BE83126F
BCBFB15B
3D2ACD9F
BD46A7F0
BE4ED917
3EA594AF
3D8DED29
BD78A090
BD4B295F
3C06594B
3C89A027
3E266666
3DE425AF
BDBC6A7F
BD9B089A
3C75C28F
BE3C5048
3E202752
BE18C7E3
3CCA57A8
BDC28F5C
BD408312
BDD182AA
3DE2EB1C
BD549518
3E420C4A
3E211340
3D463F14
3D6B851F
BCDAB9F5
BD896BBA
3D23D70A
3E0FAACE
3CE56042
3BB78034
3CFD21FF
3C1A0275
3DC08312
BCDE00D2
BE20AA65
BD016F00
BBEF34D7
BD58ADAC
3DD70A3D
BE02A993
3E0C49BA
3D8E5604
BE65C91D
BD99999A
3D158106
BD3645A2
3DB5DCC6
3E64DD2F
BE1D4952
BD12A305
3D1C779A
BD816F00
BDEDFA44
BDD35A86
3D144674
BD64F766
BE23A29C
3E290FF9
BDE83E42
3D54FDF4
BE06A7F0
BD9D7DBF
3E072B02
BDDD97F6
3DF27BB3
BCE8A71E
BD8C49BA
3CDAB9F5
BCB020C5
3E20DED3
3DED9168
BD9A0275
3E4E5604
3D4CCCCD
BC185F07
3DB367A1
BC2DAB9F
BD94AF4F
3E01A36E
BD1930BE
BD65C91D
3D507C85
3DB573EB
BD64F766
BD40EBEE
BD6A4A8C
BDD32618
BE456D5D
BDE69AD4
BE15E9E2
BD507C85
BDEDFA44
3E1F8A09
BD31C433
BD1C779A
3DA617C2
BD292A30
3C88CE70
BDF318FC
3E229C78
BD6631F9
3CEA4A8C
BBE56042
BCBC6A7F
BCE631F9
BC8C154D
3DF69446
3C4985F0
3DC74539
BDF3B646
BDBA92A3
3D4E703B
BD6CBFB1
BDDC91D1
3DB2FEC5
3CA161E5
BE40D1B7
3DAD7732
BDCF0D84
BD82DE01
3D0B4396
BDCB5DCC
3D1652BD
3D81A36E
3DDA511A
B99D4952
3D6BEDFA
3D97F62B
BDE9E1B1
BB83126F
38D1B717
BE3381D8
3D449BA6
BE1D6388
3DA8C155
BD60DED3
BE0AF4F1
BDA29C78
BC8CE704
3C56A162
BDCDD2F2
3CF1A9FC
BDB39C0F
3DD460AA
BDC50481
3C016F00
BC8CE704
3D2D42C4
BE084B5E
3D463F14
BDDA8588
3D450481
3E3404EA
BC88CE70
3DD1EB85
BDA05BC0
3E9844D0
3C741F21
3CE7D567
BD116873
BD59E83E
3C63BCD3
BD09374C
3DE69AD4
BD87C84B
3D8B4396
3D96872B
BE446738
3C858794
BDB2FEC5
39D1B717
BDCD013B
BD9E4F76
3D79DB23
3D13DD98
3D92D773
3E2C8B44
BD463F14
3D7559B4
3DFC84B6
BDEF0069
3DA6809D
3B7F9724
3E43C9EF
3CFD21FF
3E636E2F
BE386C22
3D97F62B
3D3C01A3
BDD32618
BC8E8A72
BE694467
3E8E147B
3CD9E83E
BD07FCB9
3D4154CA
BE41D7DC
BCD42C3D
BE0B7803
3E386C22
BD54FDF4
BD9374BC
3E20DED3
3E1374BC
3DF212D7
3D8EBEE0
BCAA64C3
3DDCFAAD
BD8B4396
3DE0DED3
BD4AC083
3E022681
3C90FF97
BE358E22
3CB0F27C
3DC3C9EF
3D84B5DD
3E5B7176
BD36AE7D
3DD35A86
3A83126F
3CE3BCD3
3E27D567
3E12F1AA
3E9013A9
3E36FD22
3E3645A2
BD86F694
BDA30553
3E0B923A
BE91A9FC
3D58ADAC
BD90CB29
3D09374C
BE1EECC0
3D9652BD
BE2AE7D5
3D683E42
BDC04EA5
BE28C155
3E560419
3E8339C1
3E044D01
BC9C779A
BD9BA5E3
3DF6C8B4
3DF2E48F
BDDFD8AE
3D25E354
BC15182B
3D813A93
BDCAF4F1
3D4154CA
3D401A37
3C04B5DD
BD8F9097
3A51B717
BD714120
BE408312
BD010625
3E460AA6
3D8F9097
3BA0902E
BD3E0DED
BD2786C2
3BADAB9F
3CFF9724
3D985F07
BE0779A7
BE4D844D
3D2D42C4
3D600D1B
3CEA4A8C
BB96BB99
3D315B57
BDA5AEE6
3E0D844D
3DD7A787
3E27A0F9
BE0BFB16
BC0B4396
3E26CF42
BDF93DD9
BB16BB99
3D89A027
3D09374C
BC985F07
3D6B851F
BDC67382
3CF5C28F
BDC6DC5D
BDA6B50B
3D9CE076
BDDDCC64
BCD42C3D
BD4A57A8
3CC985F0
3BC154CA
3E1E9E1B
3D463F14
BDC5A1CB
3BB0F27C
3D371759
3DCBFB16
3CC985F0
BD648E8A
BDE809D5
3DD013A9
3D813A93
3D8068DC
3D9E83E4
BE9182AA
3D88CE70
BDA0902E
3D816F00
3D6B851F
BDCFDF3B
3E1DB22D
BC9D4952
3DB88659
BCF4F0D8
3DD6D5D0
BD491D15
3DD9E83E
3C2C0831
80000000
BBB78034
BD43C9EF
BDD844D0
BE0FAACE
3E3837B5
3D9DE69B
3D9374BC
3DCED917
BD9652BD
BCA57A78
BD4D35A8
3DFCB924
80000000
3D8A0903
3D8240B8
BD1DB22D
3E238866
3CA30553
3D4CCCCD
BC56A162
3E03C9EF
3D14AF4F
BD600D1B
BDA29C78
BDB46DC6
BDFB4A23
BDB923A3
BE248E8A
3C83E426
BB3E0DED
BD1CE076
3D9A9FBE
BCD5CFAB
BD1C779A
3E4E075F
3D016F00
3C656042
BDA7EF9E
BCC8B439
3D9F212D
3E31C433
3DA2339C
3E06DC5D
BE27381D
3C4985F0
3BB0F27C
3D285879
BD398C7E
3DDBF488
BE138EF3
3D656042
BDA8C155
BD93DD98
3CF27BB3
3E409D49
3C83E426
3E39C0EC
3D72E48F
BDE0AA65
3D23D70A
BD67D567
3DC1205C
BE49D495
BD7765FE
BE525461
3C83E426
3D8BAC71
BEA0DED3
BDC9EECC
BDA95E9E
3D17F62B
3D0D4FDF
BD841893
BD2EE632
3E1E1B09
3E0A71DE
BDAD0E56
3DD844D0
3DF5C28F
BE4C154D
3E542C3D
BCC63F14
3DAFB7E9
3DF80347
3E3AC711
BE7487FD
3DF9A6B5
BE49BA5E
3D827525
BE8617C2
BE4D6A16
3E605BC0
BC56A162
3D3089A0
BC816F00
BBFF9724
BC07FCB9
BDDA511A
3DBB98C8
3D40EBEE
BD54FDF4
3E561E4F
3E843FE6
3DD77319
3DA0902E
3CE56042
3DBFE5C9
3E4779A7
3D810625
3CF34D6A
3E23A29C
BB5ED289
3E46F694
BDD63886
BE45A1CB
BE393DD9
BD98FC50
BD6C56D6
BD037B4A
BB9374BC
BD2CD9E8
BE0EA4A9
BD9DE69B
BD009D49
BE05D639
BD3D3C36
3DDBC01A
3E1E1B09
BEACCCCD
3E08B439
BCE978D5
BE4F7660
3E373190
3D7BE76D
3EC66666
BCF34D6A
BDCEA4A9
3D676C8B
BE27381D
BC9FBE77
3DAACD9F
3D2CD9E8
BE45F06F
3D1CE076
3D6147AE
3D449BA6
BDB7E910
3C92A305
3E245A1D
BD55CFAB
BE3E425B
3BA71DE7
BC809D49
BDFBE76D
3E90068E
BDB4D6A1
3B9374BC
3C7AACDA
3E5D97F6
3C8E8A72
BB8CE704
3BC7E282
BE541206
BE20AA65
3E7C01A3
BE2D0E56
3E3D566D
BE450481
3E2425AF
3DD2F1AA
BE051EB8
BEAF41F2
3CFD21FF
3DC2F838
3D1AD42C
BC28C155
3D86594B
3E676C8B
BE0D844D
BE3DBF48
3E5EB852
BDC710CB
BDFDBF48
BE211340
BD90624E
3D6B1C43
BDFD21FF
BD94AF4F
3C47E282
3D456D5D
3E4D9E84
3E202752
BD8E2196
3DAB020C
BE491D15
BDD53261
BDC3FE5D
3C727BB3
BD38BAC7
BDF79A6B
BDDE00D2
3C9930BE
3E028F5C
3D8CB296
3D851EB8
BDA19653
BDBDA512
BDE631F9
BD00346E
3E2C710D
3DB9F55A
BC2C0831
3DA9FBE7
BD32FEC5
3D1374BC
3DB53F7D
3D53C361
3DE04189
BD9D14E4
BC6A4A8C
BCD5CFAB
BD769446
BD3AC711
BDC08312
BDF34D6A
BD3573EB
3D810625
3D4985F0
3CBB98C8
BE06A7F0
BDA1CAC1
3E194AF5
3E266666
3D285879
BE57F62B
3CED9168
3C102DE0
3D78A090
3DFDF3B6
BCA71DE7
3DAF837B
BC185F07
BD7F9724
BE07AE14
BE1B7176
3D4C63F1
3DECF41F
3D38BAC7
BE6C8B44
BD3FB15B
3E2161E5
3D916873
BD6C56D6
3DDAEE63
3CF27BB3
BC4B295F
3DCCCCCD
3DE76C8B
BDFDBF48
BD9F212D
3CA71DE7
3DF41F21
BCFAACDA
BE602752
3D43C9EF
3DEA4A8C
3C4985F0
3D271DE7
BDD8ADAC
BC3E0DED
BD9AD42C
BD714120
3D92D773
3E03126F
BDB88659
3E804EA5
B9D1B717
3D90624E
BBB78034
3E4F7660
3E19652C
3E491D15
3D521FF3
BD87FCB9
BD5AB9F5
BCB43958
3E0F7660
BE113405
BC9D4952
BD9B089A
BD398C7E
3D43C9EF
BC4CCCCD
3DD460AA
BDED9168
3D39F55A
BDEE6320
BD972474
BDE21965
3D6CBFB1
3B902DE0
3D47E282
BE182A99
3D75C28F
BD2D42C4
3D628241
BDFF2E49
BCDB8BAC
BC83E426
BE0C154D
3E32CA58
3D6075F7
3E095183
3E2F9DB2
BB30F27C
3C016F00
3D36AE7D
3D450481
BE0D844D
3A9D4952
BDD119CE
BDEBB98C
3D9EB852
BC656042
BD30F27C
3D86C227
BE0432CA
BD95B574
BDE7A0F9
BCB0F27C
BCC8B439
BDF1A9FC
3D827525
BD827525
BDD60419
3CBEDFA4
3DAD0E56
3DBF1412
3CDC5D64
3DB33333
BD26B50B
BC727BB3
BE3DD97F
BDFA43FE
BD1A6B51
3CE075F7
3DB7B4A2
BD1D4952
BCDFA440
BD27EF9E
BE18ADAC
BC03126F
BDC538EF
BD6C56D6
BB1D4952
BD36AE7D
3DF34D6A
3E01205C
3DE90FF9
BDAEB1C4
3CFAACDA
3E142C3D
3C4154CA
BDB15B57
BC2A64C3
3DA3A29C
BD8CE704
BE1A36E3
BC7AACDA
3CA7EF9E
BC6A4A8C
3D8D4FDF
BC75C28F
BDC1205C
BE009D49
3CA2339C
3DCD35A8
3E1C779A
BD896BBA
3CA7EF9E
3DB46DC6
3DCD35A8
BCC22681
BE144674
3D08CE70
3CFF9724
3E160419
3E1AEE63
3AD1B717
3CE21965
3D972474
3D58ADAC
3E144674
BBA71DE7
3D549518
3DE4F766
BDA02752
3D8E5604
3D3C6A7F
3C7F9724
BD8C49BA
3C3FB15B
BD428F5C
3D844D01
BC6BEDFA
3D851EB8
3CE3BCD3
3951B717
3DC6A7F0
BDC9BA5E
3CD1B717
3D8D844D
BD1AD42C
3DABD3C3
3AEBEDFA
BD5FA440
BE049BA6
BD408312
3B727BB3
3D8C154D
3DA8C155
3D87C84B
BDBE425B
3D5C5D64
BCAA64C3
3D9C779A
BCB0F27C
BD2B367A
BCD4FDF4
BD83126F
3CD288CE
3D35DCC6
3D83AFB8
BCBB98C8
BDE52BD4
BDC6DC5D
3DB5A858
3D85BC02
BC2F4F0E
BC2A64C3
3D41BDA5
BD8BAC71
3DEF9DB2
3C621965
BCE21965
BD628241
BD243FE6
BDE594AF
BE051EB8
BC0E8A72
BD6ECBFB
BDB50B0F
BD202752
3D144674
3D50E560
3C11D14E
BDB74BC7
BC9FBE77
BE3851EC
BD9C0EBF
BD8624DD
BDE5C91D
BB656042
3DAE147B
3CDE00D2
3D669AD4
BD4D9E84
3D436113
BDBE76C9
3C9EECC0
BCE21965
BC816F00
3B656042
BD264C30
3DF9DB23
BCE978D5
BD67D567
BD3C01A3
BD8CB296
BCF1A9FC
3D9F559B
3C727BB3
3D6D9168
BD889A02
BDA8C155
BD90FF97
BC8C154D
BD6F9DB2
3D51B717
BD2E147B
3E016F00
BD398C7E
3C872B02
3D851EB8
BDBBCD36
3DABD3C3
3B5ED289
3CBAC711
BDD8E219
3D2786C2
3C5B8BAC
BC902DE0
BDE24DD3
3D597F63
BC9A0275
3CC710CB
3DD21FF3
BD8CB296
BD398C7E
3DAF837B
3C8C154D
BE009D49
BD243FE6
3D972474
BDF0A3D7
BCB923A3
3D0ADABA
BD4CCCCD
BDB0BE0E
3D0C154D
3AB78034
3D9CE076
BDFEF9DB
BDD2F1AA
3D0C7E28
3DAE147B
BCE56042
BCFEC56D
BC30F27C
BD11D14E
3D48B439
3D8B7803
BE0D9E84
BBEF34D7
BC6703B0
BDD3C361
BD22339C
3B3E0DED
3DA29C78
3D9DB22D
BCAC0831
3DBE425B
BD64F766
BCB78034
3D3020C5
BE2631F9
BDA9930C
3C54FDF4
3CD91687
BDA8C155
BDA0C49C
BC5844D0
BD185F07
BCCD9E84
BD20902E
BDD6A162
3D10FF97
BCF5C28F
BC95E9E2
BE125461
BC016F00
3E67A0F9
BB86594B
BDE38866
BD8240B8
BC9EECC0
3D2C710D
3D74F0D8
BD2D42C4
BCEA4A8C
BE18FC50
BD6353F8
BBFF9724
BCBD3C36
3DC60AA6
BE6E48E9
BDF9DB23
BD9C0EBF
3DCAC083
3B89A027
BCFB7E91
3E087FCC
3CB851EC
BD9C432D
3D706F69
BDCEA4A9
3A83126F
BD944674
BDC32CA5
3D1B3D08
3BE8A71E
3D6F9DB2
BD3367A1
BC59E83E
3DA161E5
3DE8DB8C
BE056D5D
3A1D4952
BDAB020C
BBCB295F
3D9F212D
BE5288CE
3E06F694
BDF3B646
3D08CE70
3D044D01
3D30F27C
3D7BE76D
BDF80347
BE17A787
3DCDD2F2
BCD013A9
BC741F21
BD06594B
3DB22D0E
3DC22681
BC185F07
3DA12D77
BD016F00
3D086595
3DC28F5C
BD17F62B
BE46594B
3D68A71E
BD97C1BE
BA83126F
3DA05BC0
3CCF41F2
3E420C4A
BBE8A71E
BD2EE632
BDB33333
3D8A71DE
BD185F07
3C1D4952
BA51B717
3C09A027
3DEDC5D6
BD621965
BDA64C30
3C9C779A
3E2BD3C3
BD051EB8
3DFAE148
3D7F9724
BDBA92A3
3DC1205C
3DB71759
3D9A6B51
3D98C7E3
3D62EB1C
3BADAB9F
3C16BB99
BD9CAC08
3E266666
3A51B717
BD8A0903
BD855326
BCF0068E
3D741F21
3D6631F9
BB9A0275
BDCEA4A9
BD0E8A72
BD7F2E49
3D972474
3B1D4952
3CE3BCD3
3D837B4A
3DDED289
BDE147AE
3DFD8ADB
3D30F27C
BD8DB8BB
BE532618
BD5E00D2
BE20AA65
3BF5C28F
BE1844D0
BE0B4396
3D116873
BCA57A78
3E836E2F
BD1BA5E3
BE202752
BE5930BE
3C1EECC0
BE8B7803
BE866666
3D3E76C9
3BC7E282
3E80AA65
BD55CFAB
3D53C361
3D051EB8
BE285879
3DACA57A
BD98C7E3
BE4A57A8
3E9CED91
BE1FF2E5
3D8B4396
3E12A305
3D058794
3CDD2F1B
BD9EB852
BDB2CA58
3C3AC711
BD989375
BE73D07D
BDA5E354
BDE3F141
3D8E5604
3E43C9EF
BE2809D5
3E04816F
39D1B717
BDB295EA
BC978D50
BD371759
BD086595
3CCB295F
BDB6AE7D
BD8A3D71
BDCD35A8
BE752546
3E2BEDFA
3BC154CA
BE76AE7D
BD3E76C9
3E25C91D
3D6B851F
BDDCC63F
3D1652BD
3CF765FE
BE149518
3E3089A0
3E5F559B
BD8E5604
BE2ACD9F
3E871DE7
BD8C154D
BDF4BC6A
BDEF6944
BDE17C1C
BDF80347
3CF765FE
BDB573EB
BDEA161E
3D03126F
BE82DE01
3D919CE0
BC944674
BE28DB8C
3E2E7D56
3E046738
BE58C7E3
3DED288D
BE50FF97
3E0E3BCD
3DCB923A
3DF3B646
3DEE2EB2
BDA339C1
3E7CED91
BEA25AEE
3E9DF3B6
BDA0F909
BD4D9E84
BD89374C
BDAACD9F
BE2B020C
BE14FDF4
3D3E76C9
BE77CED9
BDB78034
BE26809D
BD271DE7
BE11D14E
BD98C7E3
BDBEAB36
BE1A1CAC
3C2DAB9F
3DF2E48F
3C23D70A
BDB74BC7
BD9AD42C
3D3573EB
3E8F9DB2
BDE353F8
BD1A0275
BDEECBFB
3D1D4952
BC5013A9
BE1C432D
BE1A8588
3DC08312
BD80D1B7
BD484B5E
3C978D50
BD236E2F
BDE0AA65
3DCD9E84
BD271DE7
BDAB367A
3E36FD22
BD5D97F6
BC5844D0
3C2F4F0E
3DD8793E
BCF4F0D8
BE8D9E84
3CEF34D7
3DBBCD36
3D9BA5E3
BE3E2824
BD3367A1
3C9BA5E3
BD1930BE
BD2D42C4
3E217C1C
BD491D15
BC68A71E
BD9205BC
BD15E9E2
3C8CE704
BCACD9E8
3CA7EF9E
3D236E2F
BDC95183
BE05A1CB
3BF27BB3
BE947AE1
BB83126F
3D809D49
BD1B3D08
BE0C154D
BC2A64C3
3DF24745
BDC49BA6
3E2E147B
BD130BE1
3E2FB7E9
BB5844D0
BCFF9724
BD0A71DE
BE840B78
BDBE0DED
3DDC5D64
BE75DCC6
3C8A71DE
3D690FF9
BCECBFB1
BE5D97F6
BBFC5048
3DA85879
BDC0EBEE
BDF34D6A
BD123A2A
3E1E69AD
3CF41F21
3D102DE0
BE1F6FD2
3E59B3D0
3D3FB15B
BC4985F0
3E181062
3DCF41F2
BE4D9E84
3E23D70A
3E4902DE
3B727BB3
BE3FCB92
3E1FF2E5
BDE45A1D
BD961E4F
3E161E4F
3D7765FE
BD0E8A72
BE046738
3E23BCD3
BE41205C
3D2E147B
3DFC84B6
BE3B4A23
3E02F838
BCA30553
3DEF6944
BDFFCB92
3EB013A9
3E8FF972
3DFC5048
3E2D7732
BD185F07
3CCA57A8
BC535A86
BDB18FC5
3D95B574
3E40EBEE
3D5FA440
3D855326
3E23A29C
3C985F07
3BEF34D7
BDD14E3C
BC0CE704
BC4E703B
BD930BE1
BE6FB7E9
3E1AEE63
BDBD70A4
3D1652BD
3D5D97F6
BDC36113
3D923A2A
BD322D0E
3CDC5D64
BCACD9E8
3D577319
BD4CCCCD
BCA4A8C1
3E63F141
BE27D567
BDA05BC0
3D690FF9
BE41F213
BCBFB15B
BDA9FBE7
BD9F212D
BDA64C30
BE03C9EF
3D4D35A8
BC271DE7
BE4A71DE
3C04B5DD
BDD566CF
BDF06F69
3D762B6B
BDAA9931
BDDBC01A
BDF4F0D8
BDB98C7E
3E397247
3D8C7E28
BE4EA4A9
3DBAC711
3DA7EF9E
BB86594B
BD741F21
BE1F3B64
BD7A43FE
BDAE7D56
3E6C0831
BD6425AF
BD70D845
BDD53261
BD8B7803
3D6147AE
3D5288CE
BDC6A7F0
BDBC6A7F
BC95182B
3CA30553
3D0DB8BB
BD79096C
BDBFE5C9
3DEECBFB
3D21CAC1
3D230553
BE0D6A16
BD9EECC0
BD42F838
BD741F21
3E49A027
BD7B15B5
3B378034
3DB46DC6
BD3A5E35
BE5CFAAD
3D8DED29
BD507C85
BD7487FD
3DCD6A16
BDBFB15B
3D8624DD
3AC49BA6
3D2DAB9F
BDF9096C
3D809D49
3D8F5C29
BD6DFA44
BDCAC083
BD8B7803
3CED9168
3D8A3D71
BDF837B5
BD820C4A
3E61B08A
3DC91D15
BE0D013B
BDAF837B
3E413A93
BD28C155
BDB53F7D
3DA29C78
BD91D14E
3E5EECC0
BC3FB15B
3DDAB9F5
BDCD013B
3BE21965
BA83126F
3C51B717
BDBF1412
BD8068DC
3D2D42C4
3C84B5DD
BD8B4396
3C7765FE
BD9E1B09
3DAC3C9F
BC07FCB9
BDA02752
3DF9096C
3D886595
3DDB8BAC
3DBEDFA4
BD5BF488
3DDFA440
BC343958
BBF5C28F
BD85BC02
3DFB15B5
3D5FA440
BDFC1BDA
BD1DB22D
3DDA8588
3DCDD2F2
BD87C84B
3BC154CA
BCD4FDF4
BDE7A0F9
BC23D70A
3DA161E5
BC95E9E2
3D8AA64C
BD79DB23
BDA47454
BDFD566D
3E0E8A72
BBB0F27C
3E189375
3CDD2F1B
3E0E5604
3B9A0275
BDF7CED9
3D401A37
BCD77319
BC271DE7
3DB22D0E
BDC22681
3CE147AE
BDBFE5C9
BDFB15B5
3C741F21
BD2E7D56
BD919CE0
BBB0F27C
3DCE075F
BDE94467
BDA02752
3D8B4396
BDA19653
3DD77319
3D4985F0
BAAA64C3
3CDB8BAC
3DF5C28F
3D49EECC
3951B717
3D8C154D
BCF27BB3
BDC3FE5D
BDAD7732
BE0FC505
BDD8ADAC
3DC25AEE
BDAB367A
BA51B717
BE12F1AA
BD89374C
BD3B98C8
BDFA0F91
BE0ADABA
3DD6D5D0
BDF6FD22
3E004EA5
3DAC0831
3DDD97F6
BDDB573F
3D93DD98
3BC49BA6
BD422681
BDCCCCCD
3D0E2196
3CDE00D2
BD285879
BCBB98C8
3CD1B717
3C3295EA
3C8240B8
3D19999A
3C5ED289
3DAF1AA0
3DB0F27C
3BCE703B
3C3E0DED
3DB923A3
BDAF4F0E
BD54FDF4
3D80346E
BD236E2F
3D6BEDFA
BDB8EF35
3DAEE632
3AC49BA6
BC816F00
BE06A7F0
3D0BAC71
BD8BE0DF
3D03E426
3D58ADAC
BCE075F7
3D7C5048
3DD6D5D0
BE361134
3BDED289
3C8240B8
BD54FDF4
BD6147AE
3D868DB9
3D92A305
BDBE0DED
3D130BE1
3DD288CE
3DC0B780
BD7B7E91
BD4B295F
BD868DB9
BD185F07
3DB22D0E
3CC2F838
3D28C155
BD3D3C36
BD19999A
BD051EB8
BD3020C5
BCEA4A8C
BDDE353F
BE1FD8AE
BDD63886
3D8624DD
3C902DE0
BD2F4F0E
BDF0D845
BCC2F838
3DAD0E56
BDBB98C8
BE2147AE
3D621965
3C1374BC
3C449BA6
BCC63F14
BE13C361
3D978D50
BDDB8BAC
3CB1C433
BD0A0903
BDDBF488
3D48B439
BC83E426
3B378034
3E170A3D
BDF0068E
BDACA57A
BCDED289
3C20902E
BCDE00D2
BDE8A71E
BD5013A9
BE160419
3C83126F
3D7DF3B6
BC0B4396
BDCE075F
BD1A0275
BD8A0903
BD60DED3
BDB573EB
3CD91687
3D79DB23
BD010625
BDA40B78
3D868DB9
BD9D4952
3D7559B4
3DAC3C9F
BD3EDFA4
BD56A162
BD2D42C4
BCF837B5
3D1C779A
BD4B923A
3DBD07C8
BC343958
BD1B3D08
3DBF7CEE
3DDBC01A
3C1BA5E3
BD61B08A
BDAEB1C4
3C1A0275
BD65C91D
BDBAC711
BD6ECBFB
3D20902E
BDBCD35B
BDC67382
3C4E703B
3D83E426
BD55CFAB
BDBB98C8
3D851EB8
BC621965
3DA64C30
3D3A5E35
3CD35A86
BC271DE7
BDDF3B64
3DA57A78
3DD66CF4
3D264C30
BCDE00D2
BE3CD35B
3DADE00D
BD81A36E
3DAF4F0E
3D07FCB9
3DF0068E
3D858794
3D84EA4B
BD1F559B
BD6147AE
3DD53261
BA03126F
3C92A305
BC2C0831
3D6CBFB1
3D3645A2
BD82DE01
BD5E00D2
3CE48E8A
3D816F00
3DEA161E
3E460AA6
3D1B3D08
BC0E8A72
BDBA5E35
3E01D7DC
BA83126F
BE141206
3D99652C
BD7E5C92
3D7A43FE
BD4154CA
3DF93DD9
3D6075F7
BD20F909
3E219653
BC8DB8BB
BD130BE1
3D52F1AA
BD889A02
BD10FF97
BB6BEDFA
3E104817
BD25119D
BD130BE1
3C535A86
BDA19653
3E1C5D64
BD35DCC6
BD7F9724
BDEF6944
BD144674
3DB1C433
BD401A37
BD858794
3CFC5048
BDCAC083
3E322D0E
BCD35A86
3DB46DC6
BDA5460B
BE067382
BDBCD35B
BE126E98
BDA339C1
BD009D49
3DA0F909
3E13C361
3A9D4952
3D913405
3D8EBEE0
BCADAB9F
3CC49BA6
3BD1B717
3B4B295F
3BDB8BAC
BE219653
BDCE703B
3C7C5048
3DBB645A
3DDE353F
BAAA64C3
BBBE0DED
BDF3B646
BD69E1B1
3BBE0DED
3C9EECC0
3C20902E
3C6075F7
3DBFE5C9
3DA12D77
BE1B089A
BC8CE704
BD0B4396
BDFCED91
3D9D4952
BD285879
BD73B646
BD591687
3BE8A71E
BD656042
3E1BA5E3
BD450481
BC86594B
BBD844D0
BDDC5D64
3D70068E
BCBFB15B
3CD4FDF4
3E19B3D0
BD185F07
BE114E3C
BD88CE70
BD2B367A
BCE147AE
3D202752
BE236E2F
3D408312
3D43C9EF
3D570A3D
3E0B7803
3D71A9FC
3E5AEE63
BE02A993
3DC8B439
3D2786C2
3D7A43FE
3DE94467
3B09A027
BD896BBA
3D7F9724
BE068DB9
BDCE703B
BD6E6320
BE519CE0
3D41BDA5
3E1CFAAD
BE149518
3CC49BA6
3C59E83E
3DF0068E
BDD844D0
3D229C78
BD9F8A09
3D23D70A
3E1B22D1
3E2594AF
BDE7A0F9
BE7A43FE
BE327BB3
BD930BE1
BE2D9168
BE38BAC7
3DF1758E
BD102DE0
BD1096BC
BDC538EF
BDAC710D
3D02A993
3C8E8A72
3DB61134
3D3295EA
3E2D0E56
3CF0D845
3E9D4952
3D3E76C9
3D292A30
BDBE76C9
BE486595
BD97C1BE
BE2DE00D
3D82DE01
BCEBEDFA
BE2D0E56
BE7020C5
BDB4A234
3DB295EA
3E450481
BDC0EBEE
3D378034
3D827525
BE45D639
3E933333
BE205BC0
3D982A99
BE7E76C9
BCA0902E
BCB50B0F
BE3A43FE
BD8C154D
BD123A2A
3E1E00D2
BD3B2FEC
BE4ADABA
BE804EA5
3D3FB15B
3E0CCCCD
3D09374C
BE0E075F
3D24A8C1
BD9D14E4
3DB0F27C
BD6B1C43
BE87EF9E
3D428F5C
3DF765FE
BE2BB98C
BE54AF4F
BE85A1CB
3DED9168
BD9EECC0
BC5B8BAC
3D84EA4B
BD1374BC
BE158106
BE046738
3D797247
BE800000
BD6F9DB2
BE3DA512
3D87FCB9
3E70A3D7
3DE9E1B1
3D123A2A
3D9096BC
BCA7EF9E
3E3C6A7F
3E7EAB36
BE5CC63F
BDCD35A8
3E32FEC5
BE4A8C15
BDC2C3CA
3B656042
3DF1A9FC
3E25119D
BE3DBF48
BD6F34D7
BE0CE704
BE27A0F9
3E37E910
BE15182B
3DAB9F56
BD5844D0
3E0A8C15
BD94E3BD
3E8AF4F1
3E902DE0
3DFCB924
BE3C6A7F
BE0C2F83
3E378034
3D02A993
3DFD8ADB
3E5BF488
BE2B851F
BE10B0F2
BCEF34D7
3E5566CF
BC944674
BE68C155
BB102DE0
3E5FF2E5
3B96BB99
BE3A29C7
3D3CD35B
3D53C361
BDBDD97F
3E4ADABA
BCB5DCC6
BCC08312
BDD42C3D
3E2AB368
BE314120
BD5E00D2
BD90624E
3D542C3D
3DE7A0F9
BDA8F5C3
3D549518
BDAC0831
BD398C7E
BE3D70A4
3E495183
BE6786C2
3BE56042
BDC84B5E
3D8FF972
3E1930BE
BCB50B0F
BD621965
3D3367A1
3C06594B
BDDBF488
BB2A64C3
3C816F00
BE05BC02
BD597F63
3C9BA5E3
3E6A64C3
BDF6C8B4
3E54FDF4
BE934D6A
3CE21965
BDBEDFA4
BD5FA440
BC63BCD3
3CE147AE
3DC985F0
3DC6A7F0
3E2339C1
BE422681
3D9E1B09
BB96BB99
BD378034
3BFF9724
BE000000
BDC6DC5D
BD1C779A
BD7837B5
BCA9930C
BC5844D0
BD84816F
3E05BC02
3DB22D0E
BE3CB924
BD844D01
3D8C49BA
BC09A027
BDA9930C
3D941206
BE0E075F
BE252BD4
3E096BBA
3CC56D5D
BE451EB8
BE3D07C8
3E35A858
3DEC2268
3B8CE704
BE600D1B
BD947AE1
3C54FDF4
BD8D1B71
BE0F7660
3DDA8588
3C95E9E2
BE236E2F
3D315B57
BC4CCCCD
BE1E4F76
3D97C1BE
3DDB22D1
BE657A78
3DB50B0F
3D0F5C29
3E38EF35
3C1EECC0
3E671DE7
3E126E98
BE2C710D
3E647454
BDB33333
3E067382
BDB53F7D
BD26B50B
BE451EB8
BE27BB30
BDC816F0
BDE872B0
BDCD013B
3E4BE0DF
3DD81062
3D05F06F
BDAFB7E9
BDB851EC
BCB43958
BD230553
3DBDD97F
BDD1B717
3DA47454
BDD9E83E
BE177319
3DF27BB3
BD9A6B51
3C22339C
3B2A64C3
BDD25461
3CF9DB23
3DBFB15B
BC271DE7
3C5ED289
BD8B7803
BDB4D6A1
3E028F5C
BD8D844D
BD80346E
3BAA64C3
3DEECBFB
3DF212D7
3C96BB99
BC6D9168
3D8902DE
3D51B717
BDA1FF2E
3D89A027
BCECBFB1
BC22339C
3DDC91D1
BDC1205C
3C016F00
3D41BDA5
BDEAE7D5
3E4A8C15
3D9FBE77
3DB089A0
BDC5A1CB
BE0E3BCD
3CC7E282
3E230553
BD2C0831
3E06A7F0
BD97F62B
BDB71759
3C271DE7
3DE631F9
3E32CA58
3DA6E979
BD8B7803
3E06DC5D
3E256042
BDA2D0E5
3D4B295F
BE1930BE
BE334D6A
BD6D288D
BD7D21FF
BDD53261
BE1D97F6
BE5D14E4
BE245A1D
BD450481
BCBFB15B
3E53404F
3E3C9EED
BD535A86
BD67D567
BD83AFB8
3DC28F5C
BC1EECC0
BDB0F27C
3DA0F909
BD13DD98
3DFAACDA
BD116873
BDB05532
BE0816F0
3E5FF2E5
BC8A71DE
BC5844D0
3D5AB9F5
BD94E3BD
BC0E8A72
3D53C361
BE4B0F28
3D43C9EF
BE0432CA
3D116873
3E1288CE
BD800000
BE324745
3E0B0F28
3E083127
3E01F213
3DBEDFA4
BDDE00D2
3D322D0E
3DAB6AE8
3D6F9DB2
BDB851EC
BD7B7E91
3DF24745
BDFBB2FF
3D36AE7D
BCDB8BAC
3D94E3BD
3D016F00
BE2B020C
BE675254
BDC1BDA5
3E09BA5E
BDE3F141
BE113405
3CE7D567
3E5096BC
BD95182B
BDE5C91D
BCE703B0
3CDD2F1B
3D1EECC0
3C15182B
3DB8EF35
BBD844D0
3D3089A0
3E3367A1
BD09374C
3D84EA4B
BCB43958
BD6BEDFA
BB96BB99
BA6BEDFA
BD2EE632
BE089A02
3D4BFB16
3E0D9E84
3D4154CA
3D1AD42C
3DF9DB23
BE0C63F1
BDF41F21
BD70068E
BE018937
3DC0EBEE
3E2339C1
3E0154CA
BCE703B0
3E13F7CF
3D3020C5
BD6AB368
3DCB5DCC
3D5CC63F
BDF6FD22
BDA5119D
BDFF62B7
BD2F4F0E
3D9C0EBF
3CB9F55A
3E06594B
3D07FCB9
BE2ACD9F
BE02A993
3DA2680A
BC9D4952
BD05F06F
BD70D845
3CFF9724
BB09A027
BDB2617C
3D343958
BE61E4F7
3DC67382
BE369446
BDD3C361
BD1E83E4
3D1A6B51
3DA0C49C
3DB2FEC5
3DB2617C
3D84816F
BE036113
BB9374BC
BCD5CFAB
3C621965
BDEBEDFA
3DA2680A
BDA12D77
BE3381D8
BDBBCD36
3CAF4F0E
3CEBEDFA
BDC8E8A7
3D55CFAB
3D8C49BA
BDB5A858
BE141206
3D9374BC
3E1BA5E3
3E037B4A
3DE56042
BDF1A9FC
BD7559B4
BDA5E354
3D20902E
3C378034
3DD7DBF5
BC185F07
BDD53261
BD61B08A
3D0F5C29
BDE90FF9
3D79096C
BE130BE1
3BA71DE7
3C9374BC
3C35DCC6
BDBD70A4
3D8F9097
3DD4C986
BD7F9724
3CACD9E8
BDB7B4A2
BDDF06F7
BD5AB9F5
BD456D5D
3E3318FC
BE0F27BB
3DFB4A23
BD886595
3CA57A78
BC2A64C3
BE0EF34D
3DDBC01A
3C47E282
BDD73EAB
BB6BEDFA
3D5844D0
3DC985F0
BD628241
3BB0F27C
BCFAACDA
BD944674
3D8DED29
3E08E8A7
BE0432CA
3D5D97F6
3DF52546
3D6425AF
BBAA64C3
BD1A0275
3C6D9168
3D0F5C29
3DB4A234
3D9A6B51
3DFD8ADB
3D11D14E
BDF5C28F
BDA29C78
3C83126F
BCD844D0
3CD013A9
BCB6AE7D
BD8A3D71
3DA57A78
3E3F1412
BE1566CF
3DB22D0E
3B9D4952
3D683E42
3D10FF97
BD99652C
BD8A71DE
3D8D844D
BE0F0D84
3CA7EF9E
BD2F4F0E
3C9C779A
3C9C779A
3D800000
3DCE703B
BC902DE0
BD53C361
BBDB8BAC
3D656042
BE142C3D
3DB020C5
BAD1B717
BC8DB8BB
3D436113
BD8D844D
3E1A8588
BD56A162
3D1652BD
BBF27BB3
BC6A4A8C
BDC87FCC
BD954C98
BCE8A71E
3DA5119D
BC84B5DD
3D264C30
BC47E282
3DD4C986
BCD288CE
BD257A78
3D378034
BC51B717
3DDBF488
BDB71759
BD7559B4
3D3EDFA4
BDA3A29C
3C6D9168
3D5FA440
BCC985F0
3AC49BA6
BDCD013B
BD972474
3CC3C9EF
BD7B7E91
BC56A162
BD6A4A8C
BC4CCCCD
3D0C7E28
BE0AA64C
3D507C85
3D14AF4F
3C185F07
3AEBEDFA
BCA4A8C1
3D450481
3E10B0F2
3DAE147B
BDFCB924
BCC710CB
3D727BB3
BE0BFB16
BD683E42
BC816F00
3D8DB8BB
3D8ADABA
BCF837B5
3E32E48F
BD2EE632
3D4AC083
BC09A027
3C8A71DE
BDB43958
BD1C0EBF
BD68A71E
3DDBC01A
3DBAFB7F
3DF1758E
BDDED289
BE0432CA
BCB6AE7D
BC90FF97
3D9C432D
3ADED289
BD7D21FF
3E275254
3D4B923A
BDD6D5D0
BE4C7E28
3DE353F8
3E16BB99
BCBFB15B
3E585F07
3CA161E5
BCF41F21
3E324745
3C656042
3D34A234
BD5844D0
3D03E426
BDC49BA6
3C656042
3D7765FE
BC9A0275
BDC3C9EF
3DC01A37
BCFD21FF
BE16BB99
BE16872B
BDB5DCC6
3B9A0275
BE0BC6A8
3B4B295F
3C88CE70
BDD81062
3D4BFB16
3D7837B5
3D058794
3B727BB3
BD456D5D
3E05A1CB
3DBBCD36
3DF97247
3C92A305
3E1C779A
3E126E98
BDDE00D2
3DEFD220
BE004EA5
3CA161E5
BE0154CA
3DB61134
BDF765FE
BD07FCB9
3D96872B
3DE075F7
3D13DD98
3D6D9168
3DE147AE
3E161E4F
3E0A233A
BD172474
3CB923A3
BDBCD35B
3DDC28F6
BDA9930C
3E51D14E
BCD0E560
3C809D49
3D09A027
BE0346DC
3E0EA4A9
3D60DED3
BD81A36E
3D941206
BDCA57A8
BDCD9E84
BA83126F
3C944674
BC378034
3DA30553
3D46A7F0
3DFBE76D
BD5566CF
BD436113
3DC7E282
3CF765FE
BE28A71E
BB1D4952
BDCF0D84
3E1A6B51
3E530BE1
BDA8240B
BE149518
3B378034
3D8C154D
BDC7E282
3D0B4396
3DB6AE7D
3CA2339C
BCE8A71E
3D5566CF
3C95182B
BE22339C
3BFF9724
3DA85879
BDD2F1AA
3DDB573F
BE0B0F28
BDB5DCC6
3DFA0F91
3E86809D
BDB9F55A
3C858794
3D29930C
3B51B717
3D87C84B
3DD7A787
3DA29C78
3D2FB7E9
3C0E8A72
3DACA57A
3DA30553
BDDA1CAC
BE119CE0
3D628241
BD727BB3
3D9D7DBF
3D5ED289
3D76FD22
3DF5F6FD
3DA5AEE6
BCFB7E91
3DCA8C15
3DCDD2F2
3C535A86
BC3295EA
BD77CED9
3DCF41F2
BD800000
3D87C84B
3DA40B78
BD8902DE
3D97F62B
BC68A71E
BD81D7DC
3B102DE0
3E01F213
BD47E282
BDEC8B44
BD1374BC
3CDC5D64
3CAA64C3
3C6703B0
BC1D4952
3DAB367A
3CB295EA
BCAF4F0E
3CD4FDF4
BD95E9E2
BC8CE704
BD1652BD
BBBAC711
BDCA233A
3CBEDFA4
BD9DE69B
3DB1F8A1
BBC49BA6
3E116873
3DDD97F6
BD5FA440
BDC91D15
3D51B717
3D23D70A
3D3A5E35
3BC49BA6
BC15182B
3DFE5C92
BE2353F8
3DAD42C4
BD2E7D56
3DB020C5
3D9A0275
BCDAB9F5
BDB15B57
3DD460AA
BC63BCD3
BCC3C9EF
3DED5CFB
3D8A3D71
BBA0902E
3E211340
3DA2D0E5
3B09A027
BCA71DE7
3E03C9EF
BD9A9FBE
BCA9930C
3E086595
BC271DE7
3D8902DE
BDDCFAAD
3C8A71DE
BD09374C
BD123A2A
3C8CE704
3DFBB2FF
BCEB1C43
3DE872B0
3BB43958
BCB50B0F
BD2B367A
3CF41F21
B951B717
BDB61134
BE074539
3BD844D0
BCF765FE
3D86594B
3DB53F7D
3D463F14
BD5AB9F5
BDF34D6A
BDD7DBF5
3CC710CB
3D8CB296
3D1F559B
BE1F3B64
BD99652C
3D42F838
BD8B7803
3D4710CB
3DC04EA5
3DE00D1B
3DFAE148
BE19B3D0
BDEAB368
3E532618
3D5AB9F5
3DF4538F
BD17F62B
BE3BB2FF
BBADAB9F
BDD25461
3DC28F5C
3D54FDF4
BE1A8588
3E38BAC7
3DC5A1CB
BE9212D7
3C858794
3D99652C
BD837B4A
3E178D50
BCD42C3D
3D7A43FE
3E398C7E
BE0BFB16
3E4F27BB
BE5A6B51
BDDE69AD
BD52F1AA
3E0FF972
BDB88659
3DDAB9F5
3E2A3055
BE7AE148
3E2B020C
3951B717
3DB61134
BDC74539
3DA88CE7
3CFB7E91
3E1A0275
3D86594B
3DE28241
3D4CCCCD
3D70068E
3CA71DE7
BE50CB29
BE89374C
3DA5460B
BBFC5048
3E18793E
BE05F06F
3E0E8A72
BDE11340
3D144674
BDEF9DB2
BE0CE704
3CA71DE7
BE75A858
BD09A027
BDD9B3D0
3DAE7D56
3D11D14E
3E3BE76D
BE9DE69B
3DE3BCD3
BDAB9F56
BCFB7E91
3DC432CA
BD8D4FDF
3DF58E22
BA9D4952
3E30A3D7
BD8ADABA
3C07FCB9
BE2CD9E8
3DCBC6A8
BCE147AE
3D116873
3D71A9FC
3D84EA4B
BE89BA5E
BD9C779A
BDFAE148
BC47E282
3E3B645A
BE1C91D1
3CE978D5
BD55CFAB
BE02A993
BD086595
3D07FCB9
3D70D845
BDB43958
3DFF9724
BDE2B6AE
BDBF1412
BDB33333
3D6631F9
3DD3F7CF
3E2C2268
BDEC2268
3E158106
BCFEC56D
3DFDF3B6
3DC432CA
BE6425AF
BD886595
3DC5D639
BD3E0DED
3CC2F838
BC257A78
3E0E703B
3C2DAB9F
3C271DE7
3DC1205C
3DB0F27C
BE15CFAB
BDBD3C36
BE2ECBFB
3D82A993
BE4F7660
3C9930BE
3D350B0F
BE2C2268
3CCD9E84
BBF27BB3
BBB43958
BBCE703B
BCB923A3
3DDC5D64
BE11EB85
B951B717
3DE31F8A
BCB923A3
3DB2617C
3D428F5C
3BC7E282
3CFEC56D
BD0A71DE
3E238866
BAEBEDFA
3D371759
BD0CE704
BD1374BC
BE0538EF
BD4CCCCD
3DD2F1AA
BDBCD35B
3C902DE0
3D7CB924
BD6D288D
3DCC63F1
3DB78034
3DB851EC
BC1EECC0
BD130BE1
3D87FCB9
BDBAFB7F
3E00346E
3DC6DC5D
BD3C01A3
3DB46DC6
BCAA64C3
3D0F5C29
3C8B4396
3D37E910
3DB71759
BDA95E9E
3D4710CB
BB16BB99
BCCE703B
BE126E98
3C185F07
BDD04817
BD1A0275
BD2ACD9F
BD2C0831
BBD844D0
3E01A36E
BDBEAB36
3C9AD42C
BC809D49
BCCCCCCD
3D34A234
BDB404EA
3C4E703B
3DF03AFB
3E050481
BD93DD98
BC8A71DE
BC7765FE
3D3C6A7F
BD6E6320
3DB8BAC7
3DB089A0
3DBEAB36
BAF9096C
BD408312
3D6D288D
BB5ED289
BB30F27C
BD8C7E28
3D4A57A8
BC68A71E
BD3E0DED
3E1A0275
3DD81062
3DC5D639
3DD5CFAB
3E041893
BDB851EC
BD9E4F76
BD202752
BDB923A3
BE028F5C
3C102DE0
BBD4FDF4
BE0902DE
3CD013A9
3DDED289
3D8F27BB
3D04B5DD
3D229C78
3C3AC711
3DFBB2FF
3CD77319
BD9EECC0
3C2F4F0E
BCFD21FF
BDBF1412
BC84B5DD
BD70068E
3DDB8BAC
3BD4FDF4
38D1B717
BDF1DE6A
BE460AA6
BE3E2824
3D8CE704
3D7D21FF
3BFF9724
3D185F07
3E0D4FDF
BE2703B0
BE095183
BD86C227
3D827525
3DCC63F1
3CB367A1
3D9D4952
BE0C49BA
BDB6E2EB
BCBAC711
BE0E5604
BD1C0EBF
3DF58E22
3D06C227
BE1B22D1
BC3AC711
3D8C49BA
BD1A6B51
3DCB5DCC
BE4A0903
3D3F4880
BE3E0DED
BD8A71DE
3DFF62B7
3B9374BC
BE1ED289
3DDC5D64
BE075F70
3D9DE69B
3E1C779A
3D841893
BD6978D5
BD3EDFA4
3C858794
BE1930BE
3E1013A9
BBD1B717
BE28F5C3
3CC63F14
BDE24DD3
BE256042
3DBC3611
3D2CD9E8
3E7CD35B
BE0CE704
3D18C7E3
BE0C63F1
BD690FF9
BE496BBA
3D7B15B5
BDD8793E
BB6BEDFA
3E72FEC5
BDFCED91
3E874539
3D851EB8
BDE11340
3D90FF97
3D7AACDA
3C06594B
3DC04EA5
BE547AE1
3D883127
3E004EA5
BDA47454
BCBE0DED
BD449BA6
BDD182AA
3DCA8C15
BDB50B0F
BD8A0903
3E5C91D1
3DA05BC0
3D9FF2E5
BD230553
BDBB645A
3D886595
3E458794
BD8DB8BB
3E8B6AE8
3E2075F7
BE2A7EFA
3E3837B5
BD456D5D
3DE0DED3
3E3837B5
3E0154CA
3CDAB9F5
3D10FF97
BC9C779A
BD727BB3
BD2F4F0E
3CFF9724
3DC2F838
BDE5FD8B
BD8E5604
BE06A7F0
3DB78034
BE5EB852
3D734D6A
3DC91D15
3E44816F
3DBEAB36
3E12A305
BD6075F7
3E0C7E28
BE173EAB
BD4FAACE
BDBF1412
3C621965
BDAD0E56
BD1EECC0
3D15182B
3B727BB3
BD4779A7
BD57DBF5
BD9E4F76
3DE9E1B1
3CAB367A
BDA47454
3DDB8BAC
3DD8ADAC
BC741F21
BC6A4A8C
3D58ADAC
3D81D7DC
3C15182B
3D94E3BD
3D24A8C1
BDAF4F0E
BD8DED29
BD87C84B
BD926E98
BDA29C78
BD92A305
BD315B57
BD13DD98
3D8A0903
3DBB645A
BD6F34D7
3D28C155
3C09A027
BD521FF3
3C8B4396
3D15E9E2
BD73B646
B8D1B717
BDA2339C
3CF0D845
BD741F21
BCB295EA
BDC538EF
3D816F00
BD9DB22D
BC727BB3
BCE48E8A
3CE21965
BDCE3BCD
3C9A0275
3D9AD42C
BD8E5604
3DBFE5C9
3CA2339C
BDD63886
B9D1B717
BD8E8A72
3D43C9EF
3D8DB8BB
BCA57A78
3DC8E8A7
BD33D07D
3DA71DE7
3C0CE704
3BF9096C
BCD9E83E
BCFD21FF
3DA05BC0
BCC2F838
BCDAB9F5
3D202752
3D0E8A72
BD130BE1
3AB78034
3BF27BB3
BCC154CA
BD99999A
BCB851EC
BD50E560
3D84EA4B
BDA2D0E5
3D1374BC
BD6E6320
3BF27BB3
BCE075F7
BD883127
3DFB15B5
3DB81D7E
3D4D35A8
3D3020C5
3D1E1B09
3DD013A9
BDDB22D1
BDD70A3D
BD36AE7D
3DA6809D
3D3DA512
3ADED289
BD889A02
BDA3D70A
3CB0F27C
3DB22D0E
BBB0F27C
BDC3C9EF
BD727BB3
BC9D4952
BB2A64C3
BE21E4F7
BD5566CF
BCD42C3D
BDE6CF42
3D82A993
BC8F5C29
3D86594B
3DC63F14
3DD97F63
BC8E8A72
BD919CE0
3D00346E
3CE2EB1C
3D74F0D8
3DBEAB36
BBD4FDF4
BD797247
BC89A027
3DADAB9F
3D9C779A
BDD94AF5
BD5D97F6
BD56A162
3C28C155
3D75C28F
3CCE703B
3D1F559B
BCBFB15B
BD35DCC6
3D97F62B
BD3E76C9
3D591687
3D84816F
BD9C0EBF
BCBE0DED
3D1E83E4
3C1EECC0
BD94AF4F
3DB88659
BB96BB99
BDF8D4FE
BDD32618
3D0CE704
3E2C3C9F
BD514E3C
3D2FB7E9
3C95E9E2
BE004EA5
BD8A0903
BC83E426
BE07E282
BCD0E560
BD3573EB
BC28C155
38D1B717
3BEBEDFA
3E1A6B51
BDBC6A7F
3DD60419
BBB43958
3D7D8ADB
3E0793DE
BD7EC56D
BDD7DBF5
3D371759
3D271DE7
BD3E76C9
3C6A4A8C
BD9096BC
3D8BAC71
3DE3BCD3
BE116873
3DF2B021
BDE31F8A
3CF765FE
BDE0DED3
BDD97F63
3BB43958
BE03AFB8
3DCA57A8
3D5566CF
3B89A027
BC22339C
BC9374BC
BDAD42C4
3D92D773
3D1DB22D
BDC28F5C
3DA9C77A
BE1C0EBF
3BDED289
BCD42C3D
3D87FCB9
BE0ED917
3DC46738
BD978D50
3DAEE632
3C47E282
BD98FC50
BCE147AE
3BCE703B
BCD1B717
3D54FDF4
BD3B2FEC
3D257A78
3D086595
BCF4F0D8
3CF0D845
BE2B50B1
BE14E3BD
3D1652BD
3CC985F0
3CA8C155
BE18C7E3
3CF9096C
BDEB851F
BCE3BCD3
3D4AC083
BE032CA5
3C04B5DD
3E03FE5D
3B09A027
3D7B15B5
BD03E426
3CD91687
BD38BAC7
BE0154CA
3D456D5D
BD5B8BAC
3BD1B717
3DF06F69
3CAB367A
3DA64C30
3CA64C30
3E2DE00D
3E2631F9
3D5ED289
BE1C0EBF
BE25460B
BDB95810
3DBD70A4
3D8C154D
3DB88659
3DD6A162
BDBD3C36
3B102DE0
BD7CB924
BD7F9724
3CAC0831
BDE872B0
3D8EF34D
BDCE075F
BD2161E5
3D5288CE
BD7765FE
BD809D49
3D926E98
3D985F07
3D8B0F28
B99D4952
BE0816F0
BE06DC5D
BC7F9724
3D6ECBFB
3DA02752
3E0C985F
BD70068E
BD9D14E4
3B96BB99
BE04B5DD
3D81D7DC
BE0816F0
3DA6809D
3DDB573F
3D7B15B5
BA378034
3C54FDF4
3C15182B
BBFF9724
3DDA8588
BDA88CE7
BCE3BCD3
BD7B7E91
3DCFDF3B
BCCA57A8
BD820C4A
BDF69446
3C09A027
B99D4952
BDCC2F83
BDD0B0F2
BD1B3D08
3DD8793E
3E12D773
3D1D4952
3DAFEC57
BCD9E83E
3CEB1C43
3DB367A1
BC741F21
3D398C7E
3D5FA440
3D05F06F
BC42F838
3D8FC505
BE01F213
3D315B57
BDDC28F6
3D883127
3D76FD22
BD2B367A
3C79096C
BD8EF34D
BC9C779A
BCA2339C
3DDCC63F
BC6F34D7
3C83126F
BE013A93
BDA5E354
BD7EC56D
3E1F8A09
3C47E282
3D84EA4B
BC2C0831
3D08CE70
BD7765FE
BD7765FE
BE1DE69B
BC9374BC
3AEBEDFA
BD202752
3D7D21FF
3DCEA4A9
3E147AE1
BD42F838
3D85F06F
BDA19653
3B5844D0
BDBE76C9
BD1E83E4
3DB089A0
BE530BE1
BC944674
3D59E83E
BDD97F63
3C1D4952
BD7F2E49
3DF8D4FE
BD23D70A
3DCC63F1
3CDED289
3D037B4A
3D17F62B
BDA05BC0
3E06F694
BD401A37
3DD32618
3D7BE76D
BD958106
3CF9096C
3E163886
BD0ADABA
3C1BA5E3
BC1374BC
3DE7D567
3D76FD22
BB79096C
3D930BE1
BD8B4396
3B51B717
BD9F8A09
3AAA64C3
3DCED917
3C06594B
3D96872B
BE14AF4F
3D158106
BD7EC56D
3D8F9097
3D3367A1
BDE90FF9
BE056D5D
3CEA4A8C
BDBC6A7F
3E056D5D
BD91D14E
BE2F34D7
3D6AB368
3CFC5048
BDE3BCD3
3D2C710D
3CF1A9FC
BD9374BC
3BBAC711
BE004EA5
3DD32618
3D0DB8BB
BBF27BB3
3D820C4A
3B378034
3DC36113
BD9758E2
BDFC84B6
3CA71DE7
3C3923A3
BD9205BC
BDD59B3D
BD81A36E
3DDBC01A
BCF5C28F
BDB6E2EB
BC0E8A72
3DE00D1B
BD3851EC
3D19999A
BD96BB99
3D8FC505
BBAA64C3
3BEF34D7
3E0C49BA
3B3E0DED
3E2EE632
3CC2F838
3CA0902E
BD9374BC
BDB78034
BD7D8ADB
3CDE00D2
BE15B574
BDD0E560
BB5ED289
3E09BA5E
BDACA57A
BDF2E48F
BD14AF4F
BCCA57A8
BD3FB15B
3DA29C78
BDB2FEC5
3DD566CF
BCC3C9EF
3D896BBA
BCF27BB3
3D3923A3
3CB020C5
BE1D6388
BD9A6B51
BE02C3CA
3A902DE0
BE4A233A
BC741F21
3DAE7D56
BD813A93
3E2339C1
BB30F27C
3CB020C5
3C56A162
BDAC710D
3DDD97F6
3BADAB9F
BE5D6388
3D4A57A8
BD7559B4
3E0A3D71
BCFF9724
BCCF41F2
BC2DAB9F
3D549518
BC8A71DE
3C449BA6
3E20DED3
BD6F9DB2
3E03AFB8
BD1B3D08
BD037B4A
3D037B4A
BE264C30
BBF9096C
3D6F9DB2
3E30D845
BA9D4952
3DCB923A
3C9FBE77
BDBB98C8
BCB923A3
BD47E282
3C7AACDA
BD009D49
BD2F4F0E
3DF318FC
BDFC5048
BDD4FDF4
BB5ED289
3D1CE076
BCEF34D7
BD6E6320
BD8D1B71
3D17F62B
3D7BE76D
BD4985F0
BD81D7DC
BDE83E42
BCB9F55A
3DDAEE63
3C87FCB9
BDCAC083
BBF27BB3
BD20F909
BDB573EB
3D9CE076
3DBDD97F
BE03126F
3CEE6320
3E0154CA
BDC36113
BDD9E83E
BC89A027
3AEBEDFA
3D8DB8BB
BAF9096C
3D9F559B
3DA6B50B
BD64F766
BD9B089A
3C2F4F0E
3DA161E5
BD648E8A
BDD38EF3
3DE872B0
3DAB367A
3C0CE704
BD172474
3CF9DB23
BDBE76C9
3D99999A
BC2DAB9F
3D08CE70
BCA2339C
BD051EB8
3D92A305
BDA0F909
3DE21965
3DA9FBE7
3D5BF488
BCF34D6A
BD3645A2
BCBEDFA4
BD428F5C
3DC5D639
3CA4A8C1
BD6B1C43
BC3FB15B
BD889A02
3D769446
3E25AEE6
BD3C01A3
BDF8D4FE
3D8CE704
BC90FF97
3C6BEDFA
3CE8A71E
3D230553
3DC91D15
BD0FC505
3D4E075F
3DB020C5
BD961E4F
3B1D4952
3CD844D0
BDBF4880
3DE075F7
BDB367A1
3CCE703B
3D0E2196
BC378034
3D86F694
BCF765FE
BDB404EA
3D4ED917
3D837B4A
BD89374C
BE10E560
3DB46DC6
3D11D14E
3E0EF34D
3DC08312
3DB39C0F
BDD182AA
3CCBFB16
BCF837B5
3D8B4396
3BE56042
3D2E147B
3D2ACD9F
3CB851EC
3DBBCD36
3B79096C
BDD1EB85
BD2E147B
3DC6DC5D
3D7837B5
BBADAB9F
3D4CCCCD
BDD0B0F2
B951B717
BCCB295F
3D70D845
BD507C85
BD378034
3CD6A162
BDAD7732
BD6147AE
BC86594B
BD53C361
3DAA64C3
3E03C9EF
3D2FB7E9
BA1D4952
BD5F3B64
3CEB1C43
BDA0C49C
BCF69446
3D178D50
3CD5CFAB
BD947AE1
3DA339C1
3D3E0DED
BD9205BC
BE1C91D1
3D3D3C36
3D5ED289
3D4779A7
BDEA161E
BCD6A162
3D87FCB9
3E2075F7
BDFFCB92
BD7487FD
3D1930BE
3DA02752
3CB6AE7D
BD1E83E4
BE13F7CF
3D2E7D56
3C2F4F0E
3DA339C1
BD9205BC
3D3A5E35
BC872B02
3CA30553
3BC49BA6
BD6703B0
BD401A37
BCF34D6A
BDE978D5
BDB67A10
BD3C6A7F
3DA64C30
BD1A0275
3D858794
3DC1205C
3C8A71DE
3CD5CFAB
BDCED917
3D123A2A
BD797247
BD8D1B71
BD883127
3D3CD35B
BD810625
3CBB98C8
BD3367A1
