BE08CE70
00000000
00000000
3C5844D0
00000000
00000000
3E0D1B71
00000000
00000000
3E5A511A
00000000
00000000
3DB39C0F
00000000
00000000
BD43C9EF
00000000
00000000
3E03AFB8
00000000
00000000
3EB9096C
00000000
00000000
BDC0B780
00000000
00000000
BE067382
00000000
00000000
3DBAC711
00000000
00000000
3E0346DC
00000000
00000000
BE0FDF3B
00000000
00000000
BD04B5DD
00000000
00000000
BE3367A1
00000000
00000000
3E4154CA
00000000
00000000
BEAD9168
00000000
00000000
3C4154CA
00000000
00000000
BE60DED3
00000000
00000000
BADED289
00000000
00000000
BDD4FDF4
00000000
00000000
BD398C7E
00000000
00000000
3E844D01
00000000
00000000
3E028F5C
00000000
00000000
BE23D70A
00000000
00000000
3C449BA6
00000000
00000000
BEF61E4F
00000000
00000000
3E6F1AA0
00000000
00000000
BD67D567
00000000
00000000
BD02A993
00000000
00000000
BD123A2A
00000000
00000000
3E378034
00000000
00000000
BE827525
00000000
00000000
3DB2FEC5
00000000
00000000
BE9AE148
00000000
00000000
3C3C6A7F
00000000
00000000
BC42F838
00000000
00000000
BE939C0F
00000000
00000000
3DD7A787
00000000
00000000
3E5E9E1B
00000000
00000000
BE18793E
00000000
00000000
3DDE9E1B
00000000
00000000
BDF6FD22
00000000
00000000
BD683E42
00000000
00000000
BEB7C1BE
00000000
00000000
3D1652BD
00000000
00000000
3DEF6944
00000000
00000000
BF0288CE
00000000
00000000
3E2FB7E9
00000000
00000000
3E86B50B
00000000
00000000
3E009D49
00000000
00000000
BE669AD4
00000000
00000000
BE25460B
00000000
00000000
3D1E1B09
00000000
00000000
BE7D566D
00000000
00000000
3D8CE704
00000000
00000000
3E4B295F
00000000
00000000
3E04816F
00000000
00000000
3D734D6A
00000000
00000000
3DDF6FD2
00000000
00000000
3D2C0831
00000000
00000000
BD94AF4F
00000000
00000000
BE1B22D1
00000000
00000000
BE6CBFB1
00000000
00000000
BDC08312
00000000
00000000
3E79F55A
00000000
00000000
BE839581
00000000
00000000
BE5F6FD2
00000000
00000000
BE55B574
00000000
00000000
BE94538F
00000000
00000000
3D11D14E
00000000
00000000
3EA86595
00000000
00000000
3E4A233A
00000000
00000000
BCC710CB
00000000
00000000
BE6703B0
00000000
00000000
3DB2617C
00000000
00000000
3E85460B
00000000
00000000
3CE2EB1C
00000000
00000000
3E0ADABA
00000000
00000000
3E8CCCCD
00000000
00000000
BE1566CF
00000000
00000000
BE4F27BB
00000000
00000000
BE7CED91
00000000
00000000
3E643FE6
00000000
00000000
