BE08CE70
3C5844D0
3E0D1B71
3E5A511A
3DB39C0F
BD43C9EF
3E03AFB8
3EB9096C
BDC0B780
BE067382
3DBAC711
3E0346DC
BE0FDF3B
BD04B5DD
BE3367A1
3E4154CA
BEAD9168
3C4154CA
BE60DED3
BADED289
BDD4FDF4
BD398C7E
3E844D01
3E028F5C
BE23D70A
3C449BA6
BEF61E4F
3E6F1AA0
BD67D567
BD02A993
BD123A2A
3E378034
BE827525
3DB2FEC5
BE9AE148
3C3C6A7F
BC42F838
BE939C0F
3DD7A787
3E5E9E1B
BE18793E
3DDE9E1B
BDF6FD22
BD683E42
BEB7C1BE
3D1652BD
3DEF6944
BF0288CE
3E2FB7E9
3E86B50B
3E009D49
BE669AD4
BE25460B
3D1E1B09
BE7D566D
3D8CE704
3E4B295F
3E04816F
3D734D6A
3DDF6FD2
3D2C0831
BD94AF4F
BE1B22D1
BE6CBFB1
BDC08312
3E79F55A
BE839581
BE5F6FD2
BE55B574
BE94538F
3D11D14E
3EA86595
3E4A233A
BCC710CB
BE6703B0
3DB2617C
3E85460B
3CE2EB1C
3E0ADABA
3E8CCCCD
BE1566CF
BE4F27BB
BE7CED91
3E643FE6
0
0
0
0
0
0
0
0
0
0
0
0
0
0
0
0
0
0
0
0
0
0
0
0
0
0
0
0
0
0
0
0
0
0
0
0
0
0
0
0
0
0
0
0
0
0
0
0
0
0
0
0
0
0
0
0
0
0
0
0
0
0
0
0
0
0
0
0
0
0
0
0
0
0
0
0
0
0
0
0
0
0
0
0
0
0
0
0
0
0
0
0
0
0
0
0
0
0
0
0
0
0
0
0
0
0
0
0
0
0
0
0
0
0
0
0
0
0
0
0
0
0
0
0
0
0
0
0
0
0
0
0
0
0
0
0
0
0
0
0
0
0
0
0
0
0
0
0
0
0
0
0
0
0
0
0
0
0
0
0
0
0
0
0
0
0
0
0
