3E30068E
3E1AEE63
3DEAB368
BD5B22D1
BDDA511A
3D50E560
3B902DE0
3D8D1B71
BD5BF488
BD3851EC
BD0CE704
BDAA64C3
BD0E8A72
BDDA8588
BE0D35A8
3D84B5DD
BD841893
BD378034
3DFE2824
3D72E48F
3CDE00D2
3C83126F
BDDD2F1B
BDE6CF42
3E022681
3D1C0EBF
BDB15B57
3DA2D0E5
BD49EECC
3DB46DC6
BE20902E
BD9A9FBE
BDE56042
3DDE9E1B
BDF34D6A
BDA57A78
BD9EECC0
3CC710CB
3E2DAB9F
3E03E426
BE181062
3DA95E9E
3C8F5C29
3E8AC083
3E19999A
3D33D07D
3B6BEDFA
3CB6AE7D
BE4C7E28
BD42F838
BDA75254
BCE7D567
3E5C91D1
3D40EBEE
BD16BB99
BCFAACDA
BDADE00D
3E400000
BD8EBEE0
BCB367A1
BD1BA5E3
3DC08312
3DAA3055
BD7E5C92
3DEB50B1
3E25FD8B
3CF0068E
BDBEDFA4
3DA4DD2F
BCDB8BAC
3D1E1B09
3C4CCCCD
3DF2B021
BD1CE076
3DD81062
BCF69446
BDC6DC5D
BDBDD97F
BD7B15B5
BD01D7DC
BD5A511A
3B6BEDFA
3E1CC63F
3B902DE0
3D123A2A
BD5A511A
BE605BC0
BDF06F69
3E2ECBFB
BE016F00
BB378034
BBA0902E
3C449BA6
BDCE703B
BDBD07C8
BE4A71DE
3D30F27C
3DF10CB3
BD6D288D
BD96872B
3E2E7D56
3B89A027
BD94E3BD
BC9FBE77
3DD1B717
BE075F70
BCBB98C8
3D0BAC71
BD123A2A
BDA40B78
BE58E219
3C22339C
BD03126F
BD53C361
3D6C56D6
3E666666
3AC49BA6
BD0DB8BB
BE22680A
3DBBCD36
BD21CAC1
BC04B5DD
BE4710CB
BC6D9168
BD28C155
BDB8EF35
3CFB7E91
BE0BE0DF
BCDAB9F5
3C978D50
BD961E4F
BDCEA4A9
3D1C779A
3D810625
3DCA57A8
BD4ED917
BD3F4880
3DF4BC6A
BDAF4F0E
BDC67382
3DC56D5D
3BCB295F
3E5096BC
3B378034
BDEF34D7
BDBA5E35
BBF9096C
BCA64C30
BD50E560
BD48B439
BCB43958
3D4BFB16
BE71DE6A
BE53F7CF
BE5F559B
3DFCB924
3D923A2A
3E2B9F56
3AF9096C
3D9B7176
3CBB98C8
3E205BC0
3D954C98
BC1BA5E3
BD25E354
3DBFB15B
3D2C710D
BDCC63F1
3DE69AD4
3C9C779A
BD628241
BD3AC711
3D95E9E2
3C04B5DD
BD456D5D
3D9FBE77
BDE94467
BDA1CAC1
3CD35A86
3E888CE7
BD0F5C29
BCA57A78
BE78BAC7
BDAA3055
3DFC84B6
BDC1F213
BE90E560
BD84B5DD
BE1F559B
BD7E5C92
BCCA57A8
BDAF837B
3D6DFA44
BC9930BE
BDC36113
BD872B02
3E30D845
BC7C5048
BE6D42C4
BE0A8C15
3D292A30
3E056D5D
3D9BDA51
BE19999A
3AF9096C
3ADED289
3D57DBF5
BC83E426
BBCE703B
BD1C779A
BD010625
3D9CE076
BE46DC5D
3D4432CA
BE361134
3E4C2F83
BD6A4A8C
BDA95E9E
BE1C0EBF
BDB61134
BDA1FF2E
3D868DB9
B8D1B717
3CBC6A7F
3E32E48F
BDB74BC7
BD77CED9
BE1566CF
3D570A3D
3DFE9100
BD90FF97
BE1F212D
3C9AD42C
3D1F559B
3D982A99
BB96BB99
3C59E83E
3CA4A8C1
3E03C9EF
3DF5C28F
BD79DB23
3D37E910
BDC5A1CB
BDB50B0F
BE4A8C15
3D9205BC
3A83126F
3E4F9097
BDFD566D
BE827525
BE4154CA
BD514E3C
3D6F34D7
3DB61134
3DABD3C3
BDB67A10
BDC7E282
3E02DE01
3D0A0903
3E173EAB
BD816F00
BD8CE704
BC102DE0
BD827525
3CDE00D2
3DCAF4F1
BD009D49
BD86C227
BCDE00D2
BB79096C
BD7BE76D
BB3E0DED
BC30F27C
BD837B4A
BE075F70
3E7B645A
3C22339C
3C90FF97
BD5BF488
3CEF34D7
BCD6A162
BD941206
BE37B4A2
3DBC3611
3A1D4952
BE00B780
3CB9F55A
BE45F06F
3C1EECC0
BBF27BB3
3DB78034
3D9A6B51
3DF4BC6A
BDB0F27C
BE7F4880
3D8A0903
BD9A36E3
3E00EBEE
BD7A43FE
BD371759
BDE56042
3DCAC083
BBA71DE7
BC8240B8
BCB020C5
BD315B57
3BBAC711
BD872B02
3D4AC083
00000000
3BB43958
3E1E9E1B
BDCAC083
BE1566CF
BE34BC6A
BBE8A71E
3B9374BC
BE85119D
BD1C0EBF
3E305532
3E3D566D
3E4B923A
3CEA4A8C
BE656042
3D9AD42C
3CFDF3B6
BE5FD8AE
3D5B22D1
BCD013A9
BC75C28F
BD7837B5
BE5E1B09
3D229C78
3E446738
BC978D50
BE68C155
BD12A305
3D70068E
3DB2CA58
BE35DCC6
3D916873
3DB851EC
BEB7B4A2
BD6F34D7
BD3573EB
3CEF34D7
BE9F2E49
BDBA29C7
3E10CB29
BE38D4FE
3D2ACD9F
3C6075F7
3DD8793E
BD982A99
3D902DE0
3E3AE148
BDC816F0
3D2DAB9F
BDF41F21
3D7212D7
BE163886
BC07FCB9
3A378034
BE1CAC08
BD5844D0
3E1A9FBE
3C2DAB9F
BD37E910
BD1E1B09
3D820C4A
BD96872B
3DFD566D
BD535A86
BC8B4396
3E2075F7
3D97F62B
BA03126F
BE63BCD3
BE6AB368
3CCB295F
BE4ADABA
BDBC9EED
3D9C432D
BD9B089A
3D9D4952
3C1BA5E3
3D2DAB9F
BD9F212D
BDA8240B
BD29FBE7
BE43E426
BC4B295F
BE2EB1C4
3C11D14E
BD2FB7E9
BE1C0EBF
3C28C155
3CC7E282
3DA2680A
BCA0902E
BD8EBEE0
BDA85879
3D1652BD
BE27D567
BD944674
3D9D4952
BCC8B439
BD96BB99
BD086595
3CA8C155
BE303AFB
BCF837B5
BCAB367A
BE30D845
BD185F07
3C95E9E2
3DB020C5
3D99CE07
3E554C98
BDA3D70A
3E2594AF
BDE52BD4
BE32FEC5
BCDE00D2
3D60DED3
3BAA64C3
BDC6DC5D
BE3D07C8
BD7F9724
3CF5C28F
BD8346DC
BE19B3D0
3E4C7E28
BE009D49
3CEA4A8C
BE02F838
3DEECBFB
BD343958
BE6872B0
BE81A36E
BDAD0E56
BDF381D8
BE113405
BD514E3C
3DF4538F
BD06C227
BDA0C49C
3C84B5DD
3D52F1AA
BDCFDF3B
3D8793DE
3D9E4F76
BD89374C
BDDCFAAD
BE3318FC
BA51B717
BC4E703B
3DA2D0E5
3DB645A2
BE025AEE
BDDC28F6
BD116873
3E217C1C
BE1119CE
3CF765FE
BE1F212D
BD5C5D64
BCD288CE
BD8C7E28
3DA9C77A
3EB02DE0
BBBE0DED
3DC432CA
BE66809D
BE809D49
3CC3C9EF
3AD1B717
BD7C5048
BAD1B717
BD5C5D64
3E04D014
3DCF0D84
BDA161E5
BDFEF9DB
3C8F5C29
3D1C0EBF
3D82A993
BDC6DC5D
3D03E426
BE06594B
BDD25461
BDC36113
BD886595
BDD04817
BCE56042
3DC91D15
BD95182B
3D7BE76D
3951B717
3C8E8A72
3DB2CA58
3DE48E8A
BD97C1BE
3D1FBE77
3E91F8A1
BE7AC711
BD816F00
BD8DB8BB
BD8902DE
BD57DBF5
BD872B02
BD18C7E3
BD989375
3E8D288D
BC985F07
BDF212D7
3C54FDF4
BDA3D70A
3E1B089A
BD5B8BAC
BDEBB98C
BE1AB9F5
BC07FCB9
3D0240B8
BDDAB9F5
3D4710CB
3A1D4952
BCC985F0
BD7A43FE
BE1C91D1
BDAA9931
BDEDC5D6
3D3AC711
BDE3F141
3E1FF2E5
3E104817
BDD9E83E
3C42F838
BB30F27C
3E010625
3E19B3D0
3E14FDF4
3E2E48E9
BE1758E2
BC7F9724
3D656042
3DA36E2F
BDB05532
BD954C98
BCEA4A8C
3E2809D5
BDE69AD4
BCF9096C
BDC32CA5
BC535A86
BCD77319
3CCCCCCD
BDE21965
BDE8DB8C
BB23D70A
3C20902E
BDD2F1AA
3E1CE076
BDFAACDA
BD6978D5
BDD07C85
BE365FD9
BB5844D0
3E001A37
3D810625
3DBBCD36
BE0D35A8
3D54FDF4
BCD4FDF4
BE13DD98
BD0C154D
3DCAC083
3E119CE0
3DC3C9EF
3B51B717
3E32617C
3DA75254
3DC18937
BC30F27C
BD0B4396
BE0F27BB
3DE425AF
BE3B98C8
BDFD21FF
BC7C5048
BC2C0831
3DC04EA5
3D95E9E2
BD648E8A
3D0CE704
3E20C49C
BDD94AF5
3E1DCC64
BE30D845
BD8BAC71
3E8902DE
3E0FDF3B
3C5013A9
3C6F34D7
BB16BB99
BB902DE0
BDAB6AE8
3D94E3BD
BE0CCCCD
3CD1B717
BD243FE6
BDA64C30
3E2425AF
BCFF9724
3DD8793E
BE04816F
BDC154CA
BE7B2FEC
3DF97247
BDA95E9E
3DDA8588
3DAC710D
3E1B573F
3D4D9E84
BE844D01
3D01D7DC
BCE703B0
3CFAACDA
BE958E22
BE2BD3C3
BD3C6A7F
3E2D42C4
BE0432CA
BD6E6320
BD81D7DC
3E617C1C
3E52A305
3E27A0F9
BD8BAC71
BE2F9DB2
BD27EF9E
3D9BA5E3
3DD60419
3B4B295F
3D86C227
3DA1FF2E
3DC710CB
BE256042
3DA3A29C
BE306F69
3DBAC711
BDCB5DCC
BDD32618
BCA8C155
BDD288CE
BD01D7DC
3AAA64C3
BD202752
3E14AF4F
BDD4FDF4
BE231F8A
3DB645A2
BDD77319
3C9C779A
3E310CB3
3E0B7803
3D2B367A
3C535A86
3E4A8C15
3BCE703B
BD7F9724
3BEBEDFA
BDA5E354
3D2786C2
BCC8B439
3D0C7E28
3E256042
BE049BA6
BDE2EB1C
BDA2D0E5
3DC710CB
3DA92A30
3DD14E3C
BE245A1D
BDAE147B
3DAA64C3
3C6A4A8C
BC5013A9
3CB78034
BD058794
BDCD6A16
3E2703B0
BD42F838
3E2BB98C
BE60DED3
3E056D5D
BD31C433
3D7212D7
BD97C1BE
BDFBB2FF
BD5A511A
3E027525
BCA3D70A
BD3295EA
BD35DCC6
BDC28F5C
BE845A1D
3D6B851F
3DC84B5E
BDE7381D
3E373190
3D507C85
3C535A86
BE34D6A1
3D797247
BD5AB9F5
BD25119D
3D5ED289
3DD07C85
BD8240B8
BE3381D8
3D38BAC7
BD6B851F
3BA0902E
3D916873
BC9EECC0
BEBDD97F
3DE24DD3
BE3A29C7
3E158106
BDECF41F
BD762B6B
3E6C8B44
BD4F41F2
3DAFEC57
BD2E147B
BE2A161E
BD727BB3
BD9A0275
3DD94AF5
BD9D14E4
BDD6D5D0
3DD77319
BD8D844D
3DCFDF3B
BDB0F27C
3DB1F8A1
BDB05532
BE0BC6A8
BD88CE70
3BBAC711
3D81D7DC
3C271DE7
BD99999A
3D95182B
3DA0F909
BE013A93
3D855326
BD8346DC
3D8F5C29
3D6CBFB1
3D83126F
BE11B717
3DE21965
3D535A86
BE161E4F
BD95B574
3C3295EA
3DE872B0
BD99999A
BDE45A1D
3DDA1CAC
BD3A5E35
BDADE00D
BC343958
3DE00D1B
3B23D70A
3D5C5D64
3C858794
BDF34D6A
BD9374BC
3DD844D0
3D868DB9
BDC6A7F0
3E10E560
BC4E703B
3B9D4952
3D463F14
3D9374BC
39D1B717
BE55B574
BD072B02
BC4CCCCD
BD9374BC
BE113405
BE205BC0
3DEA4A8C
BDC74539
3D597F63
3CBB98C8
3C656042
3E902DE0
3C95E9E2
BAF9096C
3E0D844D
BE39DB23
3BBAC711
3E1F06F7
3DC8B439
BD507C85
BD6E6320
3B727BB3
3D3F4880
3DE21965
3DBC3611
3E0985F0
3DC0EBEE
BE03C9EF
3B4B295F
BD1EECC0
3E172474
BB83126F
BE39F55A
BE373190
BE872B02
3E388659
3DC25AEE
BE4624DD
3E5E83E4
BE22D0E5
3D10FF97
3D886595
BD6425AF
BDA85879
3D9C0EBF
B9D1B717
BD016F00
3D0B4396
3DC63F14
3CB5DCC6
3CE21965
BDB4A234
3D53C361
3D6B851F
3CC56D5D
BC3FB15B
BCECBFB1
3D6425AF
3DB05532
BE0B295F
BC978D50
3DAB020C
BDDAEE63
BCDB8BAC
BCC7E282
3C4CCCCD
BE69930C
3E26E979
BCBB98C8
BDB7B4A2
BCD6A162
BD683E42
BD9D7DBF
3CB43958
BD4ED917
3D5AB9F5
3D3B2FEC
3DF6C8B4
BD3645A2
3D53C361
BDC87FCC
3E25119D
BD34A234
3C91D14E
3D8A71DE
BD87FCB9
3D676C8B
3DAB020C
3DF62B6B
3DD0B0F2
3E06C227
BE0D844D
3CD9E83E
3E2E48E9
BD1E1B09
BD45D639
BD0A0903
3C8F5C29
BDFA0F91
BE06C227
3D7487FD
3D0F5C29
BDE17C1C
BD0E2196
BD7837B5
BE1ED289
BC1374BC
3E4EF34D
3C1EECC0
BED460AA
3E0E3BCD
3B102DE0
BE074539
BDCC2F83
3DB7B4A2
BE51D14E
BE361134
BE35C28F
3C70D845
B9D1B717
3C6F34D7
3E1BF488
3DF9DB23
BE5E00D2
3D79DB23
BDB5DCC6
3D2B9F56
BE2A9931
BEC7381D
BE1119CE
BEAB7803
BDA2339C
3D600D1B
BDDED289
BBF5C28F
BE3089A0
3CF34D6A
3C8CE704
BDF93DD9
3C59E83E
3B96BB99
BC858794
BDCE703B
BD875F70
3D5D2F1B
3C5B8BAC
3D1C779A
3CC49BA6
3C9930BE
3D9BDA51
3D19999A
3DB5A858
3CADAB9F
3CD77319
3C378034
BDFB7E91
3DC63F14
3E14FDF4
BC656042
BDEE6320
BD202752
BE1374BC
BE55B574
3DD013A9
3DED288D
3CC985F0
BC1A0275
BE1FD8AE
3CDD2F1B
BCF4F0D8
3DEF9DB2
BC985F07
BDECF41F
BE1EECC0
BD8D4FDF
3CF0068E
3D32FEC5
3BB78034
3D8E5604
BE07AE14
BA83126F
BDF69446
3DCCCCCD
BC9BA5E3
BD9F212D
3D4A57A8
BD04B5DD
BD1E83E4
3DC432CA
BD24A8C1
BDEE6320
3E31A9FC
3D35DCC6
3D90CB29
BCFAACDA
BDA3D70A
3D813A93
BE0FAACE
3D29FBE7
BDEBB98C
BD923A2A
BCFDF3B6
BE08B439
3EA95183
BDD14E3C
3D7EC56D
3E386C22
BD889A02
BD3089A0
BE0BAC71
3DE90FF9
BDAD42C4
3D82A993
BDD53261
BC63BCD3
BDC9BA5E
BC22339C
BD868DB9
BDB8EF35
3D1374BC
3D0240B8
3D886595
BE647454
BE0A233A
3E1DCC64
3D56A162
BE185F07
3D6353F8
3E0AA64C
BD62EB1C
BE460AA6
BBEF34D7
3D8BAC71
3D93DD98
3D05F06F
3D0C7E28
BD8D4FDF
BCF1A9FC
BD4FAACE
BDA92A30
BD158106
BE257A78
BB5ED289
3D8B0F28
3D0A0903
3D9AD42C
3C70D845
3C83E426
3DF3B646
BD514E3C
BC9374BC
BE1288CE
3E560419
BE507C85
BE240B78
3E361134
BCD35A86
3CECBFB1
3CB367A1
3D292A30
BD9DE69B
BDAFB7E9
BE13C361
3E1182AA
BC463F14
3E32CA58
3D3EDFA4
3D985F07
BE04B5DD
3D858794
3E0B4396
BD3089A0
3C75C28F
BCE631F9
BD7B7E91
3D0CE704
3D4E703B
BD79DB23
3D90CB29
BE408312
BCE978D5
3DD8E219
BDE2B6AE
3CA30553
3E0A57A8
BE20902E
3CC08312
3CD4FDF4
3D2161E5
BC9E1B09
3DC74539
3D0C154D
3A1D4952
BD3EDFA4
3D6631F9
BCE8A71E
BD535A86
3CF9096C
BDC9EECC
3DF10CB3
BE2ACD9F
3E38EF35
3DAE48E9
BD1CE076
3C92A305
BE4F0D84
3CBB98C8
BE54C986
3E3CB924
3DA5AEE6
BE87C84B
BD961E4F
3DB5A858
BDF1758E
BD24A8C1
3DAF837B
3D8FF972
BDBEAB36
BE247454
3BC49BA6
3D54FDF4
3D9C779A
3DAC3C9F
3DEE2EB2
BD6353F8
BD67D567
BEA50481
BDA161E5
3DD49518
BDEE6320
BDBAFB7F
BC0B4396
BB83126F
BDCBC6A8
3E05A1CB
3E07E282
BDCB295F
BE15E9E2
3C463F14
BD06594B
3D78A090
3E27381D
3C83E426
BE525461
3DF9DB23
3CCB295F
BDEBEDFA
BD2CD9E8
3E724745
BE3D21FF
BE5ED289
BD3C6A7F
3B51B717
BDEDFA44
BD8D844D
3CF1A9FC
BD4E703B
BD6BEDFA
BDC985F0
BB4B295F
BD4D9E84
3C83126F
BDCF0D84
BE0C154D
BD65C91D
3D985F07
3DB78034
3D9EB852
3D2B9F56
BE1119CE
3DC08312
3BEBEDFA
3E418937
3DA64C30
BDF73190
BDC0EBEE
BB89A027
3D4E075F
BDC7AE14
BD83AFB8
38D1B717
BE3DF3B6
3DC8B439
3E2B1C43
3E1F3B64
BE1119CE
3DB020C5
BB9374BC
BDC87FCC
BD5844D0
BD37E910
3E0EA4A9
BD851EB8
BCB851EC
BC6BEDFA
BD4AC083
BE3573EB
3E4C985F
3D62EB1C
BD70D845
BD858794
3DDF3B64
BC6075F7
BDBA92A3
3E172474
3E16872B
BDB95810
BDAA9931
3E6B9F56
BE1F212D
BD9B3D08
3BB43958
3D577319
3E0A233A
BD2E7D56
BE31758E
BD8CB296
BE49EECC
3C83E426
BD90FF97
BE03E426
BD1BA5E3
BD97C1BE
3D86594B
BA1D4952
BDCD9E84
BE395810
BDD38EF3
BE24DD2F
3D401A37
3DBF1412
3DCC63F1
BC656042
BE24F766
3E06DC5D
3C3C6A7F
3DCFAACE
3DF8A090
BE1E83E4
BC7DF3B6
BD401A37
3D96BB99
BD116873
BDB8BAC7
3E81F213
BE816F00
BE2D42C4
BDBE0DED
3E24F766
BD549518
BC22339C
BCE21965
BDE872B0
BE2E147B
3DBC3611
BD961E4F
BD741F21
3D797247
BDFA0F91
BE00346E
BE3295EA
3DC18937
BDE631F9
BDB9F55A
BBB78034
3CBE0DED
3D1FBE77
3DB0F27C
3CC2F838
3D38BAC7
3D9BDA51
3E055326
3D954C98
3D8902DE
BD20F909
BDACA57A
3E0E703B
3E21E4F7
3D958106
3CFAACDA
3D8AA64C
BD26B50B
3D50E560
BDFE9100
3DD0B0F2
BDDE00D2
3E6786C2
3CE7D567
BCF1A9FC
3CF34D6A
3E2C2268
3E57A787
BE2872B0
3E072B02
3E060AA6
BCE48E8A
3CB020C5
BBE56042
3D7C5048
BDDAEE63
BD8D4FDF
3D3FB15B
3DCEA4A9
BC185F07
3D29FBE7
BD0E2196
3E582A99
BE90F27C
3DA92A30
3DFC84B6
BD1B3D08
3DADE00D
BD5844D0
BE3FCB92
BE8902DE
BE0EA4A9
3DC0B780
3E292A30
BDBA5E35
BE022681
3D0F5C29
3DF10CB3
3A1D4952
BDB95810
BE2FB7E9
BC9C779A
BE40346E
3DF765FE
3CA3D70A
3D78A090
3B03126F
3DA9C77A
3D33D07D
3CA161E5
3C7C5048
3DBAC711
3B378034
3DFF9724
BD84816F
BE60C49C
3E3559B4
BE0BE0DF
3CDB8BAC
BE245A1D
3D676C8B
BC06594B
BE1A0275
3C0CE704
3DB6E2EB
3D982A99
3E147AE1
BCA161E5
BC016F00
BD8068DC
BDA05BC0
3DEF0069
3CDD2F1B
BD83E426
BD62EB1C
3D858794
3D95B574
3DE7381D
3DB020C5
BD27EF9E
3DC779A7
3C872B02
3DC91D15
3DAACD9F
BD741F21
3E01BDA5
BDF1A9FC
BBB43958
3C9A0275
3E1B089A
3C88CE70
BAB78034
BDB18FC5
3D9D7DBF
BD51B717
BD56A162
3E1A8588
BD436113
BE2872B0
3D972474
3E0710CB
BDA2680A
3E211340
3E1D14E4
BE602752
BD45D639
3DBF1412
3E0B4396
BC6075F7
BE7E0DED
3D67D567
BE48CE70
BE49BA5E
3DB0F27C
BC8F5C29
BD350B0F
BD8FC505
3DF318FC
3E3B7E91
BE0AA64C
3DEAE7D5
BD0E2196
3BBAC711
3E123A2A
3B03126F
BD1E1B09
BD6425AF
BE01A36E
3D2ACD9F
3D8C7E28
BE3D3C36
BE149518
3C872B02
3E827525
BC4E703B
BC8DB8BB
BE10624E
BCB50B0F
BE02DE01
BCF765FE
3E228241
3E10FF97
BD8ADABA
3D79DB23
BDA339C1
3E00B780
3D91D14E
3D0793DE
BD563886
3D923A2A
BE5D6388
BD6CBFB1
3E6A64C3
3DD119CE
BC2C0831
BD985F07
3DF41F21
BD89A027
BE9758E2
3D172474
3E06594B
3D83126F
3CF41F21
3AEBEDFA
3DA12D77
BB9374BC
BB378034
3DC4D014
38D1B717
BC86594B
3CF9096C
BC8240B8
3D0793DE
BE3FB15B
BCBAC711
BD3851EC
BCFD21FF
3DA5E354
3DD8793E
3E2BD3C3
BDA02752
3D29930C
3C9D4952
BD19999A
BD84B5DD
BDC2C3CA
BC04B5DD
3D7B7E91
3E14E3BD
BD3645A2
3D6353F8
BDD4FDF4
BD81D7DC
3DA64C30
3DF5C28F
3CAF4F0E
BD172474
3D7E5C92
BE29C77A
3E94D6A1
3E4154CA
3E30BE0E
3DC6DC5D
3CC154CA
3D810625
3CF837B5
3D985F07
BD15E9E2
3E35A858
3A9D4952
BE54C986
BE38D4FE
3DB404EA
BDAB6AE8
3DE28241
3DF4538F
BE8F1AA0
BDE5C91D
BE1F212D
BE121FF3
BDC985F0
3DAA9931
3D34A234
BD591687
BDA05BC0
3E022681
3DBB645A
BB9374BC
3DFA786C
3D1A0275
BC22339C
3B83126F
BD08CE70
3D706F69
3D456D5D
3D43C9EF
BD621965
BD2C710D
BDEF9DB2
3DF86C22
BDD8E219
3E2B367A
BD102DE0
3D8A71DE
BC07FCB9
3D7B15B5
3DAACD9F
3D883127
BD6631F9
BDB089A0
BC84B5DD
3DFD8ADB
3D837B4A
BE0432CA
BDAA64C3
BE441893
BE746DC6
3E022681
3E55182B
3E113405
3E5BDA51
3E0EF34D
BDBFB15B
3D5E69AD
BE05A1CB
3AB78034
3DF381D8
BD172474
BD809D49
BDEA4A8C
BDA5460B
3D8240B8
3D19999A
3D5FA440
3DA0F909
BDEAE7D5
BD40EBEE
BD85BC02
BDCF7660
BE194AF5
BA6BEDFA
3DF06F69
BD78A090
3CCCCCCD
3C7765FE
BE44B5DD
BBAA64C3
BDF03AFB
3DE872B0
BE20AA65
BE629C78
3CCB295F
3E0B0F28
3D851EB8
3D45D639
BDF52546
3DE978D5
3D923A2A
3D8F27BB
3D2786C2
3A902DE0
3C5D2F1B
3BA0902E
3B902DE0
3C727BB3
3D0C7E28
BE813A93
BE7E2824
3CA71DE7
BE8DD2F2
BAEBEDFA
3E288CE7
BE06C227
BDA1CAC1
BE3F4880
BB4B295F
BC2A64C3
3D13DD98
3E13C361
BD5288CE
BE096BBA
3E827525
BD89A027
BB2A64C3
3DAB367A
3CB6AE7D
BE4538EF
3D0E8A72
3CADAB9F
BD762B6B
3D72E48F
3D706F69
BDA92A30
BE0793DE
BCEA4A8C
3CC3C9EF
3D6CBFB1
3DC36113
3D4C63F1
BC9EECC0
BE0B0F28
3CF765FE
BD896BBA
BE06DC5D
BCD77319
BD56A162
BE3D70A4
BD428F5C
3CBAC711
BD9D4952
BE0346DC
BE055326
BE547AE1
3DD7A787
3DAB020C
3DBC3611
3E10FF97
3E27381D
BE2D5CFB
BE4CCCCD
BE086595
BD1FBE77
3D8240B8
BD6F34D7
3BB0F27C
BD7F2E49
3E1B089A
BC54FDF4
3DB1F8A1
3D30F27C
BE0F0D84
BE507C85
3D989375
BDC4D014
BE85AEE6
BDBAFB7F
BCB851EC
3C5D2F1B
3DFBB2FF
BDC7E282
3E43AFB8
BD9F212D
BDA5460B
BE8ACD9F
BBD4FDF4
3DAB6AE8
BD422681
3D14AF4F
BC30F27C
3CD42C3D
3E113405
3C449BA6
3E2594AF
3C016F00
BE41A36E
BD628241
BE962B6B
BD08CE70
3DF837B5
3E063F14
BDB05532
3D21CAC1
BD7F9724
BDC0EBEE
BD5E00D2
BE8C2268
3D8C7E28
BD3295EA
BD5B8BAC
3E554C98
3C727BB3
BDE21965
BDC0EBEE
BDA2D0E5
3D84B5DD
BE74D6A1
BDA9930C
3E4C985F
BE549518
BC5ED289
3E18C7E3
3E303AFB
3D202752
BE1F06F7
BC2DAB9F
BD3851EC
3BAA64C3
3C257A78
BD923A2A
BCE21965
BC47E282
3DC0B780
BC42F838
BDBDA512
BB03126F
BE2C2268
BE3F4880
BE0E5604
BE3EF9DB
BCDED289
3D371759
3D20F909
BE4432CA
3C11D14E
BBFF9724
BD123A2A
BE2C3C9F
BE5013A9
3CA30553
BDBBCD36
BE07C84B
3D851EB8
3AB78034
3E82C3CA
BD3DA512
BD9B7176
BD577319
BDA36E2F
BE26CF42
3D271DE7
3DE1E4F7
BBAA64C3
3CF765FE
3D8B4396
BDC95183
3CFB7E91
BDBDA512
3E0816F0
3CA4A8C1
BDC9EECC
BDC28F5C
3D20F909
BE2339C1
BD7AACDA
BCED9168
3D322D0E
3DE2B6AE
BD24A8C1
3D1FBE77
BDB05532
3D913405
3E0816F0
3DB50B0F
3DE56042
BD90FF97
BCEBEDFA
3E67A0F9
3DA85879
BC449BA6
3D648E8A
3C816F00
BDB295EA
BE2353F8
3D5D97F6
3E43C9EF
3DE90FF9
BE1D14E4
BD6A4A8C
3DB2617C
BD45D639
BEA55326
BE7923A3
3E8631F9
BD84816F
BE1DCC64
3E1AB9F5
BE20F909
3E378034
B9D1B717
BE523A2A
BDDC91D1
3A378034
BD9A6B51
3D8EF34D
BE85119D
BE863F14
3C6BEDFA
3DF79A6B
3DD3F7CF
3C1BA5E3
BD4710CB
BE0AF4F1
BDF7CED9
BC90FF97
BD6BEDFA
3DB6AE7D
BD1E83E4
3CF5C28F
3CA7EF9E
3D72E48F
3CBD3C36
BB83126F
BE4C985F
BE487FCC
BE5FF2E5
3D69E1B1
3CEF34D7
BCE56042
BDBA29C7
BC5844D0
BC185F07
BCF9096C
BE3C5048
BD20902E
3DF9DB23
3E049BA6
BE3B7E91
BC944674
BD9205BC
3DF3B646
3C4E703B
3D5566CF
BDFD566D
BC15182B
BC8E8A72
BDED5CFB
3E32CA58
3D1FBE77
BD0240B8
3D989375
BDF41F21
3DCD013B
3D77CED9
3DFE9100
BD7C5048
3A378034
BE97DBF5
3C8CE704
BDB81D7E
BCACD9E8
BDF34D6A
3DD0B0F2
3DD2F1AA
BD4B923A
BCAB367A
BD24A8C1
3E3E5C92
BCB5DCC6
BE14FDF4
3E2A4A8C
BDDB22D1
BD98C7E3
3DE9AD43
3D4D35A8
BE425AEE
3C6F34D7
BD5FA440
BE189375
BE310CB3
BEAF0069
3C3C6A7F
3B4B295F
BE7F2E49
BCFF9724
3BD4FDF4
BE0F5C29
3DBF1412
BE2147AE
3E19B3D0
BD542C3D
BC8F5C29
BE083127
BE02F838
3E458794
3DB50B0F
BD84B5DD
3CB78034
BD20902E
3C51B717
3C621965
BDEC8B44
BE0538EF
BD378034
3E7BB2FF
BD9C779A
3CF34D6A
BD9CE076
BD669AD4
3CCA57A8
BDF69446
B9D1B717
3DFCB924
BD78A090
3D9DB22D
BD8346DC
3D0BAC71
BCBEDFA4
3DE66666
BE397247
BE32FEC5
BCD844D0
3D33D07D
3D2E7D56
BD010625
BD96872B
3DC5D639
BD009D49
3D38BAC7
BE924745
BDFA0F91
3D985F07
3DE631F9
BBDB8BAC
BDD1B717
BC7F9724
BDBFE5C9
BC463F14
BD1F559B
3D65C91D
3D600D1B
BCBE0DED
3DAE147B
BDEDC5D6
BD48B439
BE0346DC
BD6D9168
BDCEA4A9
3D521FF3
BDBE425B
3D7B7E91
3C621965
BDA47454
3DCD9E84
3CAB367A
BBDED289
3DC74539
BDEECBFB
3D92D773
3CCF41F2
3D2EE632
3D5F3B64
3D14AF4F
BBC7E282
3D958106
3CEE6320
BD597F63
BD1FBE77
BDBAC711
3DCB5DCC
3DE5FD8B
3EAE5604
BE0CCCCD
3E04D014
3D9096BC
3BEBEDFA
3E49D495
BD7837B5
BE01F213
BDA57A78
B951B717
3D35DCC6
3A378034
BD9E4F76
BDFDF3B6
3D9D4952
3E0154CA
BDDE353F
3D09A027
BE365FD9
BD86594B
BB5844D0
3D6D9168
3E72E48F
3DB78034
3D07FCB9
BD769446
BD428F5C
3D87FCB9
3D1A6B51
BE7837B5
BE116873
BD65C91D
3D1FBE77
BDDC28F6
BD79096C
BD2F4F0E
BDB367A1
BDD49518
BDAF4F0E
3D656042
BE189375
BCCF41F2
3DB33333
3E675254
3B89A027
3CB0F27C
BDF34D6A
3D80D1B7
BE0538EF
3D3D3C36
BD9B089A
3DA30553
3DE978D5
BD648E8A
BD4C63F1
3DA5AEE6
BCB1C433
3E170A3D
3D514E3C
3D9DE69B
3C87FCB9
BDCF0D84
BE10FF97
BDF62B6B
BD841893
3D0D4FDF
3DAACD9F
3D563886
3D88CE70
3D2CD9E8
3CF27BB3
BD0C7E28
3D3E76C9
3D0CE704
3E02A993
BD7C5048
BE091D15
BDC816F0
BD90624E
BA6BEDFA
BE8B5DCC
3DB81D7E
BDF27BB3
3D4F41F2
BDBA29C7
BDAB367A
BD4FAACE
BD67D567
3DBF7CEE
3CA7EF9E
3D130BE1
BDF7CED9
3D2EE632
3CF4F0D8
3E9013A9
BE0B4396
3E8BEDFA
BDF5C28F
BCA64C30
3D3573EB
BD2DAB9F
BDB98C7E
3DB020C5
BE7E5C92
BDB9F55A
3B83126F
BDFC5048
BE49D495
3CE631F9
3CC3C9EF
3D130BE1
BDDF6FD2
BE333333
3DC49BA6
BDFB15B5
BD9CE076
399D4952
BD9AD42C
3E46594B
3D3573EB
BD2C710D
3DE8A71E
3DBAFB7F
BC8E8A72
3DA4DD2F
BE671DE7
BD930BE1
BC56A162
3E08B439
BC257A78
3E0D4FDF
3A378034
BDBC3611
BD63BCD3
BE32617C
BC6703B0
3BEBEDFA
3C96BB99
3AF9096C
3CA8C155
3D06C227
3CC7E282
BE2631F9
BD9DB22D
BD6353F8
3D03E426
3D450481
3D51B717
BCA71DE7
BDDB573F
BE02DE01
3D2EE632
BE1E353F
3DA1FF2E
3E147AE1
BD378034
3D9F8A09
BE1EECC0
BE116873
BD0B4396
BD4985F0
BDBC6A7F
BD89D495
3C1A0275
BDF4538F
BC463F14
3D53C361
3E2F1AA0
3D3E76C9
3CB43958
BD236E2F
BE45A1CB
BDEF9DB2
BCDED289
BE6A7EFA
BDC50481
BD5C5D64
BB656042
3BCE703B
3E0985F0
3D7AACDA
BDF62B6B
BD09A027
3D3295EA
BD3D3C36
3DDD97F6
BD5E69AD
3DE353F8
BE02DE01
3DB22D0E
3E0B7803
BCFAACDA
3E3020C5
3DA3D70A
BDD66CF4
BE0538EF
BD919CE0
3D3F4880
3D80D1B7
BD9E83E4
BD09374C
BD1FBE77
BDB67A10
BD123A2A
BDD182AA
3E848E8A
BCC8B439
BE846738
BE1CC63F
3DEA161E
BDBC01A3
3DD1EB85
3C86594B
BE28C155
BD5AB9F5
BD858794
BDA19653
3C5B8BAC
3E32B021
BE487FCC
3D868DB9
BDF765FE
3C343958
BD851EB8
3CF9096C
3DB9C0EC
BCB43958
BD8793DE
BCF9DB23
3CE48E8A
3D07FCB9
3D4FAACE
3DF86C22
BD95182B
3D4B295F
BD4432CA
BE07FCB9
BDC8B439
BE765FD9
BE044D01
3D3DA512
BDA9C77A
3D71A9FC
BC8DB8BB
3C04B5DD
BDA57A78
BDEDFA44
3DE9E1B1
BC271DE7
3D40EBEE
BD2ACD9F
3D535A86
BD4ED917
BD4FAACE
3D3AC711
3CDB8BAC
BDF1758E
BD3DA512
BE130BE1
3DC779A7
3D3CD35B
BC3FB15B
3DBDD97F
3D086595
BD97C1BE
3CDD2F1B
3DE8A71E
3D0B4396
BDD9E83E
BDA40B78
BDF3EAB3
BDB0F27C
BD95182B
BE525461
38D1B717
3DCED917
3C83E426
BE01BDA5
3DCB5DCC
3D591687
3D9E1B09
3D1A0275
BDB9C0EC
3D570A3D
BE59652C
3CB6AE7D
3CBE0DED
BCD288CE
3E19652C
3DE5C91D
3C91D14E
BC70D845
3DECF41F
3CFD21FF
3D47E282
3D5566CF
BE2786C2
BD60DED3
BC978D50
BE690FF9
BDCD6A16
3E6617C2
3E2617C2
BE472B02
BE374BC7
BC30F27C
BD648E8A
BC75C28F
3D172474
BD57DBF5
BD1E1B09
3C343958
BD5AB9F5
BD67D567
BE0BE0DF
BE40346E
BD4D9E84
3CEA4A8C
3D896BBA
BC4B295F
3DC01A37
BC449BA6
3DBCD35B
3B23D70A
3D886595
3C3E0DED
BBA3D70A
BD34A234
BD4E703B
BD36AE7D
3CBE0DED
3CCBFB16
BE14AF4F
3A51B717
BDCA57A8
BCB851EC
BCA8C155
BD1E1B09
BD178D50
BCE21965
BD7B7E91
3C535A86
BD46A7F0
BC04B5DD
BD8BE0DF
3D628241
BBC49BA6
BD1096BC
BE88DB8C
BDCA8C15
3D83126F
BDA6B50B
3D16BB99
BCE2EB1C
BCB9F55A
BC68A71E
3D4A57A8
BD9D7DBF
3C6A4A8C
3C07FCB9
BE044D01
3CBEDFA4
BD53C361
3D3C6A7F
BE25119D
BC35DCC6
3D3F4880
3DAACD9F
BD597F63
BCA30553
BBE8A71E
BCE48E8A
BDB98C7E
BD954C98
3D59E83E
3DC28F5C
BCA161E5
3D81A36E
3CB5DCC6
3C741F21
BE4D844D
BE3E9100
3B1D4952
BC35DCC6
3D051EB8
BC5844D0
BDA8F5C3
3C06594B
3DE7A0F9
BE781D7E
BD9C432D
BE163886
BDE0DED3
BDEECBFB
3CC08312
BE11B717
BDEFD220
3DA1CAC1
3DEA161E
3BF27BB3
BD727BB3
3E535A86
BD820C4A
BDB98C7E
3D25119D
BCCD9E84
3BDB8BAC
3D810625
3D48B439
BE0E703B
BE1B089A
BDAFB7E9
BE6F4F0E
BDEE2EB2
3D13DD98
3D322D0E
3CED9168
3C87FCB9
3D6D9168
3D79DB23
3D6A4A8C
BC68A71E
3C2A64C3
BE1B8BAC
BE4710CB
BDFD566D
BDEB1C43
3E14E3BD
BDF381D8
BDAE7D56
BD570A3D
3E2594AF
BC35DCC6
3C1BA5E3
BD52F1AA
BE26CF42
3D4FAACE
3C3AC711
BDDD2F1B
BD1A6B51
3DAD0E56
BB4B295F
BBC49BA6
BC03126F
BE02C3CA
BDCBFB16
