3C2DAF7B
3BECF48B
3D1FEC57
3CCBC5D7
3CB4FE2F
3D03C7D6
BC98D204
3BD50D63
3D17317D
BB465D1C
3D266A58
3D1C44F5
BC8F6C8A
BC28ECA9
3D8FD45A
3D0E018E
3CC5EFD4
3C8013B7
BC265BBF
3D1BAF56
BCE18170
3D206035
3C56E1E4
3D0922F1
3B238DB9
3C1D8B56
3D0E8465
3C915BC8
3CF3D6D7
BAA35788
BD6D572C
3BFCCFF5
3CFA53E4
3C5E849B
BB863A16
3BFA4B0A
BD4825C6
3C8FB712
BBCF8CDB
3D004827
3CF135E3
3C1EF935
3CAF212B
BC8C24A6
BCEB0C0D
BB921E3B
BCF5A55E
3CEA4289
BC1E7F52
3CCE5E12
3CC7373C
3D0A7C7B
BC97D4E3
BD0976C4
3D5299A0
BA6B11DC
3D584BD4
3C9925B1
BC1A5A49
BBAFCD38
3B5A785C
BCF840C4
3CE87926
3C2FEC01
BBF6541A
3C604895
BBFBFA62
BC999A3B
BCD62627
3D5DB621
3CA8A570
BC9795E9
3D16981D
3D8481BC
BD067951
3D0618FC
BCB45BE2
3D719D59
BD365445
BC125766
3CAA7B2E
3B8F3F38
3CDC9DF0
BD19ADEC

