3E1B8BAC
BCE8A71E
BCFD21FF
BE1DE69B
3E0F27BB
3D563886
BDB88659
3EAECBFB
BCB78034
3DE04189
BE29E1B1
BDBE76C9
BD9D7DBF
BD84EA4B
3D1C0EBF
3C4B295F
BC83E426
BDF97247
3E27EF9E
3D5B22D1
BD9A6B51
3DB95810
3D923A2A
BE5C779A
BCD288CE
3E0FDF3B
BE26809D
3DF93DD9
BD257A78
BE149518
BE1C28F6
BE3212D7
BDC154CA
3D7B7E91
3DC7AE14
BE0068DC
3E2AB368
BD8DB8BB
3DE425AF
BD74F0D8
3CBB98C8
3C7AACDA
BE31C433
BDC6DC5D
BC70D845
BD172474
3DB15B57
BE388659
BDF6C8B4
BE275254
3D82DE01
3D96F007
3D57DBF5
BDE872B0
3E358E22
BDAE48E9
BE4D6A16
3DAC710D
BD8D844D
3DACA57A
BE3C1BDA
3E0F41F2
BDA7BB30
BD5BF488
3C2C0831
BE2D7732
3E0BC6A8
BD28C155
3D8B4396
3DCFDF3B
BD982A99
BDE28241
BC9C779A
3D5566CF
3DE8DB8C
BDDF06F7
3DCC2F83
3D985F07
BD9A36E3
BE0779A7
3D982A99
BC2C0831
3DAD0E56
3E504817
3E489A02
3C56A162
BE45F06F
3DFFCB92
3E3089A0
BE01F213
3DEDFA44
3D669AD4
3E12D773
3DB645A2
3B79096C
3DD91687
BE24F766
BDC2F838
3DD32618
3DC46738
3E09BA5E
3E60DED3
BE7381D8
BE37B4A2
3DC154CA
3AC49BA6
3E0FDF3B
BD2B367A
BD0BAC71
BD09374C
3D70068E
BCB5DCC6
3DACA57A
3D74F0D8
BD7EC56D
3E0AF4F1
BD1AD42C
BE15E9E2
BD3CD35B
3C95182B
BDBE0DED
3E247454
BCE21965
3E664C30
BE6B367A
BC8CE704
BD76FD22
3E0F9097
3E02DE01
BDFBB2FF
3D9E83E4
BD86594B
BE4EF34D
BC3FB15B
BB3E0DED
BE486595
3E0B5DCC
3E495183
3E11EB85
3E123A2A
BDD7DBF5
3E06C227
BD4E703B
BD172474
3E1A511A
BE17DBF5
3C2A64C3
BD257A78
3D449BA6
BDCAC083
3CA4A8C1
BDCAF4F1
BDFCB924
3D96872B
BE1A8588
BD1F559B
3D2B9F56
3E22B6AE
3E28A71E
3CD1B717
3E1288CE
3E34D6A1
3E0F5C29
BDFDBF48
3E0D35A8
BD941206
3DA6809D
3D3EDFA4
BE050481
BBDED289
3E40EBEE
3E8CE704
3E0C985F
3BCB295F
3DB22D0E
BE5FD8AE
BDE872B0
3DF8A090
BD87FCB9
BD47E282
3D491D15
BE5566CF
BD3A5E35
3D1652BD
BE0C7E28
3DE5FD8B
BDC01A37
BE605BC0
3D1DB22D
3E2E6320
BD84816F
3BA0902E
3DCAC083
3D734D6A
BC06594B
3E046738
BC54FDF4
BE1ED289
BDC779A7
3DFBB2FF
BD8C154D
3D82A993
BE13A92A
BDAC710D
3E2B367A
BD3C01A3
BDA57A78
BDE075F7
3DE38866
3C656042
BE23D70A
3DCC985F
BE3C6A7F
BDCD35A8
3DE17C1C
3E1A1CAC
BDCEA4A9
BD1AD42C
3E4BAC71
3E037B4A
3D820C4A
3D1E83E4
BD84B5DD
3E12F1AA
BD6A4A8C
BE25C91D
BE067382
3E53F7CF
3D982A99
BE0F27BB
BE02C3CA
3E0985F0
BE219653
3E0A57A8
BE07E282
BC727BB3
3E0FC505
BE170A3D
3B9374BC
BE2353F8
BD60DED3
3DEECBFB
3E20AA65
BCBAC711
BDE38866
3E01BDA5
3D714120
3D86C227
BE125461
BE2A9931
BDA6E979
3D98C7E3
3E7367A1
BC271DE7
3D8E5604
BE182A99
3E6631F9
BD8C49BA
3CDD2F1B
3DAE48E9
3E54E3BD
BE0FF972
BE3A0F91
3DBF7CEE
3D85F06F
3E00B780
BD6353F8
3D3923A3
BD9096BC
BDB88659
BDFFCB92
3E85119D
BE4779A7
BDB15B57
BDA85879
3CBC6A7F
BE333333
BE3F1412
BCF1A9FC
3E0B7803
3A378034
3E8985F0
BD4AC083
BCBEDFA4
BD257A78
3D463F14
BD6703B0
3CA9930C
3E22D0E5
3E1205BC
BE6B6AE8
3D9AD42C
BD45D639
BE17F62B
BE07E282
BDF62B6B
BD5A511A
3E7D07C8
BDBC6A7F
3DDF3B64
3DF34D6A
BE13DD98
3D1AD42C
3E5096BC
BE264C30
3DC779A7
3D8D844D
BBAA64C3
BDC3FE5D
BDEF34D7
BDF1A9FC
3E072B02
3C3C6A7F
BDE3F141
BDB295EA
BDE90FF9
BE6E6320
BE1D6388
3E1DB22D
3DAC0831
3E2809D5
3C8B4396
BC3C6A7F
3D408312
BE257A78
3DD1EB85
3C102DE0
BD577319
3E1D97F6
3D3F4880
BE2A9931
3E59652C
BE0A0903
BD930BE1
BD86F694
BDB0F27C
BD67D567
BCE147AE
BDB4D6A1
BE0E3BCD
3DA57A78
BDEBEDFA
3D058794
3E3AFB7F
BDCF41F2
BE3CB924
BD9DE69B
3CB020C5
BE474539
3CAB367A
3DA9FBE7
BE20AA65
3D3E0DED
BD7AACDA
BE22EB1C
3E14AF4F
3CE075F7
3DCB923A
BE3EDFA4
BDD63886
3D9374BC
3E10624E
3D4E703B
3E305532
3D8BE0DF
3E096BBA
BCAA64C3
3BF27BB3
3DF14120
3D72E48F
BE022681
3CA57A78
BE204189
BDDE69AD
BE0C7E28
BD813A93
3C68A71E
BDE631F9
BCF5C28F
BE0E5604
BE5DB22D
3D7487FD
3E03E426
BE48B439
3E56A162
BE692A30
BD2FB7E9
3DD844D0
BE4D013B
3E39096C
BDD0E560
3D4154CA
3DD94AF5
3DE56042
3E1A511A
3E58E219
3D87FCB9
3DD5CFAB
BE07AE14
3E7318FC
BD63BCD3
3C11D14E
3D83E426
3D229C78
BDA0902E
3DA75254
3E322D0E
BD9374BC
BDFAACDA
BC09A027
3BEBEDFA
3D9F212D
BD6BEDFA
3E29C77A
3E836113
BD3CD35B
3DA36E2F
3E132618
3E99F55A
BE001A37
3E5A6B51
3DBB2FEC
3CB020C5
3D9B3D08
B99D4952
3E582A99
BD648E8A
3BD1B717
BCDC5D64
BE271DE7
BD4A57A8
3E3D566D
BDD844D0
BDA85879
BDB089A0
3E11D14E
BD71A9FC
BD926E98
BE532618
BDD013A9
BC09A027
BD77CED9
3E2F34D7
BE47AE14
3D27EF9E
BE08B439
3E59E83E
BDB2617C
BDE3F141
3DC08312
3D2E147B
3E46F694
BDBA29C7
BDFC1BDA
BE0A233A
BCDD2F1B
BE28240B
3D8B0F28
3E50B0F2
3E3C84B6
BE30068E
BCF69446
3D491D15
BD6703B0
BD63BCD3
BDD38EF3
3DA29C78
3E5C28F6
BDA1FF2E
3D5D2F1B
BE1D2F1B
BE2786C2
BE1182AA
3E52A305
BE200D1B
BE2B367A
BE0D1B71
BE2DC5D6
BE5BF488
3E978034
BDCD35A8
BD15182B
BD25119D
BD6DFA44
3CB43958
BE91D14E
3DCC63F1
BD0DB8BB
3D23D70A
BD3C01A3
BD7765FE
3DCBFB16
3DAE7D56
BC9E1B09
3DF9A6B5
3E318FC5
3D855326
BD5BF488
BD8DED29
BC5B8BAC
BE5013A9
3D8624DD
3BBE0DED
BBFC5048
BEA538EF
3E036113
3E14FDF4
3C5D2F1B
3DCC985F
BD83AFB8
3DD1EB85
BD47E282
3BCB295F
BD8F5C29
BC7DF3B6
3D0FC505
3DD38EF3
3D941206
BDC985F0
3DD1EB85
BE17C1BE
3DDE69AD
3DB81D7E
3C5ED289
3D28C155
3D989375
3B3E0DED
3E3645A2
3D7D8ADB
3D65C91D
BE3381D8
BC5D2F1B
BE343958
3D1E1B09
BCB50B0F
BDAACD9F
BDBFB15B
3E170A3D
3E446738
3C90FF97
BC7C5048
3E06594B
BDE147AE
3E03E426
BD31C433
3BADAB9F
BDC5A1CB
BE1930BE
BD6CBFB1
BDA43FE6
3C343958
BE9B7176
BE4D9E84
3DA339C1
BD3020C5
3D0A71DE
3D6D288D
BE28A71E
3E26B50B
3DFA0F91
BE121FF3
BE1D97F6
BE3BCD36
BDD53261
BDE52BD4
BD25E354
3E020C4A
B9D1B717
3DF212D7
BD7D21FF
BDFA0F91
BE446738
3E1DB22D
3E2E2EB2
3DE809D5
BE159B3D
3E5566CF
3D985F07
3E0F0D84
BE09A027
3D1C779A
3D5566CF
BE67EF9E
BDBEAB36
BDB9C0EC
BD62EB1C
BDA02752
3D7BE76D
BE15182B
3DEA161E
3E378034
3E35A858
3E0E703B
BE02F838
3C0CE704
3D5844D0
3C68A71E
3DAF837B
BE0C63F1
3DE21965
BD648E8A
3E410625
3DB05532
3D30F27C
BE2ECBFB
BDD91687
3DF4BC6A
BE275254
BDDE69AD
BE19E83E
3E4E5604
3E3212D7
3CD4FDF4
BDC779A7
3DF8A090
3DA6E979
BC3AC711
3D3295EA
3E883127
BDB05532
BDEA4A8C
3D6075F7
3E3B15B5
3DF487FD
BE13A92A
BE01D7DC
BE19999A
3DFEC56D
3D10FF97
3E0CCCCD
BE6E978D
3D02A993
3E59B3D0
BE6C56D6
3DBDA512
BDFF9724
BDBF4880
3E750B0F
3C449BA6
3E18ADAC
BC54FDF4
BDC6A7F0
BE2EE632
3E4D013B
BD1E1B09
BE591687
BD6631F9
BD3E76C9
3D03126F
BDAF837B
BC15182B
BE4CCCCD
BD11D14E
3E1B8BAC
3DF1758E
BBFF9724
BD68A71E
BDC8E8A7
BE2147AE
BDAD42C4
3DCF0D84
BBDED289
BD9E1B09
BE7837B5
3CEF34D7
3D1CE076
3D94AF4F
BDF10CB3
BE074539
BDBE425B
3C809D49
3E08E8A7
3D4779A7
3DF1A9FC
BD1C779A
3E3923A3
BD809D49
3DC28F5C
BC6F34D7
BE526E98
3E10B0F2
BDEC8B44
3E361134
BDE56042
BCD9E83E
BBA3D70A
3DAA9931
3D9BA5E3
3E0E2196
3DF41F21
3E558106
3DDD97F6
BE7B15B5
3D09374C
BDDB8BAC
3E008312
BD2C0831
BD858794
BC95182B
BCBC6A7F
BDADAB9F
3D2C0831
BDE147AE
BE6A3055
BE16A162
BCD844D0
3E3212D7
BE1C91D1
3E010625
BD9A6B51
3CB0F27C
3CACD9E8
BDB1C433
BD800000
3D408312
3D5566CF
3D14AF4F
BD7212D7
BD14AF4F
BDAD0E56
3CDB8BAC
BC84B5DD
3D49EECC
3D985F07
3E0E703B
BD1C0EBF
3E4AF4F1
BE229C78
3DDE353F
3DB089A0
BD86F694
3E35C28F
3E29AD43
BC4CCCCD
BE61B08A
3CE3BCD3
BD81D7DC
BE23A29C
BD202752
3C5B8BAC
BD841893
3DB573EB
BE027525
3D37E910
BD03E426
3C92A305
3E4BE0DF
3D958106
3DEF9DB2
BC11D14E
BCBFB15B
3D872B02
BD0E8A72
3CED9168
BD886595
3E404EA5
3E33D07D
3A6BEDFA
BE669AD4
3DDFD8AE
3E7C3611
3E2DAB9F
3E2FD220
BDCBFB16
BE521FF3
3DC8B439
3E30068E
BE004EA5
3DE2EB1C
BD243FE6
BE4C2F83
BC0E8A72
BDFC5048
BD271DE7
BC816F00
BDB295EA
3D6631F9
BD1BA5E3
3E0FF972
BE4ADABA
BE1758E2
BDEE2EB2
3D656042
3D96872B
3DDB573F
BDEC8B44
3DA8F5C3
BDFB7E91
3E45A1CB
BE121FF3
BE4B4396
3DF0068E
3DD460AA
3DF93DD9
BD7C5048
3DA8240B
3E7D70A4
BE4C985F
3D1D4952
3DCA233A
3CD35A86
BE24A8C1
3E041893
3DB404EA
3D7BE76D
BE484B5E
BDE1E4F7
BDDCC63F
3B1D4952
BE74BC6A
BCE56042
3DE3BCD3
BE889A02
BD8E5604
3E65AEE6
BBBAC711
BDF0D845
3E0432CA
3E523A2A
3E18FC50
3E397247
3C70D845
3D428F5C
3E149518
BD96F007
BD628241
BE264C30
BD926E98
BC1BA5E3
3D9E1B09
BE1AD42C
3D8DED29
3E182A99
BD35DCC6
3E24DD2F
3E4FDF3B
BDABD3C3
3DA05BC0
3E49A027
BE827525
BCB6AE7D
3DB4A234
3E3C6A7F
BDCD013B
3CDB8BAC
BDA1FF2E
3E1E1B09
BD6631F9
BC0E8A72
3DE3F141
3DB33333
BCC3C9EF
3DA75254
BE008312
BDAE48E9
3C872B02
3D4FAACE
3E283E42
BE189375
3E000000
3D947AE1
BE39A6B5
BDFE2824
3E5A511A
BD1C779A
3E3A43FE
BD816F00
BDBEAB36
BE16A162
3DDF6FD2
3C89A027
3E1A511A
3D800000
BD1374BC
BDC154CA
3E290FF9
3CE56042
3C06594B
3E3B15B5
3DE703B0
3DE9AD43
3E43AFB8
BDB81D7E
BD484B5E
3D35DCC6
3CF27BB3
3C09A027
BE245A1D
BDA9C77A
BCFB7E91
3E25119D
3D958106
3E0F5C29
BD90FF97
BE238866
3E0985F0
3D3B2FEC
3DE425AF
BD0BAC71
BE2DC5D6
3D3F4880
BDC63F14
3E408312
BD1BA5E3
BD8ADABA
3E1205BC
BD9096BC
BDA47454
BD6B1C43
BD00346E
BDB4A234
BE095183
3E5BF488
3D264C30
BE2425AF
BCBAC711
BDA0C49C
BC20902E
3E02A993
3DC63F14
BD4154CA
BE191687
BD8DB8BB
3D9A36E3
3DD4FDF4
BDC5A1CB
3CE703B0
BE257A78
BE009D49
BD4D35A8
BD6425AF
BD9C0EBF
BDF93DD9
3DA9930C
BE20DED3
3C42F838
3DEB50B1
3DC6A7F0
3E32FEC5
BE3E425B
BC816F00
BE1F8A09
BDCA233A
3D94E3BD
3D26B50B
BDE00D1B
3D2D42C4
BD9C779A
3D5B8BAC
BD23D70A
3AD1B717
BCEF34D7
BD84EA4B
BD9652BD
BE3923A3
BE060AA6
BD46A7F0
3E2B367A
3D3295EA
BDD3F7CF
BD130BE1
BE1758E2
BE1AEE63
BD82DE01
3E2DFA44
BD037B4A
BB79096C
3D8793DE
3E2075F7
3D947AE1
BDF9A6B5
BE40346E
BD73B646
BE5930BE
3DB46DC6
BD3CD35B
BDFB4A23
BDE9AD43
3D669AD4
3D123A2A
BE34BC6A
3CFDF3B6
BCE703B0
3CB295EA
3DA3D70A
3E47AE14
BD28C155
BE5AD42C
3B30F27C
BDAB367A
3E4D1B71
BE8425AF
3DAFB7E9
3DAEE632
BD8C154D
3E42C3CA
BE467382
3D0F5C29
BE6617C2
3CA71DE7
BD06594B
3DEB851F
BDD21FF3
BD8D1B71
BDF6FD22
3E3D21FF
BDC4D014
3E0CB296
BE3DF3B6
3E0F0D84
3CD5CFAB
3E1E9E1B
BD264C30
BC1BA5E3
3DDCC63F
BD683E42
BD762B6B
BE15CFAB
3E1013A9
3E5F8A09
BE16D5D0
BE89A027
BDA43FE6
3C858794
BE0538EF
3DD119CE
BD3C6A7F
3B51B717
3D92D773
BDA7EF9E
3CDE00D2
3E67381D
BD6703B0
3E3A5E35
3E57DBF5
3E2B020C
BD577319
BE78BAC7
3CC56D5D
BDBA5E35
3E1F8A09
BDADE00D
3E352546
BCDC5D64
BD84B5DD
BE08B439
3CEA4A8C
3E39F55A
BD051EB8
3E102DE0
3DD49518
3D5D2F1B
BE597F63
3D70068E
3C2DAB9F
BE4C2F83
3D4AC083
BC7F9724
3E60F909
BE3BB2FF
3D05F06F
3E53F7CF
3D7B15B5
3DDBF488
3DE353F8
3E4E2196
3E50CB29
BC4154CA
BE1D6388
BE4D1B71
3DFF62B7
BD72E48F
BC06594B
3D4C63F1
BCE703B0
3BF5C28F
3CAB367A
BDCF7660
3E1F212D
BD7837B5
BE1CC63F
BDC36113
3D73B646
3E09EECC
BE046738
3D74F0D8
3E2786C2
BDDC91D1
BDE7381D
BE0A8C15
BB30F27C
BD46A7F0
3C809D49
BD94E3BD
3E4AC083
BC978D50
BD96F007
3E224DD3
BE2147AE
3DA29C78
3E47AE14
BDA9FBE7
3D7A43FE
BCBB98C8
BD930BE1
3CE631F9
BC656042
BDF14120
3E0A8C15
3E3CED91
3D0E8A72
BC6D9168
BD9C0EBF
BBE8A71E
3D4FAACE
BDC67382
3E5CE076
3D7E5C92
3B5844D0
3E37CED9
3E126E98
3D1DB22D
3E79DB23
3D985F07
BD202752
BE6A161E
3DBFB15B
3C30F27C
BEA0346E
BDEE2EB2
BDDF6FD2
3E1F212D
BDB9F55A
3DB851EC
3E02F838
3DAB9F56
BDCB5DCC
BD06594B
BDF58E22
BE1288CE
3D8C7E28
3D87C84B
BD5AB9F5
BDD0B0F2
BE31758E
3E20DED3
3D5E00D2
3D06594B
BDF4F0D8
BE219653
BE68F5C3
BCE2EB1C
3D9930BE
BDC1205C
BE7CB924
3CE631F9
BDB4D6A1
3CEE6320
BDC91D15
BD7837B5
BDA5AEE6
BDE425AF
BDF1DE6A
3DB4D6A1
3DFF9724
BDD32618
3D690FF9
BE194AF5
3DD70A3D
BC343958
3DA05BC0
3E915B57
BE3C6A7F
BE6B851F
3D037B4A
3DC2C3CA
BDE11340
3E189375
3D549518
3D3AC711
BCD5CFAB
3DDB573F
3E7C1BDA
BDB43958
3CA9930C
3E28F5C3
3C89A027
BD92D773
BDDAB9F5
3DC9BA5E
BDD7DBF5
BB09A027
3E2D42C4
BD010625
3D83AFB8
BD2C710D
3E0A0903
3DA88CE7
BE144674
3DFB4A23
BCC985F0
BD549518
3D5013A9
BE13A92A
BDDD2F1B
BE836113
BE35A858
3E3CD35B
3D83AFB8
3AAA64C3
3D9374BC
BE61B08A
3E0DED29
BD3295EA
BD12A305
3E294467
3E1EECC0
BC68A71E
3B1D4952
BD20902E
3BB78034
BBC154CA
BD4FAACE
BE0EF34D
3D7765FE
BE10CB29
3C63BCD3
BE10B0F2
3E4B923A
BCD91687
BD816F00
3B83126F
3E54AF4F
3C1BA5E3
BD9C432D
3E4C154D
BD875F70
3E2F0069
3E40D1B7
3CC8B439
BD436113
BDC84B5E
BD77CED9
3E2D9168
3D8EF34D
BCEBEDFA
BE39C0EC
3E420C4A
3D8F5C29
3DB2FEC5
BDB18FC5
BE1C28F6
3D116873
3DDC28F6
BE1F8A09
BE44B5DD
3E19652C
BE248E8A
BD1B3D08
3E314120
BD978D50
3D68A71E
BDBDA512
BD18C7E3
BC9D4952
3DE703B0
BDD21FF3
3E02DE01
3C5844D0
3DBBCD36
BE22D0E5
BE2B020C
BDED288D
BD4779A7
BD24A8C1
BE13C361
BDA0902E
3D94E3BD
BD9E4F76
BC16BB99
3E1BA5E3
BE4F7660
BD185F07
BD64F766
BDB18FC5
3B9A0275
3D8068DC
3D4D9E84
BE2C3C9F
BD0E2196
BDE24DD3
BD8A3D71
BDA0F909
3E379A6B
BD8C49BA
3DE76C8B
3DA7BB30
3CBC6A7F
BD33D07D
3D71A9FC
BE83D70A
3DD013A9
3E37E910
3E12A305
BD683E42
BD185F07
3E056D5D
BDF837B5
3E1D6388
3D95E9E2
BD1B3D08
3E1E83E4
3DDFD8AE
BD25E354
3E06C227
3D4154CA
3D621965
BDE45A1D
3BBAC711
3C378034
BC28C155
3CB43958
3E34A234
3D597F63
3D13DD98
3E0E5604
BE7AE148
BCE7D567
BDD63886
3DA9930C
3E4AA64C
BE1758E2
3E013A93
3E036113
3D99CE07
BD9F8A09
3D1A0275
3DA8F5C3
BDA8C155
BD47E282
3DF80347
3D734D6A
BE09EECC
BE15182B
BDD8ADAC
3E1D14E4
3DB0BE0E
3D401A37
BCD288CE
3E212D77
BE502DE0
BE0538EF
3E03126F
3DCE3BCD
3D91D14E
3E8A233A
3C449BA6
BDFB4A23
3E74BC6A
3C79096C
BDEC2268
BD99CE07
3DA6809D
3E2DFA44
3E04EA4B
BE602752
3D8B0F28
BDE2B6AE
BE432CA5
BDFB15B5
3E8A3D71
3CF1A9FC
3E02C3CA
BD26B50B
3E2161E5
BBADAB9F
3E016F00
3DE2EB1C
BD67D567
3E621965
BDF80347
BE0B7803
BCC22681
BE2E2EB2
BD371759
3DA0902E
3DCAC083
3E1119CE
BD4154CA
BCC08312
BD89A027
3D5E69AD
BDCAF4F1
3EA24DD3
BE121FF3
BDC95183
3E28DB8C
3E09A027
BE2BEDFA
BDBFB15B
BD5013A9
BDCC63F1
3E1566CF
BD844D01
3E836E2F
BE02C3CA
3D2D42C4
BE6C710D
BCBC6A7F
BD8A0903
3D35DCC6
3D0D4FDF
BDD66CF4
3BA71DE7
3E496BBA
3E28C155
BDE8A71E
3D27EF9E
3E12BD3C
3C944674
BDC60AA6
BE5F559B
3E341F21
3E884B5E
BCD288CE
BE21B08A
BE0CCCCD
BDA85879
3C51B717
3DC9BA5E
3E3D07C8
3E4B5DCC
BD4B923A
BC9AD42C
BE3C5048
3C16BB99
BE3C01A3
BD79096C
3E125461
3DDBF488
3DECF41F
3DE7381D
3CBAC711
3E2E978D
3D563886
3DCD9E84
BC8DB8BB
3D958106
BC30F27C
3D12A305
3D072B02
3DA5460B
BE086595
3DFA43FE
BE14E3BD
3D22339C
BE25119D
BD1CE076
BD9FBE77
BE23F141
BE2CA57A
BD683E42
BDC710CB
BE3837B5
3E31758E
BDCC985F
BDB78034
3CBE0DED
3DCDD2F2
3D4D9E84
BE4B0F28
3DC18937
3E2C710D
BD398C7E
3E3AACDA
BE80EBEE
BD886595
3CC22681
BD982A99
3E14AF4F
BBF5C28F
BCED9168
BD7F9724
3DC7AE14
3CBFB15B
BC09A027
BE446738
3DCE703B
3DB98C7E
BE2D5CFB
3E0C2F83
3DF9096C
BC06594B
3E55182B
3D94AF4F
BE8BD3C3
BDA4A8C1
BA03126F
BE2FB7E9
BE2147AE
3E49A027
3E4BAC71
BE3EF9DB
BD15E9E2
3E18793E
3E008312
BE16872B
3E191687
BC0E8A72
BE65460B
3D401A37
BE05D639
BE851EB8
3E486595
BC47E282
BDBB2FEC
3D371759
BCA57A78
BCEE6320
3E79096C
3D9F8A09
BE044D01
BDA36E2F
BCD0E560
3D4A57A8
3E032CA5
BE31758E
BC741F21
3DA85879
3E3FE5C9
BD8BAC71
BCDC5D64
3CED9168
BE380347
3E56BB99
3D3089A0
BE486595
3D6703B0
3C271DE7
BE032CA5
BDB573EB
3D9B089A
BD841893
3E74A234
3C809D49
BDD91687
3DFC5048
3E0902DE
BD6A4A8C
BE228241
BD59E83E
3D5ED289
BE27D567
3E243FE6
3D8DB8BB
BE266666
BE0F5C29
BDC538EF
BE2F0069
3E5CC63F
3D8346DC
BD82A993
3C985F07
3D4B923A
BE18E219
BE3AFB7F
3D8C49BA
BE1BC01A
3E28DB8C
BE21E4F7
3D41BDA5
BE5C0EBF
BD463F14
3D2A64C3
BE78BAC7
3DC22681
BE2594AF
BE4F41F2
3E5119CE
3DD844D0
3E00B780
3DFEF9DB
3C42F838
3DECBFB1
BD5CC63F
3E04B5DD
3E39096C
3B23D70A
BE631F8A
3D243FE6
3E88240B
BDDB8BAC
3E12A305
BDC779A7
BD923A2A
BDC5A1CB
BE256042
3B79096C
BD3FB15B
3E8425AF
BE39F55A
3DDC5D64
BDEAB368
BE857A78
BD1CE076
BE16D5D0
3C47E282
BDFB7E91
BDEAB368
3DD1EB85
3D841893
3E346DC6
3C35DCC6
3CC985F0
BDA12D77
3D1AD42C
BCFDF3B6
BD57DBF5
3DECF41F
BD54FDF4
3D9E1B09
3E14E3BD
3E025AEE
3E3CED91
3D29FBE7
3D841893
BC978D50
BE48B439
3D507C85
BE04D014
3DACA57A
3D1E1B09
3E436113
BE0B0F28
3E1A1CAC
3E722D0E
3D93DD98
BDC0B780
BE1B8BAC
3E5DE69B
3BC154CA
BE425AEE
3CBAC711
BDD73EAB
3DFB7E91
3DAA64C3
3E705532
BE458794
3E3FB15B
3D947AE1
3D315B57
3E4FAACE
BDE94467
BD1C779A
BDCA57A8
3D378034
BC449BA6
3D463F14
BCE48E8A
BD868DB9
BD5B8BAC
BC4E703B
BBBAC711
3D185F07
3D6E6320
3E1F559B
3D1930BE
BD4D9E84
3E489A02
3E8C985F
BD41BDA5
BC42F838
3DF318FC
3E4F7660
3DFB4A23
BD31C433
3DA02752
BDAD7732
BCFC5048
3C03126F
BE29E1B1
3E1B22D1
BE6F6944
3E93D07D
3DFC84B6
BE30BE0E
3D6425AF
3D8D1B71
BDFF9724
3E08B439
3E303AFB
BE27D567
3DB67A10
BC23D70A
BCB9F55A
3DE1E4F7
3D85BC02
BD92A305
BE0F7660
3DC87FCC
3DD4FDF4
BE388659
BE90B0F2
BDCA57A8
BDAA64C3
3DB2617C
3E056D5D
BE68A71E
3C3C6A7F
BE0C2F83
BB7F9724
BDE2B6AE
3E7BE76D
BDD70A3D
BDB0BE0E
3DC91D15
3C985F07
BD95B574
3E0C2F83
BE14E3BD
BDF9A6B5
BCCD9E84
BD9FBE77
BCE631F9
BDA4A8C1
3E0D35A8
BE0A8C15
BD16BB99
BDD8ADAC
BDCB923A
3E5A36E3
3E05BC02
3DFFCB92
BC0E8A72
BD1B3D08
BDE978D5
3CD42C3D
3DF8A090
3D7E5C92
3E7381D8
BE39A6B5
BC54FDF4
3D2CD9E8
3CD5CFAB
3C79096C
BD9CAC08
BE13404F
3D037B4A
BD8F27BB
3E30068E
3D9A6B51
3CA64C30
3E05D639
3E597F63
3DAB6AE8
3D18C7E3
BE269AD4
3E37B4A2
BDB6AE7D
BC09A027
3E2C2268
BCD35A86
3E437B4A
BE013A93
BDE4C2F8
3DBDD97F
BC3295EA
BD8C7E28
3DCC2F83
BDB46DC6
BD648E8A
3E191687
BE1E1B09
BE01D7DC
BD072B02
3E52A305
3CC154CA
3D8FC505
BE0BE0DF
3DA05BC0
3E00346E
BCF1A9FC
BBFC5048
BDF79A6B
3E4EF34D
3C35DCC6
3CC08312
BD7765FE
3E32E48F
3DC32CA5
BE1C28F6
3E096BBA
BD741F21
BDE9AD43
BDCB5DCC
3E4E5604
BE05D639
3DD42C3D
3DFAACDA
3DA0902E
BD8A0903
BE275254
BC3AC711
3DC2F838
BE219653
BD3DA512
3E2C710D
3E191687
3DC9BA5E
3D7AACDA
BE17F62B
BDEB50B1
BDCA233A
BD621965
3B378034
BDF58E22
3BB43958
BBFF9724
BD271DE7
3D3F4880
3DE1B08A
3D03126F
3DFBE76D
BD3E76C9
3DF06F69
3BD844D0
BE4AF4F1
BD3923A3
BCEE6320
3D57DBF5
3DBF7CEE
BD1C0EBF
BE1374BC
BDB33333
3E1205BC
3E8A233A
BDF27BB3
BE1013A9
3B378034
3E25E354
3D285879
BE0D9E84
3DF06F69
3E49A027
BE13A92A
BDC28F5C
3E4E075F
BE9E69AD
BBD1B717
BDA40B78
3D037B4A
3E1205BC
3D8A3D71
BE089A02
3E229C78
3E26E979
3D597F63
3C6703B0
BDFF62B7
BE885879
BD25E354
3E7EC56D
BE365FD9
BC621965
3E039581
3CE2EB1C
BD78A090
BE5D4952
3CF0068E
BE0FF972
3C79096C
3D8A71DE
3D3A5E35
BE34538F
3D8240B8
BD5CC63F
3D8DB8BB
3C6BEDFA
BD40EBEE
3E06594B
3D3C6A7F
BD91D14E
3E177319
BD69E1B1
3E02C3CA
3E400000
BDFEF9DB
BDB78034
3DA2339C
BDBEAB36
BC91D14E
BE15B574
BCCF41F2
BDC0B780
3E3923A3
3D6C56D6
3CAC0831
BE147AE1
3CE075F7
3D4A57A8
3DA5E354
BD398C7E
BE074539
3DCF41F2
3E34BC6A
BD958106
3D3FB15B
BE39096C
3C68A71E
BD944674
BE0B0F28
3D9E83E4
3CC3C9EF
3E243FE6
BDFB7E91
BDFB15B5
BDC9BA5E
BE154C98
BE4DD2F2
3D75C28F
3E004EA5
BD7B15B5
3E1205BC
3C15182B
3DDF6FD2
3E19999A
3DF318FC
BE6F4F0E
BB83126F
BD982A99
BE3EAB36
BD2DAB9F
BDB295EA
3DF6FD22
3C343958
3CE21965
3E41D7DC
BE0779A7
BDE425AF
BC809D49
BE2ACD9F
3D3DA512
3DD66CF4
BC4E703B
BE4068DC
3E2A161E
3D99999A
3E072B02
3E3126E9
3E00D1B7
BE032CA5
BE4BE0DF
3DEE978D
3E3E76C9
3E5D14E4
BE154C98
BE1EECC0
BE0D013B
3DDA511A
3C185F07
BD954C98
BD00346E
3E7923A3
3C621965
BE2A64C3
BDC779A7
BDCA8C15
BD706F69
BE28DB8C
BDE94467
BDC67382
BE240B78
3D7F2E49
BDCD35A8
BD449BA6
BE247454
BD8A0903
BE388659
3E17A787
BCCBFB16
BD2E7D56
3DDF3B64
3DB74BC7
3E0AF4F1
3DFDF3B6
BDD8793E
BE1FA440
BDC95183
3C257A78
BDF765FE
BE441893
BE3295EA
3CF765FE
3DF62B6B
3DDD6388
BE2CF41F
BDC6A7F0
3DA12D77
BE0D35A8
3E10CB29
BE4FDF3B
BDBFE5C9
BD978D50
BDC18937
BD648E8A
BCE703B0
3E4240B8
BCB851EC
3C449BA6
3E1F3B64
3E14AF4F
3D37E910
3CDED289
BDBC9EED
3CBFB15B
3E9E83E4
BE33D07D
BD8902DE
3E17F62B
BE051EB8
3B656042
BE3765FE
BE3A5E35
3D4B923A
BE10FF97
3DD4FDF4
BE6EE632
BE049BA6
BE16BB99
3E60F909
3D9C432D
3C6D9168
BE116873
3D90624E
BE369446
BDD70A3D
3CD1B717
BD90CB29
3DCEA4A9
BDF2B021
3B2A64C3
BD7A43FE
3E13404F
BDA29C78
BE19E83E
3DD1B717
3E30A3D7
BDBA5E35
BD656042
3D0240B8
3DF6C8B4
3D05F06F
BD6CBFB1
BD3367A1
3E29930C
3DF8A090
BE5E353F
BCB9F55A
3E19B3D0
BD9F212D
BE121FF3
BE194AF5
3DC91D15
3DF0D845
BE933333
3DEAE7D5
BCF41F21
BE3C9EED
BDCDD2F2
3E1BA5E3
3E3A29C7
3DCA233A
BE049BA6
3C816F00
BDAFB7E9
BE36FD22
3E41A36E
3DE04189
BDE147AE
BDF93DD9
3DC28F5C
3D350B0F
3D93A92A
3C2C0831
BCE8A71E
3DA7EF9E
3BE21965
BDF2E48F
BCFAACDA
3DA95E9E
BCC63F14
BE1EB852
BDACD9E8
BBE8A71E
3D40EBEE
3E03AFB8
3D8AA64C
3E5844D0
3BA0902E
BE26B50B
BDACA57A
BDF5F6FD
BD0EF34D
3E4E2196
3DB6E2EB
BE0E5604
3DA9FBE7
BE26B50B
3C90FF97
BD7C5048
BE0FDF3B
3D9205BC
BC8CE704
BC95182B
3DC67382
3D99999A
3D6D9168
BE30A3D7
BDC60AA6
3D9F559B
BE4A233A
3E1460AA
3E05BC02
BE020C4A
3E191687
BE0D844D
3DD42C3D
BE441893
3DC04EA5
3B30F27C
BE2872B0
BD02A993
BDF559B4
3D4CCCCD
3E132618
3E06F694
BC3AC711
BCDC5D64
3B4B295F
3E010625
BB30F27C
BB5844D0
BD072B02
3D9A9FBE
BE087FCC
3E075F70
BCE8A71E
3E12BD3C
BE0A8C15
BDE00D1B
BD9F8A09
3E0AF4F1
3C30F27C
3E2B851F
3E4C985F
BDB67A10
3D5E00D2
BCEBEDFA
BD5D97F6
3CCD9E84
3E5DB22D
BD9930BE
3DFF62B7
BE1A6B51
BE13404F
3BCE703B
BE542C3D
3DC28F5C
3DD91687
BA51B717
BD4B295F
BCBD3C36
3E217C1C
3D5CC63F
3D5BF488
3E102DE0
3CC49BA6
BE01D7DC
BD9374BC
3C9C779A
3D597F63
3D38BAC7
3D99CE07
3DB4D6A1
BDF24745
BE1EECC0
3C6D9168
BCA64C30
3D7E5C92
BDBCD35B
3E907C85
BE10624E
3CDC5D64
BDB05532
3E8E6320
3CA4A8C1
BD59E83E
3CEA4A8C
BD9A6B51
BCD0E560
3DDF06F7
BC9374BC
BD954C98
BDE8A71E
3E4710CB
BD82DE01
BE90CB29
3E119CE0
3D37E910
3E2E6320
3E0793DE
3E60C49C
BE416F00
3DA02752
BE6E48E9
3E10624E
3E046738
3E1288CE
BE185F07
BC6703B0
BD229C78
3E194AF5
3D0F5C29
3E49BA5E
BE51B717
BD99CE07
3D6DFA44
BE77E910
BDE17C1C
3E3CD35B
BDC39581
3E847454
BD6B1C43
BDE9E1B1
BD5013A9
BD919CE0
3DB5A858
3E33EAB3
BBDED289
3E4BC6A8
3C59E83E
3DEDC5D6
BAD1B717
3E1C779A
BDC710CB
3D9C432D
BDAA64C3
3E10E560
3E224DD3
3D41BDA5
BC4B295F
3DA9930C
BD1E1B09
3DAFB7E9
BCC08312
3E1FA440
3B03126F
3D1DB22D
BC3295EA
3E3645A2
BDB1C433
BDF6FD22
BDC28F5C
BDFC1BDA
3D70D845
BE2FD220
BE397247
3E513405
3DA75254
3D64F766
BDCE075F
BC9FBE77
BE3089A0
BDD566CF
3C7DF3B6
3E9CE076
BDC779A7
BA03126F
3D53C361
BBD1B717
BE000000
BD8B0F28
BE121FF3
BE7C5048
3B96BB99
3DFC1BDA
BE22680A
3E191687
BD9F212D
BE0FDF3B
BE34D6A1
BDB1C433
3D2EE632
3D7AACDA
BE04B5DD
BE573EAB
3DC985F0
BD8793DE
BDB2CA58
3E126E98
3C3C6A7F
BDEF34D7
BD816F00
3DD182AA
3E2B020C
BCFAACDA
3C5B8BAC
BE2ECBFB
3E4816F0
BE611340
BE1205BC
BE1C779A
BE4FAACE
BE6E6320
BE69AD43
3D4CCCCD
3E83E426
BE7089A0
3DB9F55A
BD0C7E28
3DA57A78
BD6CBFB1
3DFA43FE
3D6075F7
3E06C227
3D0B4396
3DA3A29C
BE12A305
BDC56D5D
3DA7BB30
BE0C49BA
3DB61134
3CB0F27C
3E0FAACE
3E14AF4F
BE228241
3D20F909
BE022681
BD82A993
3E204189
BE02C3CA
BE59B3D0
BE0A233A
BBDB8BAC
BE4AC083
BE17A787
BE160419
3DF1DE6A
3D913405
BDA5119D
3E353F7D
BE4F41F2
BE4985F0
3E2161E5
3DD42C3D
BDEF34D7
3D6B1C43
3DFA786C
BDA2680A
3C9E1B09
3DBC01A3
3CBD3C36
BE643FE6
BCC56D5D
3D0EF34D
3DEDC5D6
3E114E3C
3DF62B6B
3BD1B717
BCE8A71E
BDE7A0F9
3D809D49
3D4D9E84
3C6F34D7
3D315B57
BE0C985F
3DD81062
BD55CFAB
3E1CFAAD
BE21CAC1
3E3D566D
3D463F14
3E3AC711
3D61B08A
3D436113
3B03126F
BC2DAB9F
BE03126F
3DA2D0E5
BE367A10
3DE4F766
BD2B367A
BE26809D
3DB404EA
BE3AC711
BE1D2F1B
3D9FBE77
BD6DFA44
3E166CF4
3CF27BB3
3D93404F
3D8D1B71
BE22680A
BDC36113
3E3E425B
3E19652C
BDFBE76D
3E1460AA
BE3559B4
3E24C2F8
BC20902E
3D8EF34D
3D0BAC71
3E04D014
BE0538EF
BE3B645A
3D96F007
BC89A027
3E016F00
BDC6A7F0
3E5DB22D
BD563886
BE427525
BDE11340
BE28240B
BDC50481
3C8E8A72
BE2DFA44
BE07E282
BDAD42C4
BD010625
BE7020C5
BD1374BC
BD62EB1C
BCFF9724
3EAB0F28
3EB26E98
BE10E560
BD95B574
BD50E560
3DD2BD3C
BDB15B57
3E93F7CF
3DA85879
BC84B5DD
BCCE703B
BC1BA5E3
3D5D97F6
3E2D0E56
BD8FC505
BE01205C
BDB3D07D
BDB1F8A1
BB656042
3D542C3D
3C4B295F
BE067382
3E1C28F6
BDB67A10
BDDE00D2
3CA4A8C1
3CE21965
BDA0902E
3E28240B
3E3573EB
3E141206
3E381D7E
BE022681
BC1EECC0
3DB3D07D
3DC3FE5D
BD59E83E
3D7CB924
3D7B7E91
3D22339C
3D5C5D64
3E98BAC7
3DAC710D
3BAA64C3
BD072B02
3E49374C
3DB2FEC5
3C8CE704
BE0B0F28
3DD73EAB
00000000
BD18C7E3
BE01F213
3C8240B8
3C102DE0
3D68A71E
3E353F7D
BDDBC01A
BD902DE0
3DD53261
BD79096C
BDA5460B
3E1C28F6
BE1930BE
BDDBC01A
3D422681
BE27A0F9
3E570A3D
BE0ADABA
BE1F06F7
3D202752
3CE56042
BDA64C30
BE24A8C1
BE114E3C
BE051EB8
BD9A0275
BD371759
BD8E5604
3E041893
BCEA4A8C
BE3487FD
3C9C779A
BDE69AD4
3D855326
3C9EECC0
3E5B7176
3DBB645A
3DB9C0EC
3D600D1B
3D762B6B
BDB7E910
BD3FB15B
BD5A511A
BE78BAC7
BD5A511A
3D521FF3
3D97C1BE
3D54FDF4
BDE0AA65
3C5844D0
3E32E48F
3DEDFA44
BE513405
BE050481
3D016F00
3DDD2F1B
3E58C7E3
3D9F8A09
BDCD6A16
BD5B22D1
3CDFA440
3C8C154D
3D4985F0
BB30F27C
3E72E48F
3DBA92A3
BE67381D
3E29930C
3DBFE5C9
3DE703B0
BD76FD22
BC0CE704
BE09BA5E
BDDCC63F
BE256042
3D79096C
3CACD9E8
3D930BE1
BCBB98C8
3E93EAB3
BD51B717
3BF5C28F
BDD04817
BD9E83E4
BE4154CA
BD9C779A
BD83AFB8
BE1BDA51
BEAA9931
BD0D4FDF
3D8D4FDF
3E30068E
BE2CD9E8
BE205BC0
3E64DD2F
3DBB2FEC
3DC56D5D
3D46A7F0
3D769446
BE705532
3C83126F
3E521FF3
BD9B089A
BE16F007
BE020C4A
3E3C1BDA
BDAB9F56
3C7DF3B6
3E8D4FDF
BD985F07
BE1FBE77
BE1F212D
3D2D42C4
3E3212D7
BE6F837B
3E29FBE7
3E998C7E
BE6872B0
BC51B717
BDBE0DED
BB102DE0
BE83D70A
3DE90FF9
3D7BE76D
BD1B3D08
3DAD0E56
3E01F213
BD41BDA5
BDC8B439
BDBBCD36
3E0779A7
3D9BA5E3
3E000000
3E037B4A
3E096BBA
3DE90FF9
3D8F9097
3DAE147B
BE22B6AE
BD916873
BD1B3D08
BD6703B0
BDB0BE0E
3DDD97F6
3D549518
BE01F213
3DE8DB8C
BDB6E2EB
BE5FBE77
BD8DB8BB
BE2C56D6
3D6D288D
BD8F5C29
BDB88659
3B9D4952
BE04B5DD
3DCD35A8
3DD4C986
BD947AE1
BE16BB99
3DE8DB8C
3E03AFB8
3DFC84B6
3CEBEDFA
BDFC84B6
3DB53F7D
BDA57A78
BE29FBE7
3D18C7E3
BD6703B0
BD5A511A
3E3AFB7F
3E07E282
3C9E1B09
BCE147AE
3DE425AF
3D62EB1C
3CA4A8C1
BE1DB22D
3DFEC56D
BD4B923A
B8D1B717
BDDC91D1
3D80D1B7
BD37E910
3EAF9097
3E0C154D
BDEF6944
BD78A090
BCCE703B
3E0B5DCC
BDCE075F
BD3D3C36
BD947AE1
BCB0F27C
BE0C7E28
BE182A99
3DFEF9DB
3DDC28F6
3DC1F213
BD2B9F56
BAEBEDFA
3D1C779A
3ADED289
BD8B7803
BD20F909
BD82A993
BCF4F0D8
BD1B3D08
3D0D4FDF
3DCD9E84
BE3E2824
BA83126F
3D9C0EBF
BE020C4A
3E48E8A7
3D872B02
3A6BEDFA
3E5D4952
3DA95E9E
BC35DCC6
BDCFAACE
3E0D844D
3DA2D0E5
BE025AEE
3DAE7D56
BC1374BC
3C8240B8
BCF9DB23
3E5D4952
BE0AC083
39D1B717
BECA3D71
3DD25461
3D1374BC
3BAA64C3
3D2C0831
3E072B02
BE0FAACE
3E6147AE
3D8C7E28
BD202752
3D597F63
3E1BC01A
BDD4FDF4
3C79096C
BD450481
3DCD6A16
BC6703B0
BD28C155
BDD32618
BE39DB23
3D0793DE
3D8B4396
BDB22D0E
BE800000
3D172474
BE05BC02
3DB95810
3E116873
3E0ADABA
BD86594B
BD9096BC
BE252BD4
3E38EF35
3E056D5D
3D39F55A
BB5844D0
3D1E83E4
BE7BE76D
3C51B717
3E3CED91
3E18ADAC
BDC36113
3E269AD4
3D82DE01
3D36AE7D
3E314120
BC5ED289
BD844D01
BE016F00
BD130BE1
3D7F9724
BC63BCD3
3E22680A
3D9B3D08
BE39096C
BD8624DD
BDAB6AE8
3E125461
3DC7AE14
3D9930BE
3E036113
BE4FAACE
BCDD2F1B
3E15182B
3D6F34D7
BD84816F
3E3F62B7
BE68C155
3E5F8A09
BD8240B8
3DE56042
BC4E703B
3D919CE0
3E6631F9
BE2B50B1
3D4BFB16
BCD42C3D
3D99999A
BBF27BB3
BDA2D0E5
3D5D2F1B
3D762B6B
3E161E4F
BD989375
BE753F7D
BDE94467
BDAF837B
3DD7DBF5
BE1E4F76
BE2FD220
BDCF41F2
BCC154CA
3B16BB99
BE4793DE
3CA2339C
3D436113
3E758E22
3E17A787
BE6B9F56
BCA4A8C1
BD0A0903
BD350B0F
BE0D6A16
BE084B5E
BE6D9168
BD6BEDFA
3E4F7660
3E269AD4
BCA64C30
BE48CE70
3DD59B3D
3E4D4FDF
3D7212D7
BC185F07
3E409D49
3E867382
3E17C1BE
BE427525
3D1BA5E3
BD408312
3D5D97F6
3D50E560
3D9A6B51
BC07FCB9
3CFDF3B6
BE418937
BE413A93
BDD38EF3
BE36E2EB
BA6BEDFA
3D350B0F
BD5566CF
3CEB1C43
3E0E8A72
3E710CB3
3E7E425B
BC902DE0
3DF2B021
BE5CE076
3CD844D0
3E4EF34D
BDB2617C
3E256042
3DA6E979
BDF318FC
BDC154CA
3DFDBF48
BDED9168
3DD14E3C
3E01F213
3D8CB296
3C809D49
BE1758E2
BDE04189
3D902DE0
3B449BA6
BDA05BC0
3C621965
3E1DE69B
3E14AF4F
BCB0F27C
BD243FE6
3DBB2FEC
BE24C2F8
3DDD97F6
3CDB8BAC
BD797247
BD285879
3CEBEDFA
3D20902E
3DA5460B
3CB851EC
3ADED289
BDD25461
BE41205C
BE0346DC
BE0C49BA
BC6A4A8C
3DB404EA
3D6075F7
3DBD07C8
BDE631F9
BDF4F0D8
BDC49BA6
3DC67382
3CE631F9
3D5D2F1B
3E6809D5
3E087FCC
BE1374BC
3DF4F0D8
3E1C432D
BE439581
3D809D49
3DEAE7D5
BA83126F
BDC985F0
3E83D70A
3E03C9EF
BDCC985F
3DE6CF42
3E4D9E84
BD81D7DC
3C4E703B
3D422681
3DFE5C92
3C95E9E2
3E1096BC
BD6C56D6
3D6D9168
BD09374C
BD9A0275
BC4CCCCD
3E4D35A8
BE6809D5
BD714120
BDB1C433
3E123A2A
BDAC710D
3DB0BE0E
3D0793DE
BDAA3055
BB656042
BDEF6944
3DE0AA65
BD7B15B5
3E7CB924
BC1D4952
3D6D9168
3E3020C5
BE149518
3E06C227
BCB6AE7D
3DBF7CEE
3E0C2F83
3E468DB9
3DCFDF3B
BE2F34D7
BDFC5048
BDF4F0D8
3E160419
3E39F55A
3DC87FCC
BE3F1412
3CEE6320
BCB923A3
BDF837B5
3E781D7E
3E02DE01
3D84816F
BC06594B
BD690FF9
BE409D49
3D1E83E4
BE16872B
BDCD6A16
3E486595
3D8B0F28
BDA8C155
3E14AF4F
3E0710CB
3E004EA5
3D11D14E
3DC0B780
BD1AD42C
3D51B717
3E23BCD3
BBDED289
3CB9F55A
BE7FCB92
BCE8A71E
BE0BAC71
3CDB8BAC
BA902DE0
3DF2E48F
3E41BDA5
BD1AD42C
BD0D4FDF
3DD9E83E
3DFB15B5
3D7765FE
BE3AE148
BDAC3C9F
3E060AA6
3E5F8A09
3A1D4952
3D8D1B71
3DBF7CEE
3D86594B
BD8DED29
3E130BE1
3DCD013B
3C1A0275
BE0C2F83
3E0432CA
BDCB295F
BCA57A78
3B902DE0
3DC985F0
3C88CE70
3DF0D845
BD20902E
3E664C30
BCBB98C8
BC3E0DED
BE566CF4
BE42C3CA
BD591687
BCCBFB16
BE69AD43
BBCE703B
BDB573EB
BE42C3CA
3E15182B
3E0538EF
BE028F5C
3DABD3C3
3C727BB3
BB23D70A
BDCD6A16
BE0816F0
3D99CE07
3D6B1C43
3BD1B717
BE78D4FE
BC343958
3E993DD9
BDEC56D6
3CA7EF9E
BE3C01A3
BE05A1CB
3DD844D0
3E022681
3E121FF3
3E12BD3C
3CE703B0
BCBB98C8
3E6D288D
3E17DBF5
3DB61134
3DE52BD4
3D81D7DC
BE59E83E
3D116873
BE68C155
BCF4F0D8
3DE4C2F8
3C9EECC0
BCB1C433
BE39096C
BCECBFB1
BE612D77
3CA9930C
3E15E9E2
3E7295EA
3D600D1B
BD449BA6
3E27BB30
BCD844D0
3E6425AF
3DD9E83E
BD57DBF5
BCEBEDFA
BBD4FDF4
3E17A787
BBB78034
BC944674
3CEA4A8C
BD8C154D
BE2978D5
BA51B717
3BD1B717
3CF9096C
BD2C710D
3E397247
3DC91D15
3C35DCC6
3DF9A6B5
3DCE3BCD
BE305532
BE67D567
BD15182B
BDFE2824
BCE56042
3D3DA512
3E0068DC
BCADAB9F
BC4E703B
3D6AB368
BDF0A3D7
BD172474
3D7487FD
3E3B4A23
BE39C0EC
BE49EECC
3DC3FE5D
3D0C154D
BE8F9097
3DBEAB36
3C8CE704
BE26809D
BDA4A8C1
BDEF34D7
3D6147AE
3E605BC0
3E06F694
BCBEDFA4
3DF14120
BDD5CFAB
BD8E8A72
BD86F694
BE0EA4A9
3D961E4F
3E428F5C
BE24A8C1
BDB126E9
3D89D495
BCE21965
3B656042
3E94AF4F
BDAFEC57
BE1A6B51
BE166CF4
BDAD0E56
3DB71759
BD41BDA5
BE4A0903
BD8A71DE
3E0E5604
3CF0068E
3D41BDA5
3DB43958
3D1652BD
3E0BFB16
BE314120
3E906F69
3C79096C
BDF9096C
BDD566CF
BE32E48F
BE2F0069
BCBD3C36
BD6AB368
3E6EB1C4
3E19B3D0
BCAF4F0E
3E18FC50
BE353F7D
BE4AA64C
3E42F838
3CF4F0D8
BD285879
BCA8C155
BE086595
BE5758E2
BE2C56D6
BDFEF9DB
3E20902E
BE09D495
BE1FBE77
BE4F27BB
3DB67A10
BDA617C2
BE4E3BCD
BC535A86
3DD59B3D
3E525461
BD6978D5
BE79A6B5
3CCCCCCD
3DDAEE63
BE605BC0
3D7F9724
3E14AF4F
BDCA8C15
3E27D567
3D60DED3
3E08E8A7
BD83AFB8
3E056D5D
3D947AE1
3D8F5C29
3D7212D7
BC42F838
3D87FCB9
3E1D6388
BD2D42C4
3E43E426
3DF69446
BE0A8C15
3E0985F0
3E252BD4
BE08E8A7
BE7C9EED
3D94E3BD
3C89A027
3EB6AE7D
BDD2F1AA
3D39F55A
3E058794
3E3DBF48
BC5013A9
3E0A3D71
BD851EB8
BE02F838
BE07FCB9
3DD42C3D
BDCE703B
BDE90FF9
3AC49BA6
3D98C7E3
3E194AF5
3CE703B0
BCF837B5
BE516873
BE35C28F
3E519CE0
3D3020C5
BE786C22
BD89A027
3C343958
3E0AF4F1
3B4B295F
3C016F00
BC656042
BE27EF9E
BD5C5D64
BE271DE7
BE0C7E28
BE5460AA
BE3FE5C9
3CEF34D7
3DE425AF
BD8346DC
3C2F4F0E
3C727BB3
BDE8A71E
BDA8F5C3
3CE2EB1C
3DB81D7E
BDE631F9
3E83E426
3E055326
BE028F5C
BE591687
BE60AA65
3E2A3055
3B51B717
BD5A511A
38D1B717
BE2DE00D
BDC8E8A7
3D50E560
3DBF4880
3E2FD220
BD855326
3E3126E9
3E322D0E
3DC6A7F0
BCD77319
3E5E1B09
3E5182AA
BCEF34D7
3E10B0F2
3CF1A9FC
BE4B923A
3D058794
BCF1A9FC
3E36C8B4
BD33D07D
3E1A36E3
3D6075F7
BDDB573F
3DBFB15B
3E594AF5
3CEBEDFA
BB23D70A
BDF9DB23
BE0F41F2
3DC50481
BD656042
BCCA57A8
3E1F6FD2
BDABD3C3
3CF4F0D8
BDCF7660
BD1096BC
3E288CE7
BB79096C
BE2AB368
BD1CE076
BD0DB8BB
3D93DD98
3DF27BB3
BD19999A
BC15182B
3E7CED91
3C35DCC6
3E41A36E
3D6ECBFB
BD0CE704
3D4F41F2
BD22339C
3CDD2F1B
3E20C49C
BDEF6944
3E8A64C3
BD0E8A72
BC22339C
BD982A99
BDB0BE0E
BDDC91D1
BE1CE076
3E3AFB7F
BE388659
BDA4DD2F
BDDBF488
3D676C8B
3C9EECC0
3DC67382
BE02A993
3E032CA5
BE422681
3D15182B
3DA43FE6
BE1C28F6
BE09A027
3DE075F7
BC0CE704
BE6C0831
3D9D14E4
3DF97247
BDD07C85
BDFF9724
BD12A305
3E4D4FDF
3E602752
3C96BB99
BE85AEE6
BDC2C3CA
3DCC2F83
BD872B02
BD41BDA5
399D4952
BE472B02
3E03E426
BC7765FE
3DEDC5D6
3D3367A1
3D8DB8BB
3D8C7E28
BDE21965
3DA786C2
3DF62B6B
BE3295EA
BD77CED9
3DB1F8A1
BE25E354
BDF381D8
3D7EC56D
BE6F837B
3DAF1AA0
3E036113
BC8E8A72
3D4432CA
BDFD21FF
BE2353F8
3E5F06F7
3E59B3D0
BE5C5D64
BDC95183
3DB22D0E
BE020C4A
B8D1B717
3E43AFB8
BE39DB23
BCB1C433
3E2B020C
BD5C5D64
3D5D2F1B
3D322D0E
3E0D6A16
BDA8240B
BDEC8B44
3DA3A29C
3E47C84B
3E1D2F1B
BD4CCCCD
BDF80347
BD98C7E3
BE037B4A
3E5A0275
3E5CE076
BDDE00D2
3D13DD98
3E07E282
3E248E8A
3E48B439
3DAD42C4
3CC49BA6
3E715B57
BDFFCB92
BE0B5DCC
3DD77319
3CAA64C3
BC4CCCCD
3E43126F
3DA85879
BE4AF4F1
BD90CB29
3D676C8B
3E0793DE
3DE66666
3DB15B57
3BEBEDFA
3D10FF97
3E4C985F
3D14AF4F
BD4C63F1
3D0DB8BB
3CFD21FF
BE2809D5
3E61FF2E
BDBD3C36
3DD07C85
BE243FE6
BE104817
3BC154CA
BD3089A0
3C872B02
BD0793DE
BE01BDA5
BE34D6A1
3DDE69AD
BE7BB2FF
BDBAC711
3D542C3D
3E4C63F1
3D4D35A8
3D570A3D
3E401A37
3E3404EA
BD1BA5E3
BD05F06F
3C96BB99
3DF318FC
3E2FEC57
BB83126F
BCDED289
BDD14E3C
BD4AC083
3CBE0DED
3D3AC711
BE27BB30
3D8B4396
BE7B4A23
BE7837B5
3DB61134
3E7851EC
3D1C779A
BD68A71E
3E247454
3E4F41F2
BE28A71E
3D3367A1
BE31A9FC
BDD81062
3D3C6A7F
3B9D4952
3E1DE69B
3E037B4A
BD947AE1
BE535A86
3B9374BC
3D3E0DED
3D8F9097
BDB78034
3E4E8A72
3E194AF5
3E4A57A8
BDA57A78
BD1FBE77
BD7EC56D
3CFF9724
3E410625
3E3404EA
BCE48E8A
BE1758E2
3DA6E979
BDC18937
3D1AD42C
3E6A4A8C
BCD91687
3E2147AE
BDA786C2
BC07FCB9
39D1B717
BE381D7E
BD05F06F
3E1FF2E5
3DF837B5
BDA0F909
BE6872B0
BDC36113
BE05A1CB
3E59CE07
3E1CE076
BD2B367A
3D0A71DE
BBA3D70A
BDD8793E
3CA3D70A
3DE83E42
3E1096BC
3D058794
3E036113
3E163886
BE049BA6
3D4C63F1
BE30068E
3E3A29C7
3DFC84B6
3DE83E42
BE47C84B
3E2339C1
BD53C361
3E46F694
BBD1B717
BDD60419
3B51B717
BCA4A8C1
BE09BA5E
BE3E9100
3D202752
3D3645A2
3D600D1B
BE41A36E
3E15CFAB
BD102DE0
BD958106
3CFF9724
BE21E4F7
BDB4D6A1
3E16F007
BE56D5D0
BDE69AD4
BE1C28F6
BDDCFAAD
BD4CCCCD
BE33B646
3C1A0275
BD6F34D7
3D02A993
3DF4538F
BD9BDA51
3D8068DC
BE339C0F
3E12BD3C
BD4CCCCD
3DC50481
BE114E3C
3E463F14
BDB50B0F
BD810625
3D1FBE77
BDB2617C
3B8CE704
BDD38EF3
3C8E8A72
3D800000
BDC84B5E
BCFD21FF
BD2A64C3
BD9B089A
3E49BA5E
3E572474
BE074539
BD5B8BAC
BE1460AA
3D1374BC
3DABD3C3
BD7AACDA
3CCA57A8
3E0F41F2
BD0D4FDF
3D54FDF4
BE161E4F
BDF58E22
BDC04EA5
BDEF34D7
3E2D9168
3E06DC5D
BDDA8588
3DB5DCC6
3C0CE704
3E813A93
BE59652C
3DB18FC5
3C7765FE
BDDBF488
BDA64C30
BDC36113
3E5DB22D
BE532618
3D2ACD9F
BDDC5D64
BDF58E22
BD8E2196
BD64F766
3DB367A1
3DC9BA5E
3DF69446
BE1F3B64
3E85FD8B
3E1D6388
3DDCFAAD
BE380347
BE060AA6
BE8CF41F
3D9A6B51
BE4CE704
BDD7A787
BE1DCC64
3E0985F0
BD9652BD
3E1EECC0
BD8793DE
3E1C779A
3DD8E219
3C5D2F1B
BE303AFB
3E7E425B
BE19CE07
3E34BC6A
3D5E69AD
3D86594B
3CCE703B
3BA3D70A
3CFAACDA
3E22339C
3DD3C361
BD82DE01
3E489A02
3D628241
3E47AE14
BDB1C433
3DA19653
3C3295EA
BE82B6AE
BE381D7E
3E3E0DED
3D271DE7
BDB0BE0E
BD3B98C8
BD810625
BD9758E2
BDBDD97F
BDA6E979
3E01205C
BCBEDFA4
BE290FF9
3E141206
BE229C78
3E19B3D0
3C9BA5E3
3D37E910
BE2CD9E8
BCD6A162
3DD35A86
3D72E48F
3DEAE7D5
BD3C6A7F
BE4B4396
BE185F07
3E6D9168
BC4CCCCD
3D58ADAC
3D86C227
3C16BB99
3C42F838
BC16BB99
BCCE703B
BE753F7D
BD3C01A3
3E2A4A8C
3D734D6A
3DC60AA6
BE2C8B44
BDBA29C7
3D456D5D
3CA0902E
BD26B50B
BD18C7E3
BD8C49BA
3E0FAACE
3D264C30
3951B717
BE18C7E3
BE06A7F0
BB9D4952
3DB6AE7D
3E056D5D
BDA30553
BE1C779A
3DB95810
BE36FD22
BD54FDF4
BD5C5D64
3E675254
3E00D1B7
BD85BC02
BE4F27BB
3E13C361
BE0A3D71
3E3DBF48
BA9D4952
3E53404F
BD33D07D
3E19CE07
BE126E98
BDA2339C
BDB95810
3D8FF972
3CAC0831
BD6D288D
3E4E703B
3E4EF34D
BCE21965
BE276C8B
BBA71DE7
BC2A64C3
BCC63F14
BD7B7E91
BD9D4952
3DBC01A3
BDF8D4FE
BDAEE632
3A51B717
3D6BEDFA
BDE76C8B
BD597F63
BD24A8C1
BE25C91D
BDD91687
BD0793DE
3E3C01A3
3D896BBA
BD11D14E
BD4ED917
BE54C986
3E24DD2F
3DB645A2
BE2ACD9F
BE1ED289
3DF381D8
3D484B5E
3C3AC711
3CAF4F0E
3DFA43FE
3D855326
BE091D15
BE29E1B1
3E55E9E2
3E0EA4A9
BDCCCCCD
BCF0D845
BE65119D
BE05D639
BE10E560
BC656042
BB51B717
BDD3C361
BE5DE69B
BE2147AE
3DA7BB30
3E34538F
3C5013A9
3D95182B
3DB2617C
BD2C0831
BD229C78
BDA0902E
3DA0F909
BD1D4952
3D50E560
BD7765FE
3DAC3C9F
3D706F69
3DB43958
BE41D7DC
3E02C3CA
BE0AC083
BD89374C
3D5B22D1
3D13DD98
BE5A8588
3E2FEC57
BE2EE632
3D185F07
3DE48E8A
BE339C0F
3E398C7E
3D90624E
BDB15B57
BD0ADABA
3DD42C3D
BDF1DE6A
3D371759
BD5D2F1B
3DCE3BCD
3BEF34D7
BE5B089A
3D9A9FBE
BDB78034
3CDED289
3B656042
BC7C5048
3C7C5048
3D2C710D
3E0D6A16
BDB7B4A2
BE2D288D
3B378034
3E578D50
BE26809D
BE56BB99
BE1C5D64
BDAB367A
3E647454
3E21E4F7
BDFAE148
3CA7EF9E
BDBE76C9
BE0432CA
BD944674
3D15182B
BD08CE70
BE5FD8AE
3E170A3D
BDE31F8A
BD90CB29
3E0538EF
3C91D14E
3DC9BA5E
BDD04817
3DC7AE14
BD31C433
BCDD2F1B
3BEF34D7
3BBE0DED
3E2978D5
BC4B295F
BE2A4A8C
BC56A162
BE230553
3E1205BC
BE2C3C9F
BD0793DE
BDAD42C4
BE2617C2
BE0E703B
BD0F5C29
3E2A4A8C
3D6AB368
BE2E147B
BC54FDF4
3E1B7176
BE2E6320
3DF1758E
3D542C3D
BE343958
BD9A36E3
BD5E00D2
BDFBB2FF
3DED9168
3DC95183
3D7CB924
3DD21FF3
3E07C84B
3D9758E2
BD03E426
BD83126F
BD95B574
3E0CCCCD
BE2786C2
3C16BB99
BD14AF4F
BB86594B
BE2F34D7
3E004EA5
3D930BE1
BE3E9100
3B1D4952
3DE66666
3E85AEE6
BD961E4F
BDD6A162
BDED288D
BDC3FE5D
3D886595
3E4C2F83
3E07E282
3CAB367A
3E13F7CF
BE0BAC71
3CE7D567
BDBBCD36
BD99CE07
3E178D50
BDB46DC6
BDF97247
3DB43958
3E12A305
3E1E9E1B
BDFF9724
BDE38866
BDAE7D56
3E01F213
3D2161E5
BE001A37
BE2872B0
BDFB4A23
BDC18937
BDB089A0
BD6AB368
BD5FA440
BDA43FE6
3D8AA64C
BE4F27BB
BD7AACDA
BD63BCD3
3CD0E560
3E19652C
BCDD2F1B
BDA2680A
BE2B50B1
BE7A29C7
3E65460B
3D4E075F
BE2F34D7
BE2F1AA0
BD9B089A
3D3E76C9
3E2617C2
3D24A8C1
BD16BB99
BD63BCD3
BE049BA6
BD2ACD9F
3DD119CE
BDFA786C
BDA8240B
BDC2F838
BE036113
3D542C3D
3E09EECC
3DE7381D
3DAC0831
BDE76C8B
BB9374BC
3D29930C
BE5A0275
3DF62B6B
3A1D4952
3E30F27C
BC8240B8
BD6C56D6
3C463F14
BDBF4880
BD401A37
3C9930BE
BE0CCCCD
BD9374BC
3DBC6A7F
BE060AA6
BC6F34D7
3DCA57A8
BE373190
3E81F213
3E06A7F0
BE1205BC
3DF4BC6A
3DE147AE
3D4154CA
BE5CE076
BE572474
3E27381D
3DEDC5D6
3E14C986
BD6ECBFB
3E200D1B
3E60DED3
3DB18FC5
3BD1B717
3E050481
3BB78034
3C59E83E
BCEE6320
BE20F909
BCB78034
BCBFB15B
3E502DE0
BDF52546
BD2E147B
3DC1205C
3CF34D6A
BE0A8C15
3E0346DC
BC90FF97
BDD25461
BCA64C30
3DE594AF
BD35DCC6
3D243FE6
3E3FCB92
BE24F766
3DEA4A8C
3E5182AA
3E2D288D
3DEA161E
3D38BAC7
3D7559B4
BE852BD4
3E0E3BCD
3DC01A37
BD4D35A8
BE7DF3B6
BDB2617C
3E2B6AE8
BD0A71DE
BDF6FD22
BD54FDF4
BDEF34D7
399D4952
3DE1E4F7
BE0538EF
3D7E5C92
BD82DE01
BE2D7732
BBA71DE7
3E9F1412
3DAC710D
3E03AFB8
BE0DD2F2
BC809D49
3E29AD43
3D7765FE
BCAC0831
BD8FC505
3CCB295F
BCD0E560
BD855326
BD67D567
3DDFA440
BDBB2FEC
3D872B02
3E4CCCCD
BE39A6B5
BEBA0275
3BF5C28F
BE530BE1
3E130BE1
3D4B923A
3DAE7D56
BD9EECC0
BE2C56D6
BD6425AF
3E1B089A
3E2BEDFA
3CFC5048
BDEF34D7
BC09A027
3D03E426
BD53C361
3CA161E5
3D230553
BDEB851F
3DC3C9EF
3D87C84B
3E2E147B
BE0AC083
3E17DBF5
BE5D97F6
BE3CD35B
BD257A78
3DCD35A8
3CBAC711
BE1C779A
BE3DD97F
3E825AEE
3E1CFAAD
3CA3D70A
3DAA3055
3DC22681
3E20F909
3E0CB296
3C84B5DD
3E4D35A8
3D83E426
3A03126F
BDEA161E
3E6C3C9F
BD4ED917
3DD4C986
3E236E2F
BD8C49BA
3D7AACDA
3D3C6A7F
3DA4DD2F
3BB43958
3E2BD3C3
3DAA3055
BDE5FD8B
3D77CED9
BE283E42
BDDE00D2
3D3C01A3
BE0B4396
3DE76C8B
BCB0F27C
3E0CCCCD
BDE1B08A
3DFA786C
BD70068E
3E2BEDFA
BD896BBA
BDCAC083
BDB2FEC5
BE3487FD
3DA43FE6
3DB4A234
3E4B5DCC
3E013A93
BD230553
BD4432CA
BE0CE704
3DDBF488
3E181062
BDA71DE7
BE147AE1
3DF62B6B
BDF487FD
BC5D2F1B
3D90FF97
BD958106
3CDC5D64
3D8346DC
BDA8C155
BDF3B646
3E13C361
3E341F21
BDCAC083
3E472B02
3E25460B
3DE24DD3
3C9BA5E3
3E73D07D
BBADAB9F
3D27EF9E
BDE809D5
3E123A2A
BDA30553
3E1D6388
3E55E9E2
BD762B6B
3DB50B0F
3E3F4880
BDFD8ADB
3E11D14E
3AB78034
3D3FB15B
3D93DD98
3D25119D
3D621965
BE10B0F2
3B9374BC
3E18C7E3
3DA36E2F
BD09A027
3E1374BC
3DBF4880
3D072B02
BDE5C91D
BD9F8A09
3D172474
3C95E9E2
BE028F5C
BD257A78
BE144674
BC809D49
BD989375
3CE56042
3DF41F21
BE202752
3E11B717
3DA2339C
3A6BEDFA
3E0154CA
3E1D4952
BBCB295F
BDA5E354
BE185F07
3DA05BC0
3E2B6AE8
3E460AA6
BDB88659
3D2ACD9F
BDFA786C
3E7B98C8
3C07FCB9
BDE7381D
BCE3BCD3
BE42DE01
BCFC5048
BDBEDFA4
3E22680A
BE141206
BCED9168
3E8D5CFB
BE58FC50
3E6425AF
BDD460AA
3E1E1B09
BE09A027
3D05F06F
3DD182AA
BE6DE00D
BE41F213
3DDA8588
3D4779A7
3CADAB9F
3E1A1CAC
3BE8A71E
3D88CE70
3DD8E219
3DF837B5
BE585F07
3DA75254
BDF1758E
3D8BAC71
BDACD9E8
BD6F9DB2
3C9374BC
3CC22681
BC35DCC6
3D4ED917
3DC08312
3DB8EF35
BC809D49
3C1BA5E3
BDF79A6B
BBADAB9F
3E23D70A
BD051EB8
3E437B4A
3D371759
3DB46DC6
BE80F909
BC9A0275
3E5374BC
3E2872B0
BE5374BC
BE2809D5
3E50B0F2
3E170A3D
3EA04189
3D21CAC1
3D9EB852
3E2C0831
BDEB1C43
BD63BCD3
BD491D15
3D5F3B64
3E2ACD9F
3E57DBF5
3E3F1412
BDFA786C
BE365FD9
BDDCC63F
3E01A36E
3D5844D0
3E393DD9
BC016F00
BD8AA64C
3E32617C
3DB98C7E
3CDE00D2
3E6A3055
BE256042
3E72B021
3DF03AFB
3DCED917
BE75DCC6
BDF837B5
3E16A162
BD051EB8
BD1EECC0
3D563886
BE0432CA
3DA88CE7
3DBD70A4
BD72E48F
3D12A305
3E06594B
BDD013A9
BD08CE70
3E645A1D
3D5E00D2
BE1ED289
3C3923A3
3E8C2268
BD98FC50
3E32E48F
BD621965
3E4BC6A8
BE06F694
3DEE2EB2
BD4B295F
BD55CFAB
BE0D35A8
3DF559B4
3D9DE69B
BD591687
BCD0E560
BE61CAC1
3D3B98C8
BCF34D6A
3D1C0EBF
BD1E83E4
3D422681
3DDF3B64
3DA1CAC1
3E049BA6
BD1CE076
BDD460AA
3CBB98C8
BDF559B4
BDBC01A3
3C9C779A
BDB367A1
3CBFB15B
BDF559B4
3DAACD9F
BE46594B
BDEBEDFA
BE9A36E3
BE046738
BD58ADAC
BE645A1D
3E404EA5
BCEA4A8C
BDF212D7
BCDB8BAC
3E3573EB
3D6DFA44
3BCB295F
3E42C3CA
3E177319
BDB4A234
BC9EECC0
BD38BAC7
BD923A2A
3C8E8A72
3E3AFB7F
BE3F2E49
3DB7B4A2
3E01D7DC
BD9758E2
BC1374BC
3D322D0E
BD37E910
BE45D639
BE3CB924
3D9AD42C
3D45D639
BDB71759
3DBFB15B
BD158106
3C6D9168
3D05F06F
BCC2F838
3E886595
3D80346E
BE65460B
BE02F838
3D5B22D1
3DDAEE63
3DEA161E
BD762B6B
3E358E22
BE6B367A
BE00D1B7
3E141206
3E56872B
3CE075F7
3CCBFB16
BCF41F21
3E8BC6A8
3E22680A
BE4240B8
BDC4D014
3E4DD2F2
3DD25461
BDA12D77
BDD5CFAB
3DF93DD9
3DA88CE7
3E7E76C9
3D20F909
3E544674
3C102DE0
BE21FF2E
3DD8E219
BC1EECC0
BD8AA64C
3DFD566D
3D9652BD
3E8A7EFA
BE12D773
3E3851EC
3E472B02
BE49374C
3C28C155
3E7C84B6
BE6D42C4
BE01BDA5
BD8D4FDF
BDE66666
3D3923A3
3E7C9EED
3E25C91D
BD872B02
BCE3BCD3
3C944674
BC8DB8BB
3D90FF97
BD8E2196
BE00B780
3DD1B717
3C83126F
3D9C432D
3E959B3D
3E8C7E28
BCD91687
BE19CE07
BDB6AE7D
3E1374BC
BC89A027
BCC22681
BE8339C1
BCBB98C8
BE0A233A
BC7DF3B6
3E54FDF4
BE050481
BE0E3BCD
BE8EB1C4
3E060AA6
3E26E979
3DFB15B5
BEAF6944
3E02DE01
3D1BA5E3
BB6BEDFA
BE24DD2F
3D2A64C3
BE4F5C29
BDE1B08A
BD669AD4
BE6075F7
BDB46DC6
3E13DD98
BCEA4A8C
BD9CE076
3E519CE0
3E3B7E91
BE211340
BE212D77
3DBFB15B
BE339C0F
BDF52546
BDD8ADAC
BBCE703B
BD5D2F1B
3B23D70A
3DA2680A
BDD7A787
BD8240B8
3E3C5048
BDFB15B5
3E8F0069
3CFEC56D
BDADAB9F
BDCB5DCC
BDB2617C
BD85F06F
BCA57A78
BBF27BB3
3D93DD98
3E5FF2E5
3D5C5D64
BC2DAB9F
3C35DCC6
3D8BAC71
BD03E426
BD98C7E3
3E245A1D
3D24A8C1
3DD63886
3E0C154D
BDD7DBF5
3DE56042
3D7E5C92
3D944674
BD690FF9
BD985F07
3D7EC56D
BD315B57
3D944674
BD8CE704
BDB71759
BDB98C7E
3D3573EB
3DCA233A
BDF1758E
3B7F9724
3D1FBE77
3E102DE0
3D95E9E2
BE2D5CFB
BDD38EF3
3E4AA64C
BCD35A86
BCAB367A
3DF80347
BD29FBE7
3DD94AF5
BDEA161E
3E346DC6
BC2A64C3
3E683E42
BE000000
3DF559B4
BDF8A090
3E652BD4
BDA6809D
BE11EB85
BDEBB98C
BE0D844D
3E7B4A23
3E734D6A
3D6AB368
3E1CC63F
3D4BFB16
3EB77319
3E54FDF4
BBC7E282
3D944674
BE3BB2FF
BE27A0F9
BD8ADABA
3E3295EA
3C1EECC0
BE2CD9E8
3DB0BE0E
3D7765FE
3E3C84B6
3C5013A9
3C83E426
3AD1B717
3D07FCB9
BE5C0EBF
3DFDBF48
BE3E76C9
BDB4D6A1
3E5A9FBE
3D39F55A
BD350B0F
BD230553
3DF62B6B
3DF4BC6A
BD9C432D
BD8DED29
BE0C49BA
BDAC710D
3EA21965
3E891D15
3E582A99
3D3C6A7F
3D05F06F
3D9F8A09
3E27D567
3DBA92A3
3E00B780
3D3FB15B
BD6C56D6
3DF52546
BE125461
3E6353F8
3E4FF972
3E1AB9F5
3E82EB1C
3E397247
BDB7B4A2
3E3212D7
BE7A5E35
3E6A4A8C
BDF559B4
BDA3D70A
3DBEAB36
BD5A511A
BD016F00
BDDB573F
BCEBEDFA
3E1BA5E3
3D926E98
3E589375
3E142C3D
3E39096C
3DC154CA
3D8AA64C
3E7EDFA4
3E1BC01A
3E135A86
3DEFD220
BE8D6A16
BE16F007
3C6075F7
BE08E8A7
BD1374BC
3CE3BCD3
3D8624DD
BE456D5D
3E858794
BCE703B0
BD130BE1
BCB367A1
3E29E1B1
3D98FC50
3D2F4F0E
3DE4F766
3DDE9E1B
BD628241
3CBAC711
3D8A71DE
BE09D495
3E40D1B7
BD68A71E
3DC18937
3DCA8C15
BE9573EB
BC6BEDFA
3C84B5DD
BD61B08A
BE341F21
3DFD8ADB
3DAACD9F
BE5CC63F
3E1FA440
BE597F63
BE283E42
3D9B089A
3D271DE7
BD5ED289
BE33EAB3
3DBF1412
3C6BEDFA
3D292A30
3E2E147B
3E8BC6A8
BC8C154D
BDF0068E
3E6E7D56
3E245A1D
BDA9C77A
BE6E48E9
3CC710CB
BDBCD35B
BCE075F7
BDEE978D
3E5FF2E5
3E89FBE7
BE096BBA
3D3645A2
3E07AE14
BE050481
3DC8B439
3E27381D
BD827525
BE256042
3D41BDA5
BE21FF2E
BD19999A
3C0CE704
3D1BA5E3
BDEF9DB2
3E01F213
BE6AE7D5
3D5A511A
3E496BBA
3D7F9724
BD841893
BD1930BE
BE70A3D7
3E43126F
BE0902DE
3E31DE6A
3E29E1B1
BE974BC7
3DCC985F
BD456D5D
BD714120
BCF837B5
BE7381D8
3DA30553
3D851EB8
BDBF7CEE
3BF9096C
3E01D7DC
BE2147AE
3C6BEDFA
BE70D845
3E714120
BC8F5C29
BE06594B
BB7F9724
3E0B4396
BDE45A1D
3E483127
BBBAC711
BD8BAC71
3E578D50
3E25AEE6
3C902DE0
BCF9DB23
BDCDD2F2
BE2F0069
BD15182B
3E19B3D0
3DA2D0E5
3DF559B4
BE008312
3DB126E9
3E6631F9
BC06594B
3E0C985F
BE1BA5E3
BCE147AE
3CBE0DED
3D92D773
BDA88CE7
BCDAB9F5
3DDB22D1
3DA1CAC1
3E3BCD36
3E27D567
BE149518
BEA24DD3
BD0BAC71
BDF9A6B5
BD600D1B
BDBEAB36
BE163886
3E0432CA
BE91B717
BD6F34D7
3D7DF3B6
BE3A5E35
BE149518
3D75C28F
BD408312
BE1A0275
3DA0F909
BE82680A
3E566CF4
3B16BB99
3E5930BE
BDE21965
3D9D4952
3DBD70A4
3DEF34D7
BDB3D07D
BDD73EAB
BBFF9724
3D84816F
BD972474
3E4432CA
BDA85879
BA378034
3DDBC01A
3E4EBEE0
BBB78034
BE016F00
3E2FD220
BE2F0069
3CB295EA
3E53F7CF
3E2F837B
BD6075F7
BDC67382
BE83D70A
3DA30553
BD09A027
BDC74539
BD8D1B71
3D985F07
BDA57A78
3E07C84B
3D32FEC5
BD1DB22D
3DEAE7D5
BE0E3BCD
3E4B4396
BE04EA4B
3C727BB3
3E2CBFB1
3E2B851F
3E45F06F
3DB2617C
BE525461
BDAC3C9F
3DA2D0E5
BC30F27C
3DE9E1B1
BD8E8A72
BE25460B
BCB923A3
3D13DD98
BD5AB9F5
3E65FD8B
BE49374C
BC621965
3E2B9F56
BC9FBE77
3D535A86
3C4E703B
BE219653
3BCE703B
BDD73EAB
3D1EECC0
BE247454
3D144674
BDC3FE5D
3D5C5D64
BDC39581
3E197F63
3DD21FF3
BDB573EB
BCD5CFAB
BD65C91D
BDAA64C3
BD858794
BCF69446
BD322D0E
BE074539
BBBE0DED
3D91D14E
BC016F00
3AAA64C3
BC809D49
3D86C227
3DC50481
BD4154CA
BD2B9F56
3CCBFB16
3C09A027
BDBEDFA4
3E22339C
BDD38EF3
BC07FCB9
BC9374BC
BE3AE148
BD1D4952
BE2D5CFB
BDB126E9
BDC50481
3D178D50
3DC1205C
3E0F41F2
BDF5F6FD
3E050481
BC8CE704
3D5E69AD
3D2B9F56
BD9EECC0
BDEBEDFA
3DAF1AA0
3DF381D8
BE1E69AD
BE24A8C1
3D271DE7
BD9FF2E5
BCA0902E
3C03126F
BD837B4A
BD762B6B
BC83E426
BE2D288D
BE6D42C4
BE2DFA44
3C809D49
3DFEC56D
BDB923A3
BE3FCB92
3DCB5DCC
3DF62B6B
BDC7AE14
3C8B4396
BDA9930C
3C42F838
BE0068DC
BDF0A3D7
BE544674
BD83126F
3DFBB2FF
3E1A36E3
3DCB5DCC
BCAB367A
BE1E4F76
3DFC84B6
3DD14E3C
3E292A30
BE602752
BD648E8A
3D83126F
BE2809D5
3DDED289
BB83126F
BE107C85
3DB404EA
BDF0D845
BDEC8B44
BE13DD98
3DE31F8A
BE3C01A3
BCBEDFA4
BE1A511A
3E904817
3D4CCCCD
BC7AACDA
BE19999A
3DFB4A23
3E204189
3DA75254
3E0E2196
BD64F766
BE4C7E28
BDE76C8B
BD9374BC
BDDB8BAC
BE597F63
3CF5C28F
BE934D6A
BCA57A78
BE03AFB8
3DBFB15B
BD8B0F28
BE1A8588
3D4C63F1
BD4779A7
3E91D14E
BE16D5D0
BDACA57A
BE149518
BD944674
3E16BB99
BC68A71E
3E0A8C15
BD930BE1
BD1E1B09
BDB3D07D
BE74BC6A
3DAD42C4
BD8AA64C
BE656042
3E3EAB36
BE121FF3
BD38BAC7
BD40EBEE
3C9AD42C
BD450481
3C4985F0
3BFC5048
BD9E4F76
3BD1B717
3D8793DE
BE0C154D
3E4C985F
3E22339C
3DA5E354
3C8A71DE
3E15CFAB
BE3E0DED
3DA57A78
BC28C155
3D597F63
3D6CBFB1
3E6AB368
BD06594B
BDCD35A8
BE228241
3D12A305
3D0240B8
BE2DAB9F
BE44EA4B
3EA7D567
BE31A9FC
BBB78034
BE611340
BD0240B8
BDBD70A4
3D76FD22
3E5A6B51
3E086595
BCD4FDF4
BDFE9100
3E40B780
3BD1B717
3DD63886
BC8C154D
3E32CA58
BDF06F69
3E532618
3C978D50
3E0793DE
3DF6C8B4
BD5B22D1
BDFC5048
3E838866
BDC1205C
BD90624E
BE1EB852
3E1D2F1B
BE5F8A09
BD2C710D
3E83BCD3
3D6631F9
3E17A787
3DAFB7E9
BD02A993
3D086595
BE4DB8BB
BE4F0D84
BCC3C9EF
3E2BD3C3
BD85BC02
3D86F694
BE828F5C
3D1B3D08
3DF79A6B
BDFBE76D
3E2FB7E9
3DE809D5
BD2786C2
3DE703B0
3DC36113
BC343958
3D9F559B
BE7C01A3
BE16D5D0
3E4CB296
BD535A86
3D5B22D1
3B902DE0
BE1FA440
BD3B98C8
BDB9C0EC
3D0BAC71
3DFE9100
BE18793E
3CED9168
3D542C3D
3DE11340
BD972474
BD797247
BE09BA5E
3D9205BC
BE800000
3E3F9724
BC7F9724
BE77E910
3E217C1C
BD9CAC08
BE0624DD
BE036113
3DC3FE5D
BE0EBEE0
3D8E8A72
BC271DE7
3C185F07
BDF9DB23
3D371759
BDEF9DB2
BE78D4FE
3DE8A71E
3C1EECC0
3DE21965
BDBC9EED
BC4B295F
3DD6A162
BDEFD220
3D81A36E
BE404EA5
BDF86C22
3D371759
3E6E2EB2
BDC1BDA5
BD7765FE
BE2B9F56
3E561E4F
BE67EF9E
3DC538EF
3D8D844D
BE6A3055
BD8E5604
BD3A5E35
3D6631F9
3DF2B021
BCDAB9F5
3DE353F8
BBF5C28F
BDE631F9
3DB645A2
3D4D9E84
3D6B1C43
BE636E2F
3E4DED29
BD9BA5E3
3DEA4A8C
3D591687
BC09A027
3D7837B5
3D9F8A09
3E0AF4F1
3C92A305
BE6AE7D5
3E23D70A
BDF06F69
3E7A92A3
BE1A6B51
BD80D1B7
3BB43958
BE03C9EF
3D230553
BDBA92A3
BDB126E9
3E074539
BE78BAC7
3E12D773
3D35DCC6
3CC710CB
BDA2339C
3E13F7CF
BE38A090
BD450481
3E334D6A
BDA7EF9E
3E0C154D
3DD0B0F2
3D25119D
BDB50B0F
BDB8BAC7
BDD460AA
3D6DFA44
BCE56042
BD88CE70
BD5013A9
BDDAEE63
BDD844D0
3D5A511A
BD86C227
BD8A0903
BE0BC6A8
BE7D566D
BE4EF34D
3E318FC5
3D9EB852
BA83126F
BE4CB296
BDD77319
BDE83E42
BD4BFB16
BDDA511A
BD53C361
BDFEC56D
BDB6E2EB
BE229C78
3D43C9EF
BDDD6388
3CE7D567
BD40EBEE
3D016F00
3E42F838
3CB50B0F
BE5758E2
BE436113
3DD81062
BD292A30
3E1AEE63
3DB81D7E
3D072B02
BE58ADAC
BD34A234
3E8A0903
BE248E8A
BD264C30
3D12A305
3B09A027
BE2A9931
BD292A30
BBCE703B
BDB5DCC6
BE07AE14
3EA9A027
BDDED289
BC6D9168
3CF0D845
BDB15B57
3E0D35A8
BE31F8A1
BE92617C
BB378034
BDFE9100
3E21CAC1
BCF1A9FC
BE3487FD
3D9B089A
BCA0902E
BDE809D5
3E74538F
3DFA43FE
BCA57A78
BDC0EBEE
BC63BCD3
BDA0902E
BDCD6A16
3A902DE0
3E5E00D2
3D74F0D8
3D22339C
BDD14E3C
BE10FF97
3DD0B0F2
BE3CD35B
3CE631F9
3E236E2F
BB4B295F
BD84B5DD
BCDED289
BE8DED29
3D009D49
BDA5AEE6
3D264C30
BC621965
3E36C8B4
BCBEDFA4
BD8902DE
BD1C779A
3DDF06F7
BDEBEDFA
BE166CF4
3E33EAB3
BAD1B717
3E185F07
3E13A92A
3D1AD42C
3CDED289
BE99CE07
BE02DE01
BD172474
3DC46738
3E4B295F
BE51D14E
3D40EBEE
BE4F41F2
BD229C78
3E05F06F
3DE69AD4
3D9AD42C
3DDE69AD
3DEAE7D5
BDAF1AA0
BDB95810
3D820C4A
3CDC5D64
BDA95E9E
BDB5A858
BDC50481
BCDD2F1B
3D7559B4
3D734D6A
3DE11340
BE486595
BDC1F213
BDD8E219
BE39DB23
BCBE0DED
3E5D2F1B
BE15CFAB
BDD66CF4
BE3126E9
3C378034
BDC0B780
3E27BB30
3E3D07C8
BD19999A
3DB6E2EB
BE5B8BAC
BE114E3C
3CADAB9F
BC5ED289
BDEF34D7
BE31C433
3E1C779A
3D41BDA5
BE21FF2E
BD8E8A72
3D7837B5
3CD35A86
BD8E2196
3DACA57A
BDB645A2
3E4D1B71
3DC49BA6
3E35F6FD
3E413A93
BC3AC711
3DD25461
3B902DE0
3EA72B02
BE31A9FC
3E5FA440
3E06594B
BDBBCD36
3D9FBE77
BA902DE0
3DCD013B
BE15E9E2
BC1D4952
3E889A02
BD80D1B7
3B30F27C
BDCCCCCD
BD2B9F56
3E028F5C
3D26B50B
BE2BEDFA
BC96BB99
BDB8EF35
3D04B5DD
BDAA64C3
BBFF9724
3E7CB924
BD9930BE
BD597F63
BD172474
80000000
BD6631F9
3D378034
BD43C9EF
3DE353F8
3E7F2E49
BE72FEC5
BE5A36E3
BC0E8A72
BE10FF97
3D58ADAC
BE26E979
BE8809D5
BDD21FF3
3CC49BA6
BBA3D70A
3CBB98C8
3E4EF34D
BCD844D0
3D5B22D1
3E0CB296
3DD70A3D
BE57A787
3DCA57A8
BBE8A71E
3E59999A
3E367A10
BD3B98C8
BD8F9097
3DCD9E84
3D7DF3B6
BD8BE0DF
3D21CAC1
3A83126F
BDC67382
BE243FE6
3DEA4A8C
BDB61134
3E358E22
3CB923A3
3E19999A
3DEF6944
BDE90FF9
BB5ED289
BD5566CF
3E91A9FC
BDD53261
BE741F21
3E32FEC5
BD15E9E2
BDEC2268
3E23BCD3
3D0BAC71
3C727BB3
3D9758E2
BDCD013B
3D6BEDFA
BC3AC711
BCBAC711
BDD7A787
3D7B15B5
BE489A02
3D769446
BDC2F838
BE34538F
BE82C3CA
BDD8793E
3DFDBF48
BDF73190
BDA19653
3E324745
3DD94AF5
BD58ADAC
3DA19653
3E09EECC
3E24C2F8
3DB81D7E
BE95E9E2
BD5E00D2
BDE9AD43
3D3851EC
3E2A3055
3E600D1B
3DB74BC7
BD408312
BC1BA5E3
3E45D639
3CAE7D56
BD264C30
BD2CD9E8
3D741F21
BDF10CB3
BDD9B3D0
BD016F00
3DA92A30
BE18793E
BE37E910
3DB7B4A2
BD53C361
BDE66666
BE2ECBFB
3E03AFB8
BE1D4952
BDE11340
3D2C710D
BDAF1AA0
BE30D845
3DFE5C92
3E7B98C8
3DC538EF
3DF5F6FD
3D902DE0
BDF27BB3
BD9EB852
3BC7E282
BD8E8A72
3E40EBEE
3E3AC711
3E0CCCCD
BDD81062
3DE45A1D
3DECBFB1
3D408312
BE01A36E
BDF14120
3E4B295F
BDE76C8B
BDF03AFB
3D3CD35B
BDD25461
3E484B5E
3D844D01
3E189375
BD2DAB9F
BDC04EA5
3E12D773
3DC3FE5D
3DB67A10
BC6BEDFA
3DFF62B7
BD3020C5
3E0816F0
BE26B50B
BE3F62B7
3D9CAC08
BDC32CA5
3DF318FC
BDCB295F
BD236E2F
BDB22D0E
BDC6A7F0
BD621965
3DD9E83E
BC1EECC0
3E2BD3C3
BD0A0903
3E422681
BDCC985F
3D989375
3D03E426
3D9DB22D
BD6F34D7
3E1FF2E5
BDB8BAC7
BD79DB23
BC3E0DED
3E1C779A
BE1C432D
BD6ECBFB
BDEB1C43
BDC538EF
BE0AF4F1
BE2425AF
BE420C4A
BB86594B
3DBF1412
BDF65FD9
3CA3D70A
BCA3D70A
3C902DE0
3D408312
3E116873
BE08E8A7
3E0346DC
3E0902DE
BE1D4952
BE4902DE
BDD73EAB
BD6D9168
BDA3D70A
3DB67A10
BE3E2824
3E0710CB
BD8FC505
BE16872B
BE29AD43
BDEA161E
3DA5460B
3E1652BD
3E202752
3CFD21FF
BD47E282
3E3D3C36
3DF0D845
3E2B1C43
3E039581
3DF3EAB3
BD886595
BDE075F7
3D6E6320
BE44EA4B
BDD49518
BE15E9E2
3D97C1BE
BE0A0903
3D57DBF5
3D8EBEE0
3C68A71E
BE22B6AE
3DE0DED3
BCB020C5
3E08B439
BE4A233A
BD841893
3D4779A7
BE1F6FD2
BCAC0831
BA6BEDFA
3E525461
3DD6A162
3D8A71DE
3E177319
BDA2680A
BC3E0DED
BE47E282
3D0FC505
3E1A1CAC
BDF79A6B
3E544674
3E032CA5
3D04B5DD
3E39A6B5
BDC95183
BDF0A3D7
3C5D2F1B
3DED5CFB
3D51B717
3D18C7E3
BC70D845
BD97C1BE
3E2ACD9F
BE25FD8B
BD8D1B71
3DA617C2
3DB5DCC6
BCC63F14
3DDB8BAC
3E12D773
BE2425AF
3D422681
BE1E83E4
BCFDF3B6
3D868DB9
3E31F8A1
3DF1A9FC
BDE38866
3E252BD4
BE1D6388
3DE2B6AE
3DA2D0E5
3D6075F7
BCA3D70A
3DE2EB1C
3D81D7DC
BD7837B5
BE125461
38D1B717
BC4B295F
3E1A0275
BDE83E42
3E041893
BDD59B3D
BDA85879
BD38BAC7
3C87FCB9
3DA75254
3C42F838
3B902DE0
3DE5FD8B
3E09EECC
3E5B089A
BDC18937
BD5CC63F
3D2C0831
BCB50B0F
3D52F1AA
3D1096BC
3E13C361
3E380347
BE487FCC
3E5119CE
BDDA8588
3A03126F
3E28C155
BD889A02
3D03126F
BCECBFB1
BE3AC711
3E761134
3D8624DD
3DF765FE
3A378034
3D3B2FEC
3DD566CF
BD89A027
BD4AC083
3DA4DD2F
BE47AE14
3DB33333
3E483127
BE362B6B
BE84B5DD
3E458794
BDBFE5C9
BDCFAACE
BE7923A3
3E0B923A
3B51B717
BDF41F21
3D3C01A3
3DCFDF3B
BD944674
3DA2680A
3DAC0831
3DA5119D
BE1758E2
BE7CED91
BE06594B
3D3B2FEC
BDA71DE7
3CF765FE
BE016F00
BD88CE70
BDF27BB3
BD3B2FEC
3DE17C1C
3E1119CE
BD1AD42C
BE1119CE
3E132618
3D9CAC08
BE369446
3D3645A2
BDAB9F56
BE3EDFA4
3E2F0069
BE3B645A
BDC7E282
3DAD0E56
3CE075F7
3D02A993
BE76C8B4
BD3851EC
BAEBEDFA
3E7CD35B
3DD63886
3E067382
3CF27BB3
3E9FCB92
3DE809D5
3C95182B
BC03126F
BD83E426
3E0F5C29
BD734D6A
3E1E353F
BDD8ADAC
BE24A8C1
BE82B6AE
3E404EA5
3DE631F9
BC7F9724
3D9EECC0
3C4CCCCD
BD229C78
3D8B4396
BEB8ADAC
3DEF0069
BE7DF3B6
3E17C1BE
3D714120
3E0624DD
3E41D7DC
BE604189
3DDC91D1
3DC710CB
3E3F7CEE
3DD07C85
BDF34D6A
BA6BEDFA
BD3C01A3
3D94E3BD
BDF8A090
BE8F0069
3E23F141
BD978D50
3E1BA5E3
BDBAC711
3E46F694
BE41BDA5
3C621965
BE34F0D8
3E84816F
BB16BB99
BE1C432D
3D03E426
3E87EF9E
3E516873
BDD38EF3
3DF6FD22
3E1ED289
BCE21965
3E0793DE
BE4B4396
3CA0902E
3CCF41F2
BE12D773
BE444D01
3D1E83E4
3DC4D014
BD8FF972
BDACD9E8
BDB6E2EB
BDD2F1AA
BE1930BE
BC91D14E
3D9DB22D
BE4D9E84
3A83126F
3D116873
BDF58E22
3C858794
BCD0E560
3D87FCB9
3E95CFAB
3BF27BB3
3DC9EECC
BE463F14
3DD0E560
BD90FF97
BD9C432D
3DD119CE
BCF34D6A
BCE8A71E
BDBF7CEE
BDF9DB23
BD7559B4
3D67D567
BCAB367A
BE35F6FD
3CF9DB23
BD77CED9
BB03126F
3BC49BA6
3DC154CA
BD841893
BDF65FD9
BD4779A7
BC6BEDFA
BE00346E
BDA5AEE6
BD9E1B09
3D8D844D
BDA47454
BDA47454
BC8E8A72
BE1DB22D
BDD35A86
BE6A3055
3C4E703B
3DFDBF48
BDF4F0D8
BDBA29C7
3E68240B
BCE978D5
3DA29C78
3D37E910
3AF9096C
3D06C227
3E4D35A8
3E06C227
BDE631F9
BDA6809D
BD40EBEE
BE130BE1
BE224DD3
BE086595
BDD4FDF4
3E1A6B51
3DE52BD4
BDBBCD36
3E61CAC1
3D79096C
3E514E3C
3E50E560
3B79096C
3E29930C
3E12D773
BD257A78
3C47E282
3D86F694
BE0D4FDF
BE58E219
3C5D2F1B
BC9EECC0
BDB53F7D
3DE5C91D
BE0CCCCD
BD0C154D
BE001A37
BE343958
BD408312
BE7381D8
3E09374C
3DD1B717
BD9F8A09
3D947AE1
BE27381D
3E02A993
3D9D14E4
3D8D4FDF
BD4432CA
BDF0068E
3D5288CE
BE025AEE
3E322D0E
3E81D7DC
3E12A305
BD70D845
BD706F69
BD85BC02
3C858794
BE57DBF5
3D600D1B
BE1652BD
BDCBC6A8
3D8E8A72
3DDB8BAC
3C741F21
BE1A0275
3DD70A3D
3DD7A787
BDBAC711
3CD9E83E
3B727BB3
3CF765FE
3D84B5DD
BE055326
BE123A2A
BD31C433
3E07AE14
BE1DE69B
3E21CAC1
BE809D49
BCDED289
BD8902DE
BD10FF97
BD1FBE77
BD46A7F0
BE40346E
3DDA511A
BE00B780
3E0FC505
3D90624E
3E12BD3C
BE2872B0
BCEE6320
3E41F213
BD4B295F
BE32CA58
BBC7E282
BD82A993
3D5D97F6
3DE76C8B
3DB50B0F
BE34538F
BDDE69AD
BE18E219
BD4B295F
BC20902E
3D6BEDFA
3D80D1B7
BDF0068E
3DB1C433
3CE631F9
BE2D288D
BE11D14E
3E9C779A
BE5D14E4
BDEC2268
3C271DE7
BDA0C49C
BD9B089A
BD009D49
BE072B02
BDFC5048
3DD77319
BDB46DC6
BE45F06F
BD68A71E
3E1D2F1B
3D4B295F
3E605BC0
3DE76C8B
3D67D567
BD343958
3E6809D5
BD5BF488
3D8FF972
3DFD8ADB
3E472B02
3DB67A10
BDD53261
BD2CD9E8
BC47E282
BDD6A162
3D1930BE
BDBE76C9
3D3089A0
BDE1B08A
BDEFD220
3E23A29C
3C535A86
3D941206
BBA0902E
BDF93DD9
3DB4D6A1
BDE8A71E
BE1F06F7
BE4ADABA
BD669AD4
3C8B4396
BC28C155
BC4CCCCD
BE13C361
3DD182AA
3D6B851F
3E422681
BD009D49
3D0DB8BB
BD16BB99
3DEE978D
BDA71DE7
3BC49BA6
3E1B7176
3A51B717
BD5D97F6
3CB43958
3DA71DE7
BE3FE5C9
BE7573EB
3E378034
BD941206
BE1930BE
BDCC2F83
BE00346E
BDC22681
3D264C30
3E44EA4B
BDEC2268
3D010625
3E36FD22
3DEC56D6
3E7851EC
BE2353F8
3D7CB924
BE2075F7
3E178D50
3E57DBF5
BE028F5C
3E28240B
3B102DE0
3E0E3BCD
3D8902DE
3E204189
3E0BC6A8
3D5CC63F
BE074539
3E0CB296
BE2ECBFB
BE14E3BD
3DF58E22
3D6631F9
3D4E075F
3E135A86
3C5013A9
BE8F34D7
BD5BF488
3C70D845
3E1DCC64
3DEBEDFA
BD3E0DED
BE7C1BDA
BD9CE076
BE358E22
3E1119CE
BB449BA6
3DA7EF9E
3DA4DD2F
3BA0902E
BE15182B
3DE8A71E
BDD60419
BE24C2F8
BBBE0DED
3D6075F7
3DD8E219
BD851EB8
BBB43958
BDEC56D6
BE06F694
BE6CF41F
3E486595
3E2DFA44
3E393DD9
3E2A3055
BDEB1C43
3E0F5C29
3CD013A9
3E016F00
BCF5C28F
BE09A027
3E1AD42C
BDE38866
3C8F5C29
BE027525
3C902DE0
3CCF41F2
BDBF7CEE
3E3E76C9
BDAFB7E9
BE06C227
3C07FCB9
3E1E69AD
3E19B3D0
3DB71759
BD1BA5E3
3E521FF3
BDD42C3D
BD2A64C3
BD820C4A
3DB39C0F
BE044D01
BE224DD3
3CF837B5
3DC32CA5
BE52F1AA
BE5DB22D
3D3645A2
3C92A305
BE240B78
BCA71DE7
BCC710CB
BDD2BD3C
BE1F559B
3DC5D639
3E455326
BDF8D4FE
BE2E7D56
BE4FF972
BE1F06F7
3E2C8B44
BD45D639
3CAE7D56
BDBF1412
BE20F909
BD944674
3D8EBEE0
3E0240B8
3CCA57A8
3DDED289
BD81A36E
BDB923A3
3DE8A71E
3E8786C2
3D123A2A
3D4CCCCD
3B8CE704
3D428F5C
3D535A86
BD7CB924
BE3B15B5
BDEA7EFA
3D99999A
BDF27BB3
3B9D4952
BE23D70A
3DA75254
3CB851EC
3D0A0903
3CAA64C3
BDE00D1B
3D3F4880
3D8D4FDF
BC47E282
BDAC3C9F
3E104817
3BB78034
BE3CD35B
BDC816F0
3DB295EA
BBA0902E
3C04B5DD
BE516873
BC9E1B09
3E472B02
BD597F63
3E1460AA
BDBC9EED
3E35DCC6
3E0ADABA
BE0BE0DF
3D68A71E
BE566CF4
3E26E979
BE166CF4
3DE8A71E
3E18ADAC
3D954C98
3E666666
3E205BC0
3C83126F
3DB46DC6
3DE703B0
BE16872B
BD1EECC0
BE3AACDA
BE822681
3DA36E2F
BE1096BC
3D902DE0
BCC56D5D
3E22EB1C
3E144674
BCCD9E84
3DB6AE7D
3CC2F838
3DD38EF3
BE211340
3D883127
3DDBC01A
BE8339C1
BE0FC505
3D868DB9
3E3F7CEE
3DEE2EB2
BD33D07D
BD9D4952
3DFBE76D
BD1CE076
3D7559B4
BCACD9E8
3DBD3C36
3E4B923A
BBB78034
BE451EB8
BDD32618
BE1CFAAD
BC2F4F0E
3D7B7E91
BD48B439
3E560419
3E160419
BDCB295F
3E063F14
BDE075F7
3E0D013B
3D378034
3E027525
3E17C1BE
3DD04817
BE044D01
3E37E910
BE418937
3E41BDA5
3DFBE76D
BDA5AEE6
3C70D845
3E71A9FC
3D4A57A8
3CAB367A
3E1C5D64
BDB98C7E
3DC8E8A7
3DC36113
3D10FF97
BE1E83E4
BE1460AA
3D6353F8
BE65AEE6
BD0A0903
3B03126F
3D5844D0
BE1EB852
BDE9AD43
3DE7381D
BE7B15B5
BE5F559B
3CC63F14
BE013A93
3E1B7176
3E48B439
3E12F1AA
BD99999A
BE6DFA44
3D5AB9F5
3E1FF2E5
3CBAC711
BD84EA4B
3E688CE7
3E74538F
BD83AFB8
3E0985F0
BD80D1B7
3D3DA512
BDE4F766
BDC2C3CA
BDA12D77
BE22B6AE
BD5566CF
3E0DB8BB
3DE52BD4
3E22D0E5
BE1B3D08
3D2E147B
BE17DBF5
3E0240B8
3D8B7803
3D2786C2
BD84B5DD
3D714120
3E3295EA
3E7C6A7F
BD96F007
3DE8A71E
3DF1DE6A
BDDAEE63
3E62680A
BC92A305
3E3DBF48
3DD288CE
BE7487FD
BDDA511A
3CE21965
BDE66666
3E3C01A3
BE189375
3D6F9DB2
3D010625
3DD94AF5
3E0A3D71
BDB1C433
BE086595
3DD9E83E
BD41BDA5
BE74D6A1
BE22D0E5
3D810625
3DBB645A
BE5ED289
BDB2CA58
BCF69446
BCB78034
3DE147AE
BE03FE5D
BE25119D
BD827525
3E25AEE6
BE113405
3E4E2196
BE008312
BE0538EF
BCFB7E91
3DCD013B
3D3DA512
3DD53261
BE67BB30
3D408312
3E664C30
3E5E353F
3B23D70A
3DC32CA5
3DC04EA5
BC6F34D7
BDE11340
3DCB295F
3E22B6AE
3DC2F838
BD09A027
BE56BB99
3E25119D
3E4DB8BB
3DAF837B
3DCBC6A8
BBF9096C
BE386C22
BE5C779A
BD85F06F
BDC5A1CB
BC102DE0
BDC816F0
BE3573EB
BE0F41F2
3C0B4396
3DA71DE7
BE1C432D
BDF487FD
3E2A7EFA
BE10B0F2
BDF10CB3
BCFEC56D
BDD3C361
BDAB9F56
3D5F3B64
3E001A37
3E248E8A
BE252BD4
3D8FF972
3D38BAC7
BDAC3C9F
3DE3BCD3
BDA3A29C
BD93A92A
BB96BB99
BE1DB22D
BCBC6A7F
BD8D4FDF
BE17C1BE
3E860AA6
3D2D42C4
3E0F9097
BDD70A3D
BE08CE70
BDD91687
BE06DC5D
BE243FE6
3B9374BC
BD7837B5
3D6703B0
3DFC5048
3E2BB98C
BD72E48F
BB3E0DED
BE20C49C
BE126E98
3B30F27C
BE45D639
BDA85879
3A378034
BE3404EA
3DCBFB16
BD6075F7
3DB1F8A1
BB8CE704
BD9B089A
BD086595
3D762B6B
3DF765FE
3D03E426
BDF93DD9
3E1B089A
3E585F07
BE22339C
BD23D70A
BDEC56D6
BC1BA5E3
3DC710CB
BDD63886
BE087FCC
BE4F9097
BD83E426
3DEB1C43
3D116873
BD70D845
BD051EB8
BDB2617C
BE2D288D
BD4BFB16
3D343958
BE3D07C8
BE276C8B
3E3E425B
3D4FAACE
3C3295EA
BDCBFB16
3E350B0F
3E6D42C4
3DF9A6B5
BB30F27C
3DFA786C
3E0A57A8
BCE3BCD3
BE4ADABA
3DF69446
3C4CCCCD
3E26809D
BE236E2F
3E2594AF
BE2A3055
BD89374C
3E2F837B
BDF14120
3CEA4A8C
BD7837B5
3E04D014
3E31A9FC
3E9D6388
BD5A511A
3DA4A8C1
3E2F1AA0
3E6CF41F
3DF79A6B
BDA5E354
BE502DE0
BE0C2F83
BCC7E282
BDFAACDA
BCAC0831
3E30D845
BDBB645A
BD484B5E
3DCAF4F1
3E401A37
3B79096C
3D05F06F
3CB43958
3DB645A2
3E46A7F0
BE558106
BE37CED9
3D4E075F
3DF9096C
3DA95E9E
BE028F5C
3C1D4952
BD7765FE
BD669AD4
BDDA511A
BE3C6A7F
3D058794
3D8D844D
BCCCCCCD
BD1374BC
BE4E2196
3E7923A3
BD044D01
BDCD6A16
3DF79A6B
BDDB8BAC
3CCA57A8
3DD21FF3
3E4AC083
3E08E8A7
BE25C91D
3D972474
BDE1B08A
3E3D3C36
3BBE0DED
3D37E910
BE0CCCCD
BC3FB15B
BE418937
3E4779A7
3E619653
3C95E9E2
BC727BB3
BD5B8BAC
3E31A9FC
3DF2B021
BDC08312
3E5EECC0
3D883127
BDD2F1AA
3D86F694
3DD81062
BE0710CB
BE028F5C
BE1C0EBF
3C59E83E
3E69E1B1
BD058794
3E1F06F7
3D50E560
3B89A027
3E315B57
3E39A6B5
BE3AFB7F
3DAA64C3
3E17A787
3DC25AEE
3E5BC01A
BD9D4952
BE474539
3D257A78
3E1AEE63
BD044D01
BDE9AD43
3E2A4A8C
BD60DED3
BDEC56D6
BD0240B8
3BC154CA
3BA71DE7
3D74F0D8
3DD3C361
3D350B0F
BE516873
3DA5E354
BD810625
3E144674
3E189375
3DA3D70A
BE2AB368
3E2DC5D6
3DFBB2FF
3E3DD97F
3A378034
3E2CD9E8
BD855326
BE24C2F8
3E4BAC71
BE3D70A4
BDF5F6FD
BE5B22D1
3E0A3D71
BDF27BB3
3DF7CED9
3D36AE7D
3E2075F7
3B9374BC
BDCBC6A8
BB727BB3
3D8A0903
BE542C3D
BC89A027
3E142C3D
3C0CE704
BDA0902E
3E4068DC
3D87FCB9
BE08CE70
BE0D6A16
3E361134
3DB9C0EC
BD82A993
BE408312
BD39F55A
3DDAB9F5
3DB1C433
3A03126F
BCDED289
BDA12D77
BED9CE07
3E1FA440
BE1A6B51
BB86594B
BE9BA5E3
3DB573EB
BDEC56D6
BE04D014
BD89A027
BDD21FF3
3DD21FF3
BE3089A0
BD6703B0
BCB851EC
BDB6E2EB
3DA2D0E5
3CE631F9
BC741F21
BDE11340
BE28DB8C
BE62B6AE
BDB8BAC7
3D9EB852
BBF5C28F
BCF27BB3
3D844D01
3E489A02
BE41A36E
3DB8EF35
BDCF0D84
BE1A8588
3E20C49C
3D0240B8
BE5B3D08
3B378034
3B16BB99
3E54FDF4
3C91D14E
BC4B295F
3DF9096C
BE0793DE
BC9FBE77
BCA161E5
3E467382
3C7C5048
BD4A57A8
3C96BB99
3D5CC63F
BB6BEDFA
BE0AC083
BD051EB8
3D0EF34D
3E013A93
3D53C361
3E23D70A
BE303AFB
3C90FF97
BC0CE704
BE53F7CF
3E82B6AE
BCCA57A8
3D9FBE77
3DFD21FF
BD8D4FDF
3DF03AFB
3DB39C0F
3DD66CF4
3E3C01A3
3B86594B
3C59E83E
3D4C63F1
BA902DE0
BDFD566D
3D919CE0
BE13404F
BE138EF3
BE591687
3E2BB98C
BCAE7D56
3DFF2E49
3EB923A3
BE600D1B
3DD013A9
BD9A9FBE
BDA75254
BD9F559B
3D597F63
3C6A4A8C
3DB50B0F
3CA57A78
BD343958
3DB5DCC6
BD2E7D56
BDC7AE14
BCFF9724
BDAC710D
BAF9096C
3C0CE704
3DA9FBE7
3E3923A3
3DCA233A
3C3E0DED
BE0E5604
3DE11340
3E197F63
3DE5FD8B
3DD119CE
3E28240B
3E09BA5E
3D4ED917
BDA3A29C
3E13F7CF
3C858794
3D07FCB9
3DC84B5E
3D84816F
BE2B6AE8
3DC87FCC
BCE7D567
BD9A0275
BE096BBA
3E1CC63F
BDB6AE7D
3E20DED3
BC6F34D7
3E3D566D
3DD013A9
BD8E2196
BDDA511A
3E3D8ADB
BC95182B
3E45BC02
3DC432CA
3E144674
BD99CE07
BE30BE0E
3C4E703B
3DA29C78
BE2D0E56
3E0DB8BB
3E4D844D
BDF0D845
BD944674
3DFBE76D
3E3EF9DB
BD0D4FDF
3D29FBE7
BD919CE0
3D07FCB9
3D1A0275
BE4FF972
3D5ED289
3D99999A
3DE425AF
3DA5E354
BD4E075F
3E5374BC
3DA88CE7
3DFD566D
BD8EBEE0
3D15182B
3D8ADABA
BE153261
BE3A0F91
BE5B8BAC
BDDE9E1B
BDAEE632
3E54C986
BE802752
3DFA43FE
BDF65FD9
3BD844D0
BE2F4F0E
3D0A0903
BD398C7E
BE4B295F
BCB9F55A
BD926E98
3E6D0E56
BE706F69
BE33B646
3B9A0275
BD8EBEE0
BB6BEDFA
3E0CE704
3DA29C78
3DAA3055
3D86F694
3DAC0831
3E0AC083
BD3C01A3
3D89D495
BDA6809D
3E645A1D
3E74D6A1
3D741F21
3C83E426
3DF52546
BE020C4A
BD95E9E2
BDE703B0
3D20902E
3D889A02
3C51B717
BE161E4F
3E4CB296
3E746DC6
3E15B574
3E149518
3D84EA4B
3E334D6A
BDDD2F1B
3D954C98
3E4BAC71
3DBFE5C9
BD89A027
3D24A8C1
3CDC5D64
3E553261
3E422681
BDD8793E
BE864C30
3CF9DB23
BDF52546
3D8A0903
BDE594AF
3C8C154D
BDF4BC6A
BE1D6388
BDB5A858
3E378034
3E619653
3D8624DD
BDFAACDA
BE2C0831
3E01BDA5
3DB81D7E
3E3F1412
BD5E69AD
BD3F4880
BCA0902E
3E3559B4
3D941206
BDB0BE0E
BD42F838
3DADAB9F
3DED9168
BE51EB85
BDDA1CAC
BCF0D845
3E4F27BB
3E67D567
BCC154CA
BD39F55A
BE0EA4A9
BE9EB852
3E5F559B
BE0C7E28
BC858794
3E361134
3E6AB368
3DBB2FEC
BDBDD97F
BD450481
3E35A858
3E4538EF
3E08CE70
3D96BB99
3E23A29C
BD67D567
BD83126F
3EA5BC02
3DD14E3C
3DB7E910
BE4D1B71
BE0B5DCC
3D51B717
BE94AF4F
3CDD2F1B
BE0DD2F2
3D36AE7D
3D5CC63F
3CDAB9F5
3E9CC63F
3D2161E5
3E0CB296
BDBC01A3
3DD66CF4
BD35DCC6
BCAC0831
BDDDCC64
BD229C78
3E4C7E28
BE0710CB
3BD1B717
BE49D495
3E843FE6
3BFC5048
3E1A36E3
3A1D4952
3DE7381D
BDC36113
BE502DE0
3E864C30
BDFB15B5
3CF41F21
3DF10CB3
3D6B851F
3E954C98
3B9D4952
BE07E282
3E85FD8B
BCF69446
3D3C6A7F
3DCA57A8
3E428F5C
BD4ED917
BE769446
3DC1205C
BCC63F14
BD6DFA44
3E00D1B7
3E02A993
BDFAACDA
3DCCCCCD
BDD2F1AA
3E381D7E
BDAD7732
3E200D1B
BCD91687
BBF9096C
BE17F62B
BD83AFB8
3AAA64C3
3DD60419
BCF5C28F
BC185F07
BDF0A3D7
3CF765FE
3C20902E
BDC67382
3D19999A
3DA47454
BD8CE704
BD90CB29
3DB71759
BD072B02
3E181062
BD6147AE
BE32FEC5
3D3295EA
3D706F69
BDD91687
BD762B6B
BE294467
BDDCFAAD
3D883127
3D8068DC
3D9A36E3
BDDF06F7
BDA5E354
3DDE353F
BDCE075F
BD3851EC
3C63BCD3
BD2786C2
3E004EA5
3E2C2268
3E1119CE
3D800000
3DA786C2
3E25119D
BD4C63F1
3C15182B
3DEE6320
3DC779A7
3D507C85
3E0C7E28
3D8BAC71
BD58ADAC
3BBAC711
3CB50B0F
3BBAC711
3DA9930C
BE016F00
3E5B3D08
3D1F559B
3DB61134
3E441893
3B79096C
BD9C779A
BCE48E8A
3DDC28F6
BCFF9724
3E290FF9
BE31758E
BD15182B
BD5A511A
BD185F07
BDD8ADAC
3E487FCC
BDF58E22
BE05A1CB
BE02C3CA
BE09374C
3E373190
3E09A027
BE1B573F
3E1182AA
BD0C7E28
3E2594AF
3DC0EBEE
3E0779A7
3DC6DC5D
3DE9AD43
3E4154CA
3E123A2A
BAEBEDFA
BE373190
BE6A9931
3C9A0275
3E9DA512
BE1A6B51
3E350B0F
BDFBE76D
3E3B98C8
3D84816F
BD75C28F
3DF381D8
BE2CD9E8
BCD9E83E
BE8538EF
BD8DED29
BC016F00
BE26CF42
BE15182B
BD0793DE
3C3295EA
3CEE6320
BE044D01
BD072B02
3E378034
BC83E426
3E0CE704
BD202752
BD202752
BE2631F9
BE72CA58
BD9B3D08
BD95182B
BD6075F7
BD99652C
3E4902DE
BEA66666
3E3DA512
BE19999A
BDD288CE
BD0C154D
BCA4A8C1
BD8F5C29
3C86594B
3DB851EC
3D83AFB8
3E84D014
3CF4F0D8
BDA88CE7
3DADE00D
3D9EB852
3E6D7732
BE70D845
3E0D35A8
BBCB295F
3E07C84B
BDF03AFB
3D919CE0
3DB0BE0E
BDE7381D
3E3DF3B6
BE2A7EFA
3DA9930C
3CA30553
BC2A64C3
3D0793DE
BD80346E
3E31DE6A
BDC36113
BD82DE01
BE266666
3DE2B6AE
3E3C84B6
BD90FF97
3D2D42C4
BE3D07C8
3E92A305
BDBB98C8
BC8E8A72
BDA4A8C1
3E18E219
3A9D4952
3C5ED289
3E857A78
BE5C28F6
BE229C78
BDE4C2F8
BE2D9168
3C56A162
3E7487FD
3E1CAC08
BDDD2F1B
3DCD9E84
BE60902E
3DB61134
BE3B645A
BE1CAC08
BE67381D
3E724745
3E3C01A3
3DDE9E1B
3E091D15
3DC2F838
3D6E6320
BD2CD9E8
3DD6D5D0
BCD91687
BE13F7CF
BD507C85
3DA161E5
3DA88CE7
3E2161E5
BDFC84B6
BDACD9E8
BE32B021
BE0ED917
BE294467
BE6D9168
BE2E978D
BD8240B8
BE0C2F83
BD9EECC0
3E9126E9
3D97C1BE
3A378034
3E1BA5E3
BDE2B6AE
BAB78034
BE3765FE
BE2A9931
3E4C154D
BDA29C78
BE3404EA
BE173EAB
3D4154CA
3E619653
3E10624E
BD3CD35B
BC88CE70
3E1096BC
BEAD844D
3DB05532
BE153261
BE18ADAC
BE1BF488
3E48B439
BE2EE632
3E3E2824
BD463F14
BE4E075F
BE371759
3D25119D
3D398C7E
BBC7E282
BD428F5C
3CB0F27C
BDB05532
3E24F766
BD1D4952
BE25119D
3E4240B8
BD923A2A
BE42F838
BE275254
3DEC8B44
3D6DFA44
3E185F07
BBEBEDFA
BDD8793E
3C5ED289
BD27EF9E
3E2617C2
BDF2E48F
BE450481
BDD1B717
BDBAFB7F
BD9A36E3
3DCA8C15
3D82A993
BD4A57A8
3DBE0DED
BE3D3C36
BE121FF3
BCB43958
3DF9096C
BD9374BC
BE1CC63F
BDD182AA
3D93A92A
BE0B4396
BDB9C0EC
3DC7AE14
BE0068DC
BE046738
BE2CF41F
3D9FF2E5
BD08CE70
3E3FB15B
BE22339C
BD22339C
BD6631F9
3E1C5D64
3DD70A3D
BD9BA5E3
BAF9096C
3E46C227
BD87C84B
BD7EC56D
BDCAF4F1
BDA75254
BDAE7D56
3B5ED289
3E05F06F
BCAC0831
3DD7DBF5
BE26CF42
3A9D4952
BDD6D5D0
3DFCED91
3E4ADABA
3D8B7803
3D79DB23
3DE0DED3
BDCE703B
3E001A37
3D044D01
BDDD2F1B
3D90624E
3E0D013B
BDC49BA6
BD38BAC7
BC3295EA
3DBC6A7F
BD809D49
BE178D50
BDF0068E
3C15182B
3E04EA4B
3E5A8588
3E2DC5D6
BE37CED9
3DA57A78
3E060AA6
BD27EF9E
BD50E560
3DE872B0
BDEF6944
BDFA0F91
BE49EECC
3D23D70A
3D889A02
3DA1CAC1
BD6ECBFB
BE398C7E
3CAF4F0E
BD87FCB9
BD75C28F
3CF41F21
BE1288CE
BE496BBA
3D9C0EBF
BD883127
3D9BA5E3
3D230553
3E3AACDA
3E01BDA5
BDC985F0
BE01D7DC
3E6F837B
3DD53261
3C3923A3
3D25E354
BE2A161E
BE4793DE
BD78A090
BD2ACD9F
3E1F06F7
3E074539
3D83126F
BE000000
3DE21965
3CDED289
BE4432CA
3C872B02
3CF765FE
3E21B08A
3DCBFB16
BDB8BAC7
BE48E8A7
3C185F07
3BDED289
3E29C77A
BCE7D567
BD50E560
3DDD6388
BE339C0F
3DE703B0
3C463F14
BDE0AA65
3DF559B4
BE305532
3CC710CB
BC1EECC0
BE067382
BE64DD2F
3DF65FD9
3E00EBEE
3DC25AEE
BE327BB3
BBF27BB3
BDBEDFA4
BE292A30
3D2E147B
BC86594B
3D837B4A
3D628241
BD1374BC
3C9FBE77
BE1DB22D
3AEBEDFA
BE2E978D
3E39A6B5
3E2809D5
3DFF9724
3D5D97F6
BCC985F0
BCF0D845
BDC1BDA5
3E130BE1
BD3A5E35
BCE56042
3C6BEDFA
BDDA511A
3DE6CF42
BE541206
3E5AD42C
3DB81D7E
BE32CA58
3C8F5C29
BEC617C2
3DF58E22
BDC432CA
BC47E282
BDBDD97F
3D7D8ADB
BE4CE704
BCD288CE
BE04EA4B
BE516873
BE7CB924
3E172474
3CCBFB16
BD5D2F1B
3DAC0831
3DB4A234
3DC22681
BB96BB99
BE189375
BD81A36E
BD8C49BA
3E671DE7
BDFDF3B6
3E6E978D
BD1F559B
BE271DE7
BDA8C155
BE0ADABA
3C88CE70
3E075F70
3DCA8C15
BE404EA5
3DA6E979
BE6CF41F
3E9B3D08
BC8E8A72
3EB62B6B
BDFF62B7
BE6DAB9F
BE1FF2E5
BD1374BC
3D1FBE77
BCF69446
3EA68DB9
3DE2B6AE
BE1A511A
3ADED289
3CA0902E
3EA21965
BD3DA512
3CE8A71E
3D0A71DE
3E86CF42
3E811340
BC16BB99
3D958106
BE59B3D0
3DBA5E35
BB9D4952
3E3C9EED
BD0E2196
3D4432CA
3BD844D0
3D916873
BD8BAC71
3DC2C3CA
BD70068E
BDC7E282
3E2EE632
BD4B923A
3DADE00D
3D89374C
BDF97247
BDAB367A
BD913405
BE6BB98C
BE2339C1
3CBEDFA4
BDDB573F
BE827525
BC20902E
BCACD9E8
3E102DE0
3DC2C3CA
3E19B3D0
BC84B5DD
BE1DE69B
BDCF41F2
BDCA8C15
BD7D8ADB
3E42F838
BE3212D7
3E5844D0
3DFAACDA
3E12A305
BA1D4952
BE5DE69B
3DD8ADAC
BE65C91D
BC87FCB9
3E4F41F2
BD837B4A
BE1E83E4
BDFD8ADB
BE0FC505
3E0240B8
BD78A090
3D5D2F1B
BDAFB7E9
3D1A6B51
BD76FD22
3DA0902E
3DC5A1CB
3E2C0831
BDB18FC5
3C5013A9
BBC7E282
BE1BF488
3DD844D0
BC95182B
BE3BE76D
3E3D07C8
BD96BB99
3DBD3C36
BE2B020C
3DEDC5D6
3DC9EECC
3DCC63F1
BD841893
3E8A0903
3D13DD98
3E7EC56D
BD3851EC
3DECF41F
BDD3C361
3E075F70
3D4710CB
BDB126E9
BDFFCB92
3D25119D
BB9A0275
3E33B646
BCE8A71E
3DE8A71E
3DA5460B
3DD2BD3C
3DED9168
3E36C8B4
BDA786C2
BDDAEE63
3D0BAC71
3E867382
BE472B02
3DD38EF3
3CFC5048
BD3E0DED
3D5F3B64
BE2D5CFB
3CC710CB
BE15CFAB
3E343958
3E0779A7
3E1566CF
3E343958
3CE978D5
BD5844D0
3D71A9FC
3D89A027
BDE69AD4
3E06F694
BDEBB98C
3E26B50B
BDA57A78
BE4FDF3B
3E123A2A
3E8A8C15
3E2A161E
BE41205C
3CD1B717
BDE5C91D
3D570A3D
BDA95E9E
BDB2CA58
BDF58E22
3E028F5C
BDAB6AE8
3D26B50B
3E29C77A
BE2DFA44
3E1A511A
3E149518
3DA75254
BD271DE7
3C3923A3
BEC7C84B
3CC63F14
3E5A511A
BE47FCB9
3B656042
3DDD97F6
BE2EB1C4
BD7F2E49
BE173EAB
3B6BEDFA
BD621965
BDCA233A
BE1652BD
3E27EF9E
BD902DE0
BBA3D70A
3BD844D0
BE3CD35B
3C6D9168
BD1652BD
BDE48E8A
BCA8C155
BE2147AE
BD9758E2
3DD8E219
3CF0068E
BDBB645A
BBC7E282
BDD460AA
BD8EBEE0
BDDE9E1B
3DC432CA
BE001A37
3D28C155
3DE2EB1C
BD1E1B09
BE01D7DC
BE56D5D0
BE3C9EED
3CC710CB
3D058794
3D0CE704
3DB22D0E
3CEBEDFA
BDA6809D
BE1C0EBF
3E185F07
3D3D3C36
3D591687
BE12BD3C
3E75A858
3E173EAB
3E2872B0
BDED5CFB
3D3E0DED
BD85BC02
3D5566CF
BD2F4F0E
3DED288D
BE24C2F8
BDDFD8AE
BD6A4A8C
BE630553
BE77E910
BE4DD2F2
3E6A9931
BCAC0831
3E657A78
BD0C154D
3D2C0831
BE170A3D
3D6353F8
3D676C8B
3E0624DD
3E08B439
3D7212D7
3D06594B
3E5182AA
BCFAACDA
BD59E83E
BDF03AFB
3EC09D49
3E1182AA
BDEECBFB
3E74538F
BE444D01
3CB0F27C
3D97F62B
BDF4F0D8
3D96BB99
BDB851EC
3D8E8A72
3CF5C28F
BDDB573F
3DDE69AD
3D9A36E3
3E1E353F
BCC3C9EF
3E28DB8C
3D563886
3CF34D6A
BD9F212D
BE44D014
BDEB50B1
BE3C9EED
3E044D01
3D456D5D
BD5288CE
BD6147AE
3E491D15
3E374BC7
3D7B15B5
BD185F07
3C9D4952
3E37CED9
3E30D845
BDCE075F
BDC1205C
3CF0068E
3D130BE1
3E50624E
BC621965
BD8DB8BB
3D8B4396
BD91D14E
BE1E69AD
BD03126F
3D13DD98
3DAC0831
BE5B22D1
3E44D014
3DD38EF3
BE82680A
BAF9096C
3DAC3C9F
BD72E48F
3CBEDFA4
BE0902DE
3E2CA57A
3E11D14E
BDFBE76D
3E49D495
3D0C154D
BD102DE0
3CBE0DED
3DDC28F6
3E847454
3D009D49
BE121FF3
3DD9E83E
3DC4D014
BD25E354
3E352546
3DD4FDF4
BE230553
BE211340
3DDA1CAC
BBD844D0
BBDED289
3E57C1BE
3D683E42
3DD460AA
3DC49BA6
3CDC5D64
BD95E9E2
3E1ED289
BE0CCCCD
BC95E9E2
3DB0F27C
3E836113
BD577319
3E200D1B
3E472B02
3D25119D
3BD4FDF4
3C5844D0
BB03126F
BE0ED917
BE1FBE77
3E0985F0
3D827525
BDEF34D7
3E032CA5
3DC91D15
3DBC6A7F
BE04816F
3D26B50B
BDCBC6A8
3DA2D0E5
BC5B8BAC
BDF3EAB3
BD77CED9
3DC36113
3E0902DE
BD45D639
3D923A2A
BE3FE5C9
BB09A027
BDDE69AD
3E0BE0DF
BE039581
3DE147AE
BD037B4A
3DB05532
BDDB573F
3E01205C
3D9F212D
3D60DED3
BE4538EF
BDADAB9F
BDE8DB8C
3CC710CB
BCC22681
3D706F69
3D72E48F
3D4C63F1
BD4AC083
3E561E4F
3DA0C49C
3D535A86
3DD94AF5
BD4154CA
BDDB573F
BC3E0DED
3E475F70
3D827525
BD844D01
BD96F007
3DA95E9E
3D172474
3DDC28F6
BC4E703B
3D20902E
3E087FCC
BD2B9F56
3DDC5D64
BE314120
3E2E147B
BE4C154D
3D1C0EBF
BCF4F0D8
3E3089A0
3E3923A3
BA9D4952
BD972474
3BC49BA6
3E5D14E4
BD3851EC
3DADE00D
BE81BDA5
3C28C155
BD29FBE7
3E21FF2E
BC449BA6
BB5844D0
BD32FEC5
BE327BB3
BE20902E
3DBAC711
3DD182AA
3DEB1C43
3D2A64C3
BBFC5048
BDC779A7
BD9B7176
3E178D50
BDF24745
3DC2F838
BD797247
BD41BDA5
3DD04817
BE35F6FD
3D051EB8
BDF4F0D8
BC978D50
3E046738
3D9A0275
3E19999A
BD6CBFB1
BE21CAC1
3D96BB99
3D4B923A
3D9B089A
BD292A30
3DD0B0F2
3DD66CF4
3E1D4952
BD0D4FDF
3D65C91D
3E1844D0
3DB089A0
BD84816F
3D9DE69B
BE322D0E
BD90FF97
3D9AD42C
BCC56D5D
3DD119CE
3DFEC56D
3D70D845
3E5460AA
BB2A64C3
BC92A305
BDE075F7
3E6B6AE8
3D98C7E3
BD6C56D6
BD872B02
3DBF7CEE
3DED288D
3E27D567
BE2353F8
3DF4538F
BE7A786C
BD8A71DE
BD037B4A
BD41BDA5
3CC08312
3DF6C8B4
3DE872B0
BD8D1B71
3D158106
3B83126F
3D428F5C
3DBB98C8
BC15182B
3E4E075F
BC5B8BAC
3E69930C
3E1EECC0
3D93DD98
BDF0068E
BE3126E9
BD25119D
BD08CE70
3E3DBF48
BE0B4396
BD8A71DE
BD1E1B09
3CF0D845
3D2DAB9F
BE5DCC64
3D38BAC7
BCA9930C
3DF5C28F
BCB020C5
BD7CB924
BC9AD42C
BCFC5048
BE8C8B44
3DA8F5C3
BE5ED289
3E0C7E28
3D2C0831
3E2D9168
3E3837B5
BD85F06F
3D7765FE
BE6D9168
BE47AE14
3DDBC01A
3C463F14
BDC25AEE
BB9374BC
BC257A78
3DD8E219
BCB9F55A
3DD5CFAB
BDC6DC5D
BDD119CE
BE5B8BAC
3DD53261
3D79096C
3DBA29C7
3D26B50B
BE352546
BDC7E282
BDCAF4F1
3C7F9724
3E266666
BD6A4A8C
3E3765FE
BDD7A787
3E566CF4
BDF8D4FE
3DD59B3D
3C5013A9
BCB020C5
3DA7BB30
BDEBB98C
BDCA8C15
3D9F212D
3E46DC5D
BE2F4F0E
3D872B02
3CC3C9EF
BE34F0D8
3D820C4A
3DBE0DED
BE643FE6
BE62D0E5
3DE0AA65
3D11D14E
BDB4D6A1
BE801A37
3D401A37
3C95182B
BD8240B8
3E3E2824
3DB4D6A1
BDD2BD3C
BDBE425B
BE096BBA
BDD2BD3C
3DD1EB85
BE491D15
3E9B4A23
3E24DD2F
BDAE7D56
3D6703B0
3CCF41F2
BE34BC6A
3E418937
3D9AD42C
3CB9F55A
3DA9FBE7
BE1A6B51
BDC5A1CB
3DA2D0E5
BDEF6944
BD8EBEE0
BDA29C78
3D4B923A
3BDED289
BE1F212D
BD4AC083
BB83126F
3C56A162
3DFF9724
BE2E6320
BE3B7E91
BDCFDF3B
3D83126F
3E166CF4
BE0BFB16
3DE0DED3
BE1A36E3
BDDAB9F5
BDFF62B7
BD8FF972
3E01A36E
BE36FD22
3E2B1C43
BE44B5DD
BC3295EA
BBF5C28F
BE0CB296
BDDAEE63
BE30068E
BE5FBE77
BDBFE5C9
BE1E83E4
3D8DED29
BCF0D845
BD86C227
3DBA92A3
3CBB98C8
3D6B851F
BD60DED3
BE3923A3
BDE00D1B
3CE56042
BBDB8BAC
BCA7EF9E
BE17F62B
BE2ACD9F
BE1758E2
BDD77319
BE0D35A8
3DF62B6B
3DF10CB3
3E11B717
3E418937
BDD9B3D0
3D25119D
BC985F07
BE2DAB9F
3CEBEDFA
3D3923A3
BD8DED29
3D086595
BD8A3D71
BBD844D0
3E00D1B7
BDE353F8
BCE7D567
BC11D14E
BD0F5C29
BD3A5E35
BE3404EA
3DE31F8A
3D4FAACE
BDDAB9F5
BC5ED289
3CDAB9F5
3C6075F7
BE0779A7
3D978D50
3E2353F8
3D9D7DBF
BDB78034
3E3F2E49
BE48B439
3DC2C3CA
3E4DD2F2
3D7AACDA
3D741F21
3C23D70A
3E0346DC
3DC8B439
3DBB645A
3C1374BC
3E59CE07
BE17A787
3DC2F838
3CE8A71E
3E3F1412
3E27A0F9
3E21E4F7
3E0EBEE0
3DAA3055
3E33D07D
3DF65FD9
3E221965
BDA161E5
BC6703B0
3E2A4A8C
BC3923A3
BE3212D7
3D8DED29
BD65C91D
BD39F55A
BDE631F9
3E2B9F56
3D1FBE77
BE4EBEE0
3E4C63F1
3CA7EF9E
BDAB367A
BE3EAB36
3D116873
3DF58E22
BDFE5C92
BDEFD220
3D8DB8BB
3CBE0DED
BE2FB7E9
3C9D4952
BE149518
3D91D14E
BE6EE632
BE2AE7D5
BD3CD35B
3D08CE70
3E3E0DED
3E611340
BE0AA64C
3E2A64C3
BDB7E910
BE03126F
3E1930BE
BBA71DE7
3D5D97F6
BE13404F
3C8DB8BB
BD456D5D
BC257A78
BD3FB15B
3D0E8A72
3DE5FD8B
BD7CB924
3DA1FF2E
BDBAFB7F
BDDFA440
3E2B9F56
BCB0F27C
BDDC91D1
3C4B295F
3CE8A71E
3D82A993
3E004EA5
BE60F909
3E055326
BD72E48F
BD65C91D
3E285879
3D90624E
3E367A10
3DD7A787
3B1D4952
3DFF62B7
BDE04189
3CE7D567
3D1C779A
BCCE703B
BD88CE70
BCC3C9EF
3D3CD35B
BD5F3B64
BE15E9E2
3E18793E
3E17A787
3CFDF3B6
3DE3BCD3
BE049BA6
BDC2C3CA
BDAD42C4
3E3C9EED
BDF52546
BD3923A3
BDA5AEE6
BE408312
3DB404EA
BE0F9097
BE264C30
BE1C5D64
3E5758E2
BC449BA6
3DCE3BCD
BDDC5D64
3D2ACD9F
3DAD0E56
BE20C49C
BE18E219
3E3212D7
3E3E5C92
BC56A162
3E170A3D
BE1E00D2
BD9CAC08
3E197F63
3E59999A
3E60AA65
BD00346E
3E25AEE6
BC621965
3E5AD42C
BC8DB8BB
3E2C8B44
BE343958
3E1C5D64
3D158106
3BBAC711
3E19E83E
3E624DD3
3DC710CB
3CCBFB16
BB86594B
3DDAB9F5
BDE2EB1C
BD229C78
3DB4D6A1
BDEDFA44
BD1E83E4
BC741F21
3DA9930C
BDEF0069
BE65E354
3CA161E5
BD86594B
BDF41F21
3DA95E9E
3D954C98
3DE11340
3E4AA64C
3D549518
3E039581
3E13F7CF
BE378034
BE46594B
BDD8793E
BD4E703B
BE743958
BE34538F
BBAA64C3
BE19E83E
BE3E425B
3D648E8A
3E2A7EFA
3D36AE7D
BE1E69AD
3E7B4A23
3E182A99
3DF765FE
3E0C63F1
3E27381D
BE72FEC5
3DA40B78
3DD60419
3E8D0E56
BCA161E5
BD8C7E28
3E0A3D71
3E554C98
BDF9DB23
3A902DE0
3CC63F14
BDF381D8
BE0BE0DF
BE519CE0
BC28C155
3D727BB3
BCF4F0D8
3C809D49
BB378034
BE80D1B7
3D3AC711
BD7A43FE
BDEBB98C
BD2786C2
BCFD21FF
3DF837B5
3C378034
BE714120
BCCE703B
BD010625
3DDA511A
3E1BC01A
BD961E4F
3E010625
3E32FEC5
BE09A027
BE2EB1C4
BD1E83E4
BE3AE148
3BF9096C
3E4E075F
BE6D42C4
3DD7A787
BC378034
3D43C9EF
3E4B7803
BDA75254
BDB295EA
3D49EECC
BE0B4396
3D4ED917
BE0538EF
3C3295EA
3CB1C433
3D6B1C43
BDCA8C15
3E0B295F
3C15182B
BD99652C
BDD288CE
3E4EA4A9
BE2E48E9
BDC0B780
BD99999A
3DBAC711
3E11EB85
3C271DE7
BE6D0E56
3E1BDA51
3C535A86
3D8624DD
BBFC5048
BE06A7F0
3E4D1B71
3BD844D0
BC16BB99
3D4BFB16
3DCF0D84
3DC32CA5
3D944674
3DA2680A
BC3295EA
3E0432CA
3D809D49
3E694467
3D3D3C36
3DF41F21
3E8068DC
BA6BEDFA
BC7DF3B6
BD65C91D
BE4710CB
BB5844D0
3E3F9724
3DB404EA
BE116873
BD926E98
3DB4D6A1
BD8793DE
BCB851EC
BE2FD220
3E5DCC64
3E1AD42C
3D3367A1
BD7F2E49
BE10CB29
3DB6AE7D
3E20AA65
BDBEDFA4
BD727BB3
3E4AA64C
BD116873
BD3020C5
3E4AC083
BD06C227
BDE31F8A
BCFAACDA
BE5A1CAC
3E90BE0E
BDD4C986
3E5205BC
3E1CFAAD
3D85BC02
BCB9F55A
3E6D288D
BE33EAB3
BB727BB3
BE01A36E
3E29AD43
3E4B4396
3D85BC02
3E036113
3C5ED289
3DB95810
BB656042
3CF5C28F
3E2594AF
BC9A0275
3D89D495
3DC91D15
3E29E1B1
BD851EB8
BDC32CA5
BD813A93
3E2353F8
BE1758E2
3951B717
3E3D21FF
BD229C78
BE16A162
BE29FBE7
BCA71DE7
BDA8240B
BD88CE70
BD8346DC
3C59E83E
BC3295EA
3E1DB22D
BE40346E
BD2B367A
3D0C154D
BD8D844D
BE2B6AE8
3DD35A86
BD4D35A8
3DA30553
BE602752
BD0A71DE
BC0CE704
3D32FEC5
3C8B4396
BE245A1D
BD542C3D
3D408312
BE5CAC08
BDFBB2FF
3DE3F141
BE32E48F
3E1013A9
3D7F9724
BE231F8A
BE23BCD3
BE01A36E
BA378034
3DA9FBE7
3D714120
BD2B9F56
BE027525
3E170A3D
BD24A8C1
BE107C85
BDF5F6FD
BDF93DD9
BD70D845
3E2CF41F
3CDC5D64
3E3404EA
3DE5C91D
BDEC2268
3DEA7EFA
3E2D5CFB
BDACA57A
3E753F7D
3E695E9E
3E4C2F83
3C3295EA
BD3AC711
BE07C84B
BDD25461
BE4ED917
3D6353F8
3C185F07
3D1374BC
3E055326
BE0902DE
BDD7A787
BC9BA5E3
BE2703B0
3D56A162
3DC08312
BCE147AE
BDD7A787
BD50E560
3BFF9724
BE05A1CB
3E1BDA51
3E4FAACE
3DD013A9
BE460AA6
3D916873
BE0068DC
BDB367A1
3CB295EA
3CCF41F2
BEA5C91D
BCEBEDFA
BE248E8A
BE0C7E28
BDEE2EB2
3D1B3D08
BD2F4F0E
BBF5C28F
BAAA64C3
3E104817
BD3C6A7F
3C15182B
BDCD6A16
BDB05532
BE3EDFA4
BDB81D7E
BE294467
BB1D4952
38D1B717
BE9D6388
3E1A9FBE
BD591687
3E35C28F
3E123A2A
3D1930BE
BE87E282
BE8F41F2
3C3FB15B
BDB367A1
BD5D2F1B
BE82EB1C
BDD0B0F2
3C1BA5E3
BE47FCB9
3DDF06F7
3D8A3D71
BDAA3055
BE243FE6
3D1CE076
3D178D50
3D428F5C
3D06594B
BD6C56D6
3E8793DE
3EAD013B
BDC60AA6
BE43E426
3DA5119D
3BF9096C
3D378034
BE095183
BE2BEDFA
BC7765FE
BD90624E
BDDBC01A
BDA92A30
BE72B021
BE22B6AE
3D0B4396
BC1A0275
3E1288CE
BE3D8ADB
3D3573EB
3D8CE704
3DC1BDA5
3CB295EA
BE271DE7
3E0A3D71
3DDCC63F
BE54C986
BE224DD3
3C16BB99
BDF9096C
3D37E910
BDE978D5
3DDD97F6
3DE31F8A
BD972474
BCBC6A7F
BD25119D
3E62D0E5
3D48B439
BDDF6FD2
3D2EE632
3DE978D5
BE113405
BE0D013B
3D9F8A09
BDDAB9F5
BE341F21
BBADAB9F
3D54FDF4
3E15CFAB
BE4A71DE
3D797247
BE0F7660
BD02A993
BE1BC01A
3C8A71DE
3E219653
3DAE48E9
3D714120
BD741F21
3D80D1B7
3C35DCC6
BE03E426
BE21FF2E
BE2CD9E8
3D9B089A
3D96BB99
3C11D14E
BDE5C91D
BDB4A234
BDEBB98C
BE200D1B
3D841893
3D5C5D64
BDA8F5C3
3E3BE76D
BDD91687
BCF27BB3
3D734D6A
3E1119CE
BD3EDFA4
BE2E7D56
3D2E147B
BAEBEDFA
BE5F3B64
BE205BC0
BD292A30
3E46C227
BE1E83E4
BD800000
BE5460AA
3CFAACDA
BC86594B
3CD42C3D
3DE17C1C
3CAF4F0E
3BA71DE7
BE3DD97F
3E219653
BE78A090
3DD35A86
3E378034
BE3F2E49
BD591687
BDF4538F
3D858794
3D5566CF
BC463F14
3C535A86
3D3EDFA4
3E6CF41F
3CFF9724
3E130BE1
BD79DB23
3DA8240B
3E61B08A
3D9DE69B
BE197F63
3CB367A1
3E542C3D
BDAB367A
BD16BB99
3CB5DCC6
BDD42C3D
3D6ECBFB
BC872B02
BE06DC5D
3E0D013B
BDD013A9
3DBC9EED
3E5E1B09
3E1E9E1B
3DFB7E91
BDAD42C4
3DF4F0D8
3DC39581
3E2E978D
BE1DCC64
3E2A7EFA
BCE2EB1C
3E2C3C9F
3D07FCB9
3E181062
BD3E76C9
3E29AD43
BE35DCC6
BDF8D4FE
BE8B7803
BE4793DE
BDFDBF48
BD3923A3
BE2B50B1
3E2CBFB1
3E3F7CEE
BC1EECC0
BD8B0F28
BE14AF4F
BC59E83E
3D1BA5E3
BD74F0D8
BD8EBEE0
3C944674
3DC2F838
3D058794
3D8FF972
BD9C0EBF
BB5844D0
3C23D70A
3DA05BC0
BD797247
3D3EDFA4
BD6E6320
BE32FEC5
3DA3D70A
BD0F5C29
3DA92A30
BDAF4F0E
BEA631F9
3DB2617C
3E2D5CFB
BC535A86
3D74F0D8
3E1E9E1B
BDCA233A
BDD9E83E
3CB43958
3E1BA5E3
3D408312
BE4AF4F1
BCF4F0D8
3C0E8A72
3DD35A86
BBEBEDFA
3D8BAC71
39D1B717
3D3020C5
3D1AD42C
3DB9C0EC
BC9374BC
BE516873
3CF765FE
3D31C433
BDD7A787
3DF6FD22
3DF73190
BE2ECBFB
BDF318FC
BCE21965
3CA4A8C1
3E1EB852
BCDC5D64
3DD3F7CF
3E0FAACE
3C63BCD3
3E0D9E84
BE32B021
3E248E8A
BC343958
3E271DE7
BD809D49
3E811340
BCC22681
BD8BAC71
BDBD3C36
BE15182B
3E10E560
BDB645A2
3CD9E83E
3E2A7EFA
3E437B4A
3DBEAB36
3E1FF2E5
BD97C1BE
3E0D35A8
3D851EB8
3D5E00D2
BDE24DD3
BE4E3BCD
BDA12D77
BC9FBE77
3C9374BC
3DCC63F1
3E18E219
BE68240B
3D514E3C
3DB9C0EC
BDE24DD3
3C6075F7
BD59E83E
3D378034
BD9F212D
BD8C7E28
BDF14120
3DC7AE14
BDB4D6A1
BE089A02
BE6872B0
3D9D7DBF
BDA5460B
BDE6CF42
BD989375
3E1A36E3
3D563886
3DDC28F6
BA6BEDFA
BDD60419
BD8EBEE0
BD172474
3E34D6A1
BDA8F5C3
3DD63886
3E34A234
3D41BDA5
3D84B5DD
BDA0902E
BD985F07
3D8FF972
3DBF4880
3D2161E5
3CE703B0
BE07AE14
BD48B439
BDE425AF
3E041893
BE80B780
3E306F69
BDDA511A
BE2CA57A
3DB61134
3CF27BB3
BDBC6A7F
3E6C56D6
BE439581
3C8C154D
3E1D6388
BC9FBE77
3E0C2F83
BCD91687
BE2703B0
BC04B5DD
BD8F27BB
3D285879
BE037B4A
3D99652C
BD99999A
3E79C0EC
3DB88659
3DCBC6A8
BE26E979
BE9C779A
BD2B367A
3D868DB9
3CD35A86
BE58E219
3D39F55A
3E4902DE
BD6E6320
3E1F6FD2
3DA0C49C
BD837B4A
BE1EECC0
3E0A8C15
BDA0C49C
3D92D773
3DC8E8A7
3DBB2FEC
BCD5CFAB
3BFC5048
BE0D1B71
3D7AACDA
BD4710CB
3C89A027
3DD94AF5
BC5013A9
BE67EF9E
3DC6DC5D
3DDE353F
3DD21FF3
3E4E3BCD
BDF06F69
BE4CCCCD
BE03C9EF
BE10E560
BE34D6A1
3DE83E42
3E923A2A
BDEBEDFA
BC9FBE77
BE1F06F7
3E13A92A
BD690FF9
BDE978D5
3E7F2E49
BD3C6A7F
3D91D14E
BDD60419
BD2A64C3
BD4D35A8
3D202752
BD6425AF
3DE9AD43
3D3CD35B
BC656042
3C449BA6
BDBE76C9
3DB367A1
BD820C4A
BD85BC02
BE26E979
3E09A027
3CCA57A8
BD57DBF5
3DF212D7
3B5ED289
3EC6C227
BDD7DBF5
3E538EF3
BC30F27C
3D46A7F0
3BBAC711
3E1E4F76
BDFC1BDA
3CEBEDFA
BD48B439
3DFAE148
3E0624DD
BBD4FDF4
BD837B4A
BDD77319
3DBE76C9
BDA9C77A
BE0E3BCD
BD6075F7
3CDED289
BE397247
BD982A99
BE02A993
BDF1758E
3D75C28F
BE379A6B
BCC63F14
3DFE2824
BDE809D5
3E0F27BB
BBA71DE7
3D7B15B5
3C8CE704
BDA36E2F
BE107C85
3CFAACDA
BCD42C3D
BDE353F8
BE046738
BD809D49
3E25460B
BE0FAACE
3E6BEDFA
BE29930C
BD22339C
3C3FB15B
3D072B02
BDF62B6B
3D3F4880
3D25119D
3D9F8A09
BB656042
3E2B367A
3E75C28F
BDAE48E9
BDC25AEE
BE23A29C
3CC710CB
3E25AEE6
BDF765FE
3D264C30
3D7A43FE
BEAECBFB
3D0B4396
BE54E3BD
BD62EB1C
BDA9930C
3CB923A3
3DD94AF5
3DAA3055
3E812D77
3DD3F7CF
3D7837B5
BE7559B4
BD70D845
BDE9E1B1
3A378034
BC6703B0
3DC8E8A7
BDDB22D1
3C22339C
3CB6AE7D
3D322D0E
3D714120
3DF62B6B
3D94E3BD
3D350B0F
3D45D639
BD514E3C
BD9C0EBF
BC70D845
3E1930BE
BE46C227
BD69E1B1
3D11D14E
BD83E426
3CF41F21
3E172474
3E3020C5
3D597F63
3DA30553
3E0D6A16
3BF5C28F
3E42DE01
3E6BB98C
3DA2D0E5
BD20902E
3E381D7E
3DA12D77
3E102DE0
BDF69446
3C6075F7
BDE4F766
BD53C361
3D322D0E
3E6BEDFA
3DCED917
BE07C84B
BE47E282
BE13F7CF
BD96872B
3DC87FCC
3D4779A7
3E211340
3C727BB3
3E03AFB8
BDA5AEE6
3D0FC505
BE0A57A8
3DF4BC6A
3C11D14E
BE7851EC
BDA92A30
BE549518
3DDC28F6
BD2161E5
BE03E426
BBEF34D7
3D05F06F
BE30A3D7
3A9D4952
BB5844D0
BDD288CE
3E149518
3DCDD2F2
BA83126F
3DBF1412
BD872B02
3E10E560
3DF3EAB3
3E420C4A
3D858794
BDB7B4A2
3D456D5D
BE5EB852
3E3CED91
BD3A5E35
BD8ADABA
BD4CCCCD
3E7126E9
3D0B4396
3E271DE7
BE3A0F91
BD8B0F28
BB16BB99
3D1E1B09
BE1D14E4
3E5AD42C
BD39F55A
3D9CAC08
BDAD0E56
3E38BAC7
BDD73EAB
3DB0F27C
3E0E8A72
3DC60AA6
BD5ED289
3ADED289
BE5013A9
3DC28F5C
BE3E76C9
3D3EDFA4
3D60DED3
BCCBFB16
BD797247
BDA8F5C3
3DB089A0
BCD288CE
BC741F21
BD5B22D1
BDA5460B
3D2CD9E8
3D9FBE77
BDC56D5D
3DB089A0
BD7F9724
BDA75254
BC9930BE
3E5CE076
BE3851EC
BD7F9724
BDEE2EB2
3E13DD98
BE010625
BE314120
3D727BB3
3D15E9E2
BDEDFA44
BC88CE70
3D9AD42C
3E1AB9F5
3D947AE1
3CE3BCD3
3D89D495
3E228241
BE4432CA
BDEF34D7
3E0BC6A8
3C90FF97
BD4ED917
3E1566CF
3E8CBFB1
BCBE0DED
BE65460B
BCBE0DED
BDC432CA
3DA617C2
BD7D8ADB
3E61CAC1
BD9B3D08
BDD6A162
BE5182AA
BE07C84B
BD8F5C29
3D60DED3
3DC6A7F0
BE2C0831
3CEA4A8C
3E2C0831
3E2D5CFB
BDB43958
3B9D4952
BE8EA4A9
BD800000
3E2339C1
3C0CE704
BE05BC02
BDEECBFB
BD178D50
BD144674
3E1A511A
BDFA786C
3E33D07D
3DEC8B44
BDEA161E
3E437B4A
3E01D7DC
3BB43958
BD734D6A
BDCAC083
BDD5CFAB
3C0E8A72
3D5013A9
BDE7D567
3D8CE704
BC7765FE
3BEF34D7
3E0F9097
3D8E2196
3E2C0831
BD656042
3DC63F14
3E690FF9
3D25E354
BD8902DE
3E04816F
BE1AEE63
BDE3F141
3E3AACDA
BE04D014
BE843FE6
BD9F559B
3E1119CE
BE1E9E1B
3C6D9168
BD236E2F
3DD7A787
3E32FEC5
BD40EBEE
BE3367A1
BE25C91D
3D669AD4
BD1E1B09
3DD66CF4
BDB95810
BE0A71DE
3CD42C3D
3D985F07
3C54FDF4
3DF212D7
BD2EE632
3E31DE6A
3D8D1B71
3BD844D0
3DFC1BDA
3C1BA5E3
3E00D1B7
BE852BD4
BDDC28F6
3DB61134
3DCFDF3B
BDC63F14
3E248E8A
3D4432CA
3D449BA6
3DC32CA5
3DB645A2
3DA88CE7
BDF212D7
3D9E1B09
BE80B780
BE1F3B64
BD9CAC08
3DB020C5
3D95182B
BDCF0D84
BDCD35A8
3DAC3C9F
BDA43FE6
BDC779A7
3DD0B0F2
3DCAF4F1
3C16BB99
BE163886
3B9D4952
BE43126F
3DE7D567
38D1B717
3D0EF34D
BCEBEDFA
BE217C1C
3D889A02
3D9BDA51
3DC36113
3DC50481
BE39DB23
3E3AACDA
BE3FCB92
BDE2B6AE
BD90FF97
3E0793DE
BE1D4952
BD2CD9E8
BDA8F5C3
BD1930BE
3E29E1B1
3E07E282
3E13F7CF
BD2EE632
BD47E282
3D600D1B
BD5844D0
BD99652C
BE1844D0
3B4B295F
BB09A027
3DF4F0D8
3E5F3B64
BE798C7E
BD8624DD
BE1B22D1
3DC1F213
3E53A92A
BDC816F0
BDA8C155
BC70D845
BDD97F63
3DA92A30
BE3E5C92
3D350B0F
3DE8DB8C
BDCC985F
3D5A511A
3DB295EA
3DEAB368
BD5288CE
3DEF34D7
3E46A7F0
BEAC2F83
BDD7A787
BE4B295F
BD1B3D08
BDFDF3B6
BE0C2F83
BE5CFAAD
3E428F5C
BD81A36E
3D913405
3E2CA57A
BD97F62B
BD41BDA5
BE0816F0
BD9DB22D
3C7765FE
3D12A305
3E401A37
BC8CE704
BDBAFB7F
BE2703B0
3D2E7D56
BC0B4396
3D8FC505
BE14E3BD
3D9F212D
3E1E69AD
BD6978D5
BDD4C986
BE0ED917
BE0AC083
3DFC5048
3E374BC7
BE0B0F28
BE18ADAC
3E75A858
3C5ED289
BE41BDA5
BD449BA6
BD01D7DC
3D96BB99
3DE425AF
BE037B4A
3D9FF2E5
3E113405
3D25119D
3B102DE0
3D6AB368
3CF0D845
BBD1B717
3D3D3C36
3DE00D1B
3D96F007
BE1C91D1
3E00D1B7
3DD6D5D0
BD13DD98
3B4B295F
BE1C28F6
BDF2B021
3E4D6A16
BD5A511A
BE1E1B09
3D38BAC7
3E54FDF4
BDF1A9FC
BBB78034
3DE83E42
3D9652BD
3E149518
3D577319
BDC50481
BE437B4A
3C3923A3
BDE2EB1C
BCC985F0
BE5D97F6
BE14E3BD
3D39F55A
BDD59B3D
BD80346E
3CEF34D7
BE54C986
BDEDC5D6
3DE17C1C
3E08B439
3C84B5DD
BE3295EA
3DF2E48F
3DB33333
3DFFCB92
3DAD0E56
3E24DD2F
3E1FF2E5
3CCB295F
BC3923A3
3DA3D70A
3D816F00
BDBF1412
3E1E9E1B
3D9FF2E5
BCCA57A8
3D577319
3C449BA6
BE3126E9
BDCBFB16
BE6425AF
3DDE9E1B
3DE56042
3E8786C2
BDEE6320
BD2786C2
BE1DE69B
3CC49BA6
3DAB9F56
3E0BC6A8
3D4985F0
BE200D1B
BE8346DC
3DB0BE0E
BDE075F7
3DDA8588
3E126E98
3E0BC6A8
3AD1B717
BC90FF97
BDAACD9F
3C42F838
BD6DFA44
3D9EECC0
BD10FF97
BDE83E42
BE01A36E
BD343958
3DFFCB92
3E2F837B
3C47E282
BDA5E354
3D6AB368
3CF41F21
BEA7D567
BD8C154D
3D61B08A
BD75C28F
BDACA57A
3E2A161E
3B449BA6
BDA5119D
BDAF837B
3E78A090
3D514E3C
BDCCCCCD
BE19CE07
3DFE9100
BDB5DCC6
BE67A0F9
3C8E8A72
3DADAB9F
BDDDCC64
3D3C6A7F
3D01D7DC
BDDED289
3DE594AF
BCCE703B
3E4D013B
BE3D70A4
3CFB7E91
BE5DB22D
3D1652BD
BCA57A78
3DB5A858
BD6A4A8C
3E5096BC
BD4FAACE
BE20AA65
3E8147AE
3D315B57
3E771759
BDC2F838
3C1A0275
3B30F27C
3E7CD35B
BD762B6B
BE5C779A
3E1EECC0
3CE48E8A
BC816F00
3D8240B8
3E15182B
BE456D5D
3E1DE69B
BDB22D0E
BE7E2824
BE44816F
3E08B439
BE87AE14
BD89374C
3E3AC711
3DFEC56D
3D0E8A72
BA83126F
BE27D567
3C9E1B09
BE3AC711
BD99CE07
3CD844D0
3C6D9168
BEA36113
3D6B1C43
BD74F0D8
3E47E282
BE3CD35B
BD1A0275
3E6A9931
BE802752
BE8C0831
3EA69AD4
3D67D567
BDB8BAC7
3A6BEDFA
BD648E8A
3DB1C433
BDEF34D7
3E1A511A
3E2D7732
BE8DED29
BDB295EA
BDF381D8
3E4A0903
3D7CB924
BD1EECC0
3E095183
BD34A234
3C6F34D7
3CF5C28F
3E20DED3
BDAF837B
BDF62B6B
3DC4D014
BE819653
3C257A78
BE13C361
BC07FCB9
3E3EAB36
3D8DED29
3DC46738
3E18793E
3BF9096C
BD058794
BC4E703B
BD563886
BDAF1AA0
3AEBEDFA
BDFC1BDA
BD00346E
BC75C28F
BCAB367A
BDE8DB8C
BDBE425B
BCB851EC
3DEFD220
BD855326
BDF27BB3
BD236E2F
BC95182B
3CAF4F0E
BE3EAB36
BB03126F
BE25FD8B
BE1D4952
3E516873
3B6BEDFA
3E3FCB92
3E47C84B
3D95B574
BA378034
3E3F9724
3C6A4A8C
3D428F5C
3E142C3D
BC20902E
BE656042
3DA339C1
3E0E8A72
3CC154CA
BB5844D0
BE2D5CFB
3D5844D0
3D4154CA
BE778034
BC463F14
3D4E075F
BD86F694
3DFA0F91
BE50FF97
3DE1E4F7
BD6D9168
BD463F14
3E0F27BB
3BCE703B
3C6F34D7
BD9DE69B
BD236E2F
3E27BB30
BCF9096C
BD04B5DD
BE2AB368
3D4D35A8
BE400000
3D5FA440
3E3FCB92
3E41205C
BD28C155
BE64DD2F
3CF4F0D8
3D1652BD
BE695E9E
BBB43958
3E23D70A
BD3851EC
BBC7E282
00000000
BC75C28F
BE3E9100
3E2A4A8C
BDCC985F
BE0B7803
BE16BB99
3E0B923A
3DED288D
3D82A993
3DF58E22
3AC49BA6
BDFE5C92
BE41A36E
BDF86C22
BE32E48F
BE0BC6A8
3E264C30
3E00B780
3D463F14
BE0BE0DF
3E4EBEE0
3E0ADABA
BE03E426
BDA36E2F
BD628241
BD7837B5
3DE8A71E
3D178D50
BB86594B
BE547AE1
3E0C49BA
BE1EB852
3E08E8A7
BE778034
BD6C56D6
BE5E4F76
BC7DF3B6
3E058794
BD855326
BD837B4A
3DAC710D
3E163886
3E5DE69B
BCF69446
BD82DE01
3DCD013B
3DF65FD9
3C88CE70
BD4D35A8
3E40D1B7
BE18ADAC
3C902DE0
3C3295EA
BE154C98
BD52F1AA
3D4F41F2
BC102DE0
BE172474
3E5C0EBF
BDFEC56D
3DD73EAB
BD4710CB
BE9758E2
3E629C78
BE92D773
BE765FD9
3D8ADABA
BDB3D07D
BD80D1B7
3C5013A9
3E96A162
BDB4D6A1
3E126E98
3D8F27BB
BE126E98
3E1096BC
3D2ACD9F
3D35DCC6
3E6D7732
3E3559B4
BB79096C
3DEB1C43
BDC8B439
BDD66CF4
BE06C227
3DB404EA
BD7EC56D
BE283E42
3D3C01A3
BBE21965
3E23F141
BD39F55A
BE380347
3D82DE01
3E23A29C
3D3851EC
BCEE6320
3E022681
3E01A36E
BCE8A71E
BE1E69AD
BE4DD2F2
3DC538EF
BD79096C
3E602752
BDB7E910
BE2EE632
3E3AC711
BDCA233A
BE39C0EC
BE388659
BE3923A3
BE8CF41F
3D5ED289
3E2C2268
BD2ACD9F
3E1AEE63
BE30A3D7
BD2161E5
BE28DB8C
BDB573EB
BE1E83E4
3D6DFA44
3D93DD98
3CF69446
BE202752
BBFC5048
3EB15B57
BE06DC5D
BB5ED289
BE7FE5C9
BE1D97F6
3D3089A0
3E318FC5
3DEF34D7
3DBB98C8
3D1AD42C
BD072B02
3E231F8A
3E62EB1C
3D016F00
BD4F41F2
BDFDF3B6
BD8F27BB
BDAB020C
3E091D15
BDE17C1C
BE04EA4B
3D99CE07
3D34A234
3D010625
3E2CBFB1
BD5C5D64
3D1096BC
3D2C710D
3CB5DCC6
3E28C155
BDF86C22
3E1A9FBE
3DC0B780
BE39F55A
BE3212D7
BE8161E5
BCFDF3B6
3D2C710D
3E5F559B
3E8C154D
3E11D14E
BADED289
3D77CED9
3E570A3D
BE1C779A
3D872B02
BDA05BC0
3CE703B0
3E1C91D1
BDA4A8C1
BE530BE1
3E063F14
3E025AEE
BDC6A7F0
BDC538EF
3D7F9724
BC6075F7
BE2FEC57
BE1A36E3
BE252BD4
BD73B646
BDAACD9F
3E181062
BC809D49
BD257A78
3D762B6B
BE05F06F
3E715B57
BD535A86
BCBC6A7F
3DD49518
3E44D014
3E9AD42C
BBC49BA6
BDC0EBEE
BE3573EB
BDE90FF9
3E0C985F
BE0A233A
BDCC2F83
BDFAE148
BD463F14
3DFEC56D
BE3BE76D
3EBD97F6
3E0EBEE0
BCD0E560
BD0F5C29
3E089A02
BDCFDF3B
3E285879
3E1A8588
3D14AF4F
BDDED289
3D8B4396
BDC9EECC
BCF9DB23
BDD14E3C
BDB1C433
3D683E42
BDBDD97F
BE4C49BA
BE54FDF4
3E01A36E
BD8A71DE
3C6F34D7
BE3BB2FF
BDD4C986
BDFC84B6
BD0E2196
3DCF41F2
3E2E7D56
3E436113
3E0B5DCC
BC535A86
BDAD7732
3DA9FBE7
BC872B02
3D9A9FBE
3BB43958
3E946DC6
3CBE0DED
3C1EECC0
BE4D844D
3E06C227
3CA0902E
BE513405
3DEA161E
3DA43FE6
BDC0EBEE
3DF6C8B4
BE504817
3DCBFB16
3E1D6388
BDF73190
BD858794
3D9EECC0
3CD0E560
BD19999A
3E927BB3
BD2B9F56
3E8ACD9F
BD1EECC0
3E08B439
3D8DED29
BE9013A9
3DA8F5C3
BD1D4952
BDA7EF9E
3E441893
BE563886
3E6B1C43
3C70D845
BE5758E2
3D4A57A8
3E20C49C
BDCC985F
3DBE76C9
BE2B6AE8
3E37E910
BD02A993
3DFA43FE
BE32CA58
BE5F559B
BE450481
3D39F55A
BC271DE7
3E245A1D
3DF27BB3
3E314120
3C9E1B09
3AEBEDFA
3E884B5E
3BCB295F
3E30A3D7
3D5D97F6
BDE21965
3D0E2196
BDC04EA5
BD30F27C
3D3DA512
BDEDFA44
BDDCC63F
3DE8A71E
3E01BDA5
BE439581
3DB53F7D
3D7C5048
BD809D49
3D9B3D08
3D4432CA
3CD013A9
3E075F70
3D6703B0
BDF1758E
BD77CED9
BD8B0F28
3E00B780
3E3AFB7F
3D037B4A
BCB6AE7D
BE62339C
3E0710CB
3AC49BA6
BDAE7D56
BDE94467
3E8D4FDF
3DD14E3C
BDA6B50B
BDE90FF9
3D8F27BB
BD185F07
3D549518
3E89D495
BD3B98C8
BE0D6A16
3DCD9E84
3E0C2F83
BE238866
BDFAE148
BE76C8B4
BE66B50B
BB83126F
3D76FD22
BE59E83E
BE166CF4
BE884B5E
BCD91687
BD07FCB9
3D6353F8
BD3AC711
BE2E7D56
BE27D567
BD16BB99
3DAEE632
3D8ADABA
BD4154CA
BD9EECC0
BCD9E83E
BE1B089A
3E40346E
BD727BB3
BE0FF972
BD2CD9E8
BE05A1CB
3E2F6944
BE07E282
BD982A99
BDEB851F
BDCFAACE
3D86C227
3E60C49C
3D1EECC0
3CACD9E8
BD6D9168
BE810625
3D449BA6
BE25FD8B
BCEA4A8C
3CD42C3D
BD13DD98
BD89374C
3D941206
3D0E8A72
3D24A8C1
3D9FF2E5
BB51B717
3D67D567
3E46A7F0
3D7559B4
3E08CE70
BE01BDA5
BDC5A1CB
BE6B6AE8
BDAF1AA0
3E3C01A3
3DF5C28F
BDA29C78
3D944674
BDF97247
3CB78034
BE083127
3E121FF3
BE132618
BDF837B5
3E3020C5
3DDAEE63
BDA57A78
BB727BB3
BD683E42
3E1D4952
BE013A93
BDDCFAAD
BE6EB1C4
BE13C361
BD944674
3D13DD98
3D80D1B7
BD144674
BD985F07
BDC36113
3E0C49BA
3D2786C2
3DE809D5
BE1AEE63
BDA1CAC1
3E44816F
BE238866
BE671DE7
BE353F7D
