BE49374C
3ED7DBF5
BD178D50
3E5DCC64
BE1C5D64
BBDB8BAC
BC6D9168
BE8DC5D6
3CF27BB3
BEBB089A
BE7487FD
BE9FF2E5
3DDA8588
3DCC2F83
3B8CE704
BE08B439
BEB18FC5
BE9AE148
3CA64C30
BBD4FDF4
BE68A71E
3DFF62B7
BE28DB8C
3E914E3C
3E5E00D2
3DDBC01A
3E0AC083
3E49EECC
BDC6DC5D
3E86809D
3E191687
BE86C227
BE032CA5
BD3DA512
3E801A37
3DA9FBE7
3D0240B8
3C47E282
3E578D50
BCECBFB1
BCDAB9F5
3EAF34D7
3E9013A9
BE3381D8
3E12D773
BE191687
3C7AACDA
3DF4BC6A
BE6D7732
BE393DD9
BE93DD98
3D23D70A
BCF0D845
BE74A234
3E095183
3DAD0E56
BD48B439
BD886595
3E1119CE
3C985F07
BE418937
BE16BB99
3E8793DE
BD9A9FBE
BC83E426
BEA793DE
3D9E83E4
BDFEC56D
BDD9B3D0
3DEC2268
3E0793DE
3D49EECC
3C4E703B
BE12BD3C
3E266666
3D83126F
3E58FC50
3C83E426
3DECF41F
3D20F909
3E80C49C
3E3C3611
BDC0EBEE
BE671DE7
BCFDF3B6
BDE24DD3
BE49D495
BE7A92A3
BDDC5D64
BEC5C91D
BEA0B780
BCDE00D2
3DF8D4FE
BE80DED3
3E1C91D1
3DFEF9DB
BE99E83E
3DA8C155
BC54FDF4
3D8CE704
BE81CAC1
3DFF9724
BDB98C7E
BC9374BC
3E189375
BE0C63F1
3E2BB98C
3C9FBE77
3CAC0831
3EB95810
3DDA8588
3E7D3C36
3E581062
3E6C2268
BD3923A3
BE17C1BE
3C7765FE
BE0A57A8
3DA6809D
BC449BA6
3E83A29C
3E2703B0
BE5A511A
3DC08312
BE68DB8C
3E4DD2F2
3E4E703B
BE851EB8
3DEF6944
BEB33333
3DCAF4F1
BE6CF41F
3E0EBEE0
3E02A993
3E758E22
3E6DC5D6
3CB367A1
BE858794
BE8A233A
BE1B8BAC
3DFF2E49
BE810625
BE1652BD
3C8E8A72
3E771759
3E1ED289
BF239581
BEC22681
BE5096BC
3DC50481
BE089A02
3E236E2F
BE86E979
BE72FEC5
3E47FCB9
BB656042
BE813A93
BE4CCCCD
3CB923A3
BDA5460B
BE6B50B1
3E62339C
3E4A8C15
3E875F70
3DA0F909
BE8D5CFB
BE99B3D0
3DEDC5D6
3E18E219
BD8C49BA
3E8538EF
BE18ADAC
BE7B645A
3DD70A3D
BE5B3D08
3E041893
3E68DB8C
3D727BB3
BEAD013B
BD5CC63F
3D86F694
BE5E1B09
BBF9096C
BCF5C28F
BE797247
BC3AC711
3E292A30
BDF6C8B4
3E7FCB92
3E92617C
BAD1B717
BE93EAB3
3D28C155
BE009D49
3E7BE76D
BE7B2FEC
3E84A8C1
3E769446
BD954C98
BE10B0F2
BE420C4A
BDC25AEE
BE4B7803
3E2A7EFA
BE55E9E2
3DAEE632
3DE872B0
3D0FC505
BD4A57A8
BDCC2F83
BCDC5D64
3E4FF972
3E310CB3
3D889A02
BE87EF9E
BE30F27C
3D9DE69B
BD8C7E28
3E6161E5
BDF5F6FD
3DDE353F
BE107C85
3BD844D0
3E7BCD36
BE47FCB9
3E8779A7
BE0C49BA
BE212D77
3E22339C
3E1CFAAD
BE8CA57A
BD8624DD
BE6CD9E8
BE7DD97F
3E266666
3E8A64C3
BECD844D
3D2786C2
3E7E76C9
BD8F27BB
BE7212D7
3E7F9724
BD010625
BD86C227
BB86594B
BB3E0DED
BE21CAC1
3EA5D639
BE172474
3DD35A86
BE532618
BCE2EB1C
