BD0D4FDF
BD6DFA44
3CEBEDFA
3CEA4A8C
3E7B4A23
3E59E83E
BE7B645A
3D56A162
BE264C30
BE9B7176
BD7AACDA
BDF41F21
3E3AC711
3D1DB22D
3D428F5C
3DBBCD36
BE68240B
3D484B5E
3E60902E
BEAE075F
3DB67A10
BE15182B
BD809D49
BDA19653
3CE8A71E
3E573EAB
BEA92A30
BE217C1C
BCD35A86
BDAB020C
3DDBF488
BEA43FE6
3DFA786C
3C54FDF4
BCFDF3B6
3D8C154D
BE1D7DBF
BE16BB99
BC83E426
BD436113
3DA12D77
BCD6A162
BE4C154D
BE9A786C
3C1EECC0
BEAEBEE0
3E6E2EB2
3DA6809D
3D2CD9E8
3EB69446
BD9096BC
BD36AE7D
BDB50B0F
3E04816F
BDA8F5C3
3E00D1B7
BE762B6B
BE17DBF5
BEA74539
BE5B089A
3E604189
3D3020C5
3D8D4FDF
3E358E22
3E9C3611
BDAC0831
BE333333
3C449BA6
BE997247
BE38D4FE
BDD63886
BECBC6A8
BE79096C
3E585F07
BD85F06F
BE90B0F2
3DAB020C
3E7F2E49
BD7DF3B6
3DBA92A3
BB449BA6
3DA64C30
BDC32CA5
3E0710CB
BE942C3D
3C3AC711
BE87BB30
3DF69446
3E2F1AA0
3E5182AA
BE3D3C36
BE303AFB
3EDA786C
3E8A0903
3D45D639
BE86DC5D
3E8A233A
BDC74539
3E9374BC
BD7B7E91
BE1AEE63
3DCF7660
BE8703B0
3E6872B0
BDFD8ADB
BC09A027
3CFEC56D
3E88240B
BD94AF4F
3E3CD35B
BE0902DE
3E972474
3E20902E
3D0DB8BB
BEB3A92A
BCDAB9F5
3D810625
3D94AF4F
3E884B5E
BE365FD9
3E87FCB9
BD6631F9
BE9E353F
BE339C0F
3E437B4A
3E004EA5
3E7B98C8
BE8B9F56
3DB1C433
BE0EA4A9
BD93404F
BDF381D8
BE3295EA
3E6CD9E8
3E52A305
3D9374BC
BE2D7732
BE895E9E
3DDCFAAD
3E2786C2
BC0B4396
3E03C9EF
BE74538F
3E20DED3
3E495183
3E5BC01A
BE0F7660
BDB22D0E
3E8D4FDF
3D2EE632
BD5D2F1B
3D229C78
3E79096C
3DC32CA5
BE65C91D
3D13DD98
BEA2D0E5
BC463F14
BD8EBEE0
3E30F27C
BE99B3D0
BE9C91D1
3B9D4952
3E20DED3
BE9E2824
BCFEC56D
BD73B646
3E1FA440
3D542C3D
3D81A36E
BDF73190
3E42A993
BE7D3C36
3E3A0F91
BC016F00
3EAFAACE
3E7AACDA
3E2F0069
BE80C49C
BE18E219
BE952546
3DF6C8B4
BDF6FD22
BD577319
3D9A36E3
3E64F766
3E15CFAB
BC816F00
3E072B02
3E2FD220
BC727BB3
3E74F0D8
BE4346DC
BD9FF2E5
3E86A7F0
BDC95183
BE965FD9
3E425AEE
BDAEE632
3CCCCCCD
BD484B5E
3E895E9E
3D1930BE
BC809D49
BE83D70A
3E7AE148
BEC56042
3DA9930C
BDE703B0
3D45D639
3E44D014
BE7A0F91
3E6147AE
BC68A71E
BE68240B
3E231F8A
BE8D6A16
3E3A786C
BD102DE0
BEC4A8C1
3E0FAACE
3DE7A0F9
3DA7BB30
3E7AC711
3D6DFA44
3D669AD4
BE997247
3E34538F
BE804EA5
3E840B78
BE6DE00D
BE1BDA51
BD2F4F0E
3DC9EECC
BD99CE07
BE3D566D
3E60DED3
BE3295EA
BE91D14E
BE39F55A
BD28C155
3D0A0903
BDB923A3
BE39F55A
3C9FBE77
3E25FD8B
BB5ED289
BE4B0F28
BD27EF9E
BECDB8BB
3E1BC01A
BE9DB22D
