BE9A108E
3E857498
3D9E41EC
BD67E1BE
3E456C95
3E58BFE3
BE59CC39
BDF1CD5E
3DB77ED1
BE89D14C
BD6BBA61
3C9D1087
BD548286
3CDCE020
3E837092
BECAFB66
BE9F4180
BCA3862C
3E4DB73E
3D193F49
3E248CEF
3E91EDF9
BE92BB57
BE9AA72B
3D1E2255
3DFDB2A5
3E635C5A
3E0FB5F4
3A72E916
BE84D664
BC5C0CFC
3E295588
3E90BF00
3D0AF221
BCE0D36A
3D3A650E
3E2845C8
BE3BF067
BECE1459
3E3465FA
BE4AA13E
BC41A8C2
BCAD5090
BE6F432F
3E3C33E7
BDBDB7C0
BE42E2E0
BC3C6A1E
3D5F30E8
BE915A3B
BE2CC237
3E58513B
3C297DC8
3CA85E1D
BDC0ACC3
3D54E62E
3DBE58E5
BE25176F
3D19E785
3E7CD432
3DA42424
3D6F466F
BE2EA26C
BE180C1B
3E7B2940
3E41DC22
3E9BE584
BB34C772
3DCDBF43
3CFD5BAB
BE0305E9
3E209251
BE480A50
3E963383
BD4467C6
3DDBE47E
3E93B3F1
3E10DF6D
3EA0B288
3D4D43DB
3DD2838A
BCBBAFC9
BE385F55
BE815535
3CFF42D1
3DF5C90C
3E0C228F
3DE4C1D0
BE38E31D
BD9B82A0
BBFEEE1D
BD87E867
BE862EF6
BE204896
3E4EC0FA
3E444499
BDCDDFBB
3C918792
BCF080DC
3DC2C606
3E2723D4
BDBEFCD3
BDD75045
BED019E1
BEA276DB
BDCBECDB
BCB08FD0
BE0E2F3E
BDF41FAB
BE33E7A7
BE5EBFCD
BDFA2B97
3EAC81D6
BEF429EC
3E51CEA0
BE3A0EAC
BEA705D8
BD027EB3
3E7C2801
BD1A18CE
3E2CCF53
3E355B74
BCFC07E3
BDD99B5E
3E0D176D
BEAB8C81
BE1B9482
BE861983
3CDB544A
3E67ABF2
BE14943B
3E49BA4A
3E545B56
BD836EF3
BE7508CD
BDAED04C
BE93C993
BDAB70DF
3E3F310C
BEF3F5E2
BD5CBCAF
BD82A08D
BE948F9E
3D9656A9
BE7EE0C0
3D94A2F8
BDAAF8A8
BE7A7E9E
BE4041BE
3DF3329A
BE73208D
BE354CE8
BD9C1E38
3D775F22
BECEBCA4
3CC4D765
BDDEF41B
3E5B2E28
3B95AA0B
3D7543AC
BD204436
BE122520
3E0BC25D
BEBAB86B
3E996969
BE1F5217
3E4B50C7
BE81EF3A
3E6F2F17
BE4E84F4
BD6D6B05
BE8D7E48
3E92AB6C
BE1031E9
3E0EC383
3D17C6AE
BE9272E5
BE64A67A
3DB388AD
BE7B34DF
BE5EF6D4
3DCE5488
BE42077F
BDC92EA1
BE3EC243
BC0A734B
BEB93CAD
BE89BE8B
BE69B11E
3E07D100
3C606C87
BDAFC313
3E36601F
BEC29AE1
BDB3A5BC
3D9F6C96
3E0ADF52
3E06936D
3D988E0C
3E348062
3D0C0740
BD876F2E
3E4778D8
3EAD73D3
BE0AB5A2
BE2CB4DB
BEA355D6
BE94CE8C
BEAF317F
3EA566C6
3E2AF892
3D6BABF8
BE0A50B1
3DDE4747
BCFC6EDC
BE7AC2DC
3E04D3D3
3D3AACE7
3E4C841F
BD770B27
BE53FE0D
3E66FBD3
BCB2F398
3E095653
BEAE4C43
3DD32916
3DB8D07E
3E898DAA
3E6C72B8
BDBFF9CF
3D369147
3E135182
BD859965
3DE733D0
3E5EB0C1
BDBB983E
BE1894DC
BEC3C449
3E4F2665
BEA60979
3E638F1A
BE43E4B6
3DA9AB70
BE8F0A7B
3E6EE39C
BDC16982
BE4CCA72
3D542061
BCD793D0
3E6D99E9
BE755492
BE50B4A1

