3CC0BA1F
3C529CA5
BBEE8ED4
BC279FED
3C52FB50
3C707BFE
3CE8B703
BCAB38AE
BC041477
BC15734F
BA66304B
3C600294
3D17FF53
3C40914A
BB1C5D43
3B4DD205
3B715BA2
3C62F62F
BC6F055C
3CC57DBE
BA99CF1F
3D20F975
BCE93828
3D3F1049
BC93955E
BBDF7C3C
BCA06789
BC2606E5
BC83947A
BC72A77D
BCD720C3
3C984B50
BBB9AC8A
BC97B6C0
BC5B635E
3B33BBAF
BC206464
BCB127C0
3B2E0D9A
3B43C009
BC55A36B
3C9BEDD2
3C61DE4C
3D12B31B
3D21D4F2
3D0C3865
3C13D7D9
BC81DC9F
3D004FC4
BB20D01A
3BE74676
3D0A8E81
38F96F6D
3D4A2C49
BCB185D4
3C16B294
BCF38284
3D295B9C
BBF14FB9
3D3A9D9B
3C6F99E1
BC3D607E
3AF4AD11
3D021F75
3CA86748
3D0915C9
3D14991C
BC97362D
3C30B4FF
BCDBC848
BC89FC12
3CD7CB94
3CFB5231
3BF5767A
BB80AA4A
3D4C16BF
BB7BB619
BC3BC9DB
BCB75465
3CDE88ED
3D433B56
3D13121B
3CBF4EBA
3CD97D4F
3CE629D6
3C74CA17
BCA58068
BC7D0874
BBB3F378
3D11FE2F
3C9BB68A
3D1B21E2
3D09B7CA
3C874FB5
BD12DD8D
BC518E12
BC7B4DA9
BD0947A2
BAC180BE
BCAB0B8C
BCD54F12
BC8D626F
3D2069E0
3C144BE7
BBB30AC4
BC7CE168
3D567245
BCC049A7
3C5C78C7
BCBB3FF7
3C4AF343
3D432938
BC087A0D
BBCBE7F5
BBD64E00
BB2AADE9
3CB1D1B4
3AFFFA77
BB9F8DBA
3CE28E85

