BCD91687
BCF41F21
3C54FDF4
BD2161E5
3D1D4952
BD450481
BCE703B0
BC83126F
BCA71DE7
3D350B0F
3C7DF3B6
BC04B5DD
3CC08312
BD0DB8BB
BD058794
BB23D70A
3D0A71DE
BB727BB3
3CA30553
3B2A64C3
3D10FF97
3D009D49
BC816F00
BBF5C28F
BCE21965
BD8624DD
3C271DE7
3951B717
BD0C154D
3D0A71DE
3CA64C30
BD20F909
3CFD21FF
BC07FCB9
BC0E8A72
3CA9930C
3B5844D0
BD8BE0DF
B951B717
3C8CE704
3D1096BC
3CD288CE
3C87FCB9
BCD844D0
BD3C01A3
BD60DED3
BD3645A2
3C9C779A
3C1374BC
3C3C6A7F
3C809D49
BD00346E
3B727BB3
3B3E0DED
BC83E426
3C87FCB9
BD15182B
3BDED289
BCE21965
BBD844D0
BC656042
3C8C154D
BD3089A0
3BEBEDFA
BD25E354
BC9930BE
3BBAC711
BC8B4396
3CF9DB23
BCE2EB1C
BCC22681
BBFC5048
3D30F27C
BD1CE076
3CD35A86
3CA3D70A
BD0DB8BB
BB7F9724
3C03126F
BC3E0DED
BD229C78
3D243FE6
3B3E0DED
3CF9DB23
BBCE703B
3BDED289
BD5D97F6
BC9374BC
BD21CAC1
BD0EF34D
BD3923A3
BCACD9E8
3D60DED3
3C2A64C3
3D22339C
BD285879
3BB0F27C
3D3F4880
BD11D14E
BD450481
3CAA64C3
BD1930BE
3A03126F
BBCE703B
BC8B4396
3C978D50
3CFF9724
BD57DBF5
3D3367A1
3D1FBE77
BCD0E560
BC1374BC
3C5844D0
BC16BB99
3C1374BC
BCD35A86
3CCCCCCD
3C95182B
3D010625
BC0CE704
